{
  "version": "1.0",
  "truncation": null,
  "padding": null,
  "added_tokens": [
    {
      "id": 0,
      "content": "[UNK]",
      "single_word": false,
      "lstrip": false,
      "rstrip": false,
      "normalized": false,
      "special": true
    },
    {
      "id": 1,
      "content": "[PAD]",
      "single_word": false,
      "lstrip": false,
      "rstrip": false,
      "normalized": false,
      "special": true
    },
    {
      "id": 2,
      "content": "[SOS]",
      "single_word": false,
      "lstrip": false,
      "rstrip": false,
      "normalized": false,
      "special": true
    },
    {
      "id": 3,
      "content": "[EOS]",
      "single_word": false,
      "lstrip": false,
      "rstrip": false,
      "normalized": false,
      "special": true
    }
  ],
  "normalizer": null,
  "pre_tokenizer": {
    "type": "Whitespace"
  },
  "post_processor": null,
  "decoder": null,
  "model": {
    "type": "BPE",
    "dropout": null,
    "unk_token": "[UNK]",
    "continuing_subword_prefix": null,
    "end_of_word_suffix": null,
    "fuse_unk": false,
    "byte_fallback": false,
    "ignore_merges": false,
    "vocab": {
      "[UNK]": 0,
      "[PAD]": 1,
      "[SOS]": 2,
      "[EOS]": 3,
      "!": 4,
      "\"": 5,
      "#": 6,
      "$": 7,
      "%": 8,
      "&": 9,
      "'": 10,
      "(": 11,
      ")": 12,
      "*": 13,
      "+": 14,
      ",": 15,
      "-": 16,
      ".": 17,
      "/": 18,
      "0": 19,
      "1": 20,
      "2": 21,
      "3": 22,
      "4": 23,
      "5": 24,
      "6": 25,
      "7": 26,
      "8": 27,
      "9": 28,
      ":": 29,
      ";": 30,
      "<": 31,
      "=": 32,
      ">": 33,
      "?": 34,
      "@": 35,
      "A": 36,
      "B": 37,
      "C": 38,
      "D": 39,
      "E": 40,
      "F": 41,
      "G": 42,
      "H": 43,
      "I": 44,
      "J": 45,
      "K": 46,
      "L": 47,
      "M": 48,
      "N": 49,
      "O": 50,
      "P": 51,
      "Q": 52,
      "R": 53,
      "S": 54,
      "T": 55,
      "U": 56,
      "V": 57,
      "W": 58,
      "X": 59,
      "Y": 60,
      "Z": 61,
      "[": 62,
      "\\": 63,
      "]": 64,
      "^": 65,
      "_": 66,
      "`": 67,
      "a": 68,
      "b": 69,
      "c": 70,
      "d": 71,
      "e": 72,
      "f": 73,
      "g": 74,
      "h": 75,
      "i": 76,
      "j": 77,
      "k": 78,
      "l": 79,
      "m": 80,
      "n": 81,
      "o": 82,
      "p": 83,
      "q": 84,
      "r": 85,
      "s": 86,
      "t": 87,
      "u": 88,
      "v": 89,
      "w": 90,
      "x": 91,
      "y": 92,
      "z": 93,
      "{": 94,
      "}": 95,
      "~": 96,
      "": 97,
      "": 98,
      "": 99,
      "¡": 100,
      "¢": 101,
      "£": 102,
      "¤": 103,
      "¥": 104,
      "¦": 105,
      "§": 106,
      "¨": 107,
      "©": 108,
      "ª": 109,
      "«": 110,
      "¬": 111,
      "­": 112,
      "®": 113,
      "¯": 114,
      "°": 115,
      "±": 116,
      "²": 117,
      "³": 118,
      "´": 119,
      "µ": 120,
      "¶": 121,
      "·": 122,
      "¸": 123,
      "¹": 124,
      "º": 125,
      "»": 126,
      "¼": 127,
      "½": 128,
      "¾": 129,
      "¿": 130,
      "À": 131,
      "Á": 132,
      "Ä": 133,
      "Å": 134,
      "Ç": 135,
      "É": 136,
      "Í": 137,
      "Î": 138,
      "Ñ": 139,
      "Ó": 140,
      "Ö": 141,
      "×": 142,
      "Ø": 143,
      "Ú": 144,
      "Ü": 145,
      "ß": 146,
      "à": 147,
      "á": 148,
      "â": 149,
      "ã": 150,
      "ä": 151,
      "å": 152,
      "æ": 153,
      "ç": 154,
      "è": 155,
      "é": 156,
      "ê": 157,
      "ë": 158,
      "ì": 159,
      "í": 160,
      "î": 161,
      "ï": 162,
      "ð": 163,
      "ñ": 164,
      "ò": 165,
      "ó": 166,
      "ô": 167,
      "õ": 168,
      "ö": 169,
      "÷": 170,
      "ø": 171,
      "ù": 172,
      "ú": 173,
      "û": 174,
      "ü": 175,
      "ý": 176,
      "þ": 177,
      "ÿ": 178,
      "Ā": 179,
      "ā": 180,
      "ă": 181,
      "Ą": 182,
      "ą": 183,
      "Ć": 184,
      "ć": 185,
      "Ċ": 186,
      "Č": 187,
      "č": 188,
      "Ď": 189,
      "Đ": 190,
      "đ": 191,
      "Ē": 192,
      "ē": 193,
      "ĕ": 194,
      "Ė": 195,
      "ė": 196,
      "ě": 197,
      "Ĝ": 198,
      "ğ": 199,
      "Ġ": 200,
      "ġ": 201,
      "ģ": 202,
      "Ĥ": 203,
      "Ī": 204,
      "ī": 205,
      "Ĭ": 206,
      "İ": 207,
      "ı": 208,
      "Ĳ": 209,
      "Ĵ": 210,
      "ĵ": 211,
      "ĺ": 212,
      "ļ": 213,
      "Ľ": 214,
      "Ŀ": 215,
      "ł": 216,
      "ń": 217,
      "ň": 218,
      "ō": 219,
      "ŏ": 220,
      "Œ": 221,
      "œ": 222,
      "Ŕ": 223,
      "ř": 224,
      "ś": 225,
      "Ş": 226,
      "ş": 227,
      "Š": 228,
      "š": 229,
      "ţ": 230,
      "Ť": 231,
      "ū": 232,
      "ű": 233,
      "ų": 234,
      "ŵ": 235,
      "ŷ": 236,
      "Ÿ": 237,
      "ź": 238,
      "Ž": 239,
      "ž": 240,
      "ƒ": 241,
      "ư": 242,
      "ƴ": 243,
      "Ʒ": 244,
      "Ƽ": 245,
      "ƽ": 246,
      "ǂ": 247,
      "ǎ": 248,
      "ǐ": 249,
      "ǒ": 250,
      "ǖ": 251,
      "ǘ": 252,
      "ǜ": 253,
      "ǣ": 254,
      "ǰ": 255,
      "ǳ": 256,
      "ǿ": 257,
      "Ȏ": 258,
      "ȏ": 259,
      "ȧ": 260,
      "ȫ": 261,
      "Ȼ": 262,
      "ȼ": 263,
      "Ƚ": 264,
      "Ʉ": 265,
      "Ɋ": 266,
      "ɏ": 267,
      "ɑ": 268,
      "ɒ": 269,
      "ɡ": 270,
      "ɹ": 271,
      "ʇ": 272,
      "ʊ": 273,
      "ʔ": 274,
      "ʖ": 275,
      "ʜ": 276,
      "ʠ": 277,
      "ʣ": 278,
      "ʱ": 279,
      "ʵ": 280,
      "ʶ": 281,
      "ʷ": 282,
      "ʹ": 283,
      "ʼ": 284,
      "ʽ": 285,
      "ˆ": 286,
      "ˊ": 287,
      "ˋ": 288,
      "ː": 289,
      "˖": 290,
      "˙": 291,
      "˚": 292,
      "˜": 293,
      "ˠ": 294,
      "˳": 295,
      "˵": 296,
      "˹": 297,
      "̎": 298,
      "̐": 299,
      "̡": 300,
      "̢": 301,
      "̨": 302,
      "̬": 303,
      "̮": 304,
      "̳": 305,
      "̽": 306,
      "͠": 307,
      "͢": 308,
      "ͳ": 309,
      "ʹ": 310,
      "ͷ": 311,
      ";": 312,
      "Ϳ": 313,
      "΄": 314,
      "Ά": 315,
      "·": 316,
      "Ή": 317,
      "Α": 318,
      "Β": 319,
      "Γ": 320,
      "Η": 321,
      "Θ": 322,
      "Ι": 323,
      "Λ": 324,
      "Μ": 325,
      "Ν": 326,
      "Ξ": 327,
      "Ο": 328,
      "Π": 329,
      "Ρ": 330,
      "Σ": 331,
      "Τ": 332,
      "Ψ": 333,
      "Ω": 334,
      "Ϊ": 335,
      "α": 336,
      "β": 337,
      "γ": 338,
      "δ": 339,
      "ε": 340,
      "η": 341,
      "θ": 342,
      "ι": 343,
      "κ": 344,
      "λ": 345,
      "μ": 346,
      "ν": 347,
      "ο": 348,
      "π": 349,
      "ρ": 350,
      "ς": 351,
      "σ": 352,
      "τ": 353,
      "φ": 354,
      "ψ": 355,
      "ω": 356,
      "ό": 357,
      "ϔ": 358,
      "ϖ": 359,
      "Ϟ": 360,
      "ϟ": 361,
      "Ϣ": 362,
      "Ϭ": 363,
      "ϵ": 364,
      "Ϻ": 365,
      "ϻ": 366,
      "Ͽ": 367,
      "Ё": 368,
      "Ђ": 369,
      "Њ": 370,
      "Ѝ": 371,
      "Ў": 372,
      "А": 373,
      "Б": 374,
      "В": 375,
      "Г": 376,
      "Ж": 377,
      "З": 378,
      "И": 379,
      "К": 380,
      "М": 381,
      "Н": 382,
      "О": 383,
      "П": 384,
      "Р": 385,
      "С": 386,
      "Т": 387,
      "Ф": 388,
      "Х": 389,
      "Ч": 390,
      "Ш": 391,
      "Щ": 392,
      "Ы": 393,
      "Ь": 394,
      "Э": 395,
      "Ю": 396,
      "Я": 397,
      "а": 398,
      "б": 399,
      "в": 400,
      "г": 401,
      "д": 402,
      "е": 403,
      "ж": 404,
      "з": 405,
      "и": 406,
      "й": 407,
      "к": 408,
      "л": 409,
      "м": 410,
      "н": 411,
      "о": 412,
      "п": 413,
      "р": 414,
      "с": 415,
      "т": 416,
      "у": 417,
      "ф": 418,
      "х": 419,
      "ц": 420,
      "ч": 421,
      "ш": 422,
      "щ": 423,
      "ъ": 424,
      "э": 425,
      "ю": 426,
      "є": 427,
      "ѹ": 428,
      "Ҁ": 429,
      "҆": 430,
      "ґ": 431,
      "Ҕ": 432,
      "Ң": 433,
      "ҥ": 434,
      "Ҫ": 435,
      "ҫ": 436,
      "Ҳ": 437,
      "ҳ": 438,
      "һ": 439,
      "ҽ": 440,
      "Ӄ": 441,
      "ӄ": 442,
      "ӈ": 443,
      "Ӊ": 444,
      "Ӑ": 445,
      "Ӕ": 446,
      "Ӛ": 447,
      "Ӡ": 448,
      "ӡ": 449,
      "ӫ": 450,
      "ӯ": 451,
      "ӷ": 452,
      "Ԃ": 453,
      "Ԋ": 454,
      "ԋ": 455,
      "ԏ": 456,
      "Ԕ": 457,
      "Ԛ": 458,
      "Ԡ": 459,
      "Ԥ": 460,
      "Ԫ": 461,
      "Դ": 462,
      "Ե": 463,
      "Լ": 464,
      "Ձ": 465,
      "Ղ": 466,
      "բ": 467,
      "յ": 468,
      "չ": 469,
      "ց": 470,
      "փ": 471,
      "ֆ": 472,
      "֐": 473,
      "֘": 474,
      "֡": 475,
      "֣": 476,
      "֧": 477,
      "֪": 478,
      "֮": 479,
      "ֱ": 480,
      "ֲ": 481,
      "ָ": 482,
      "ֺ": 483,
      "ּ": 484,
      "׊": 485,
      "ד": 486,
      "ה": 487,
      "ע": 488,
      "ש": 489,
      "ת": 490,
      "װ": 491,
      "׳": 492,
      "׷": 493,
      "؊": 494,
      "،": 495,
      "ؐ": 496,
      "ؓ": 497,
      "ؖ": 498,
      "؟": 499,
      "ؠ": 500,
      "ا": 501,
      "ت": 502,
      "ج": 503,
      "ر": 504,
      "غ": 505,
      "ـ": 506,
      "ل": 507,
      "ه": 508,
      "ً": 509,
      "َ": 510,
      "ُ": 511,
      "ِ": 512,
      "ّ": 513,
      "ْ": 514,
      "ڔ": 515,
      "ڠ": 516,
      "ڱ": 517,
      "ڼ": 518,
      "۰": 519,
      "܂": 520,
      "ܷ": 521,
      "ݖ": 522,
      "ݣ": 523,
      "ݿ": 524,
      "ߣ": 525,
      "߰": 526,
      "๘": 527,
      "ဪ": 528,
      "Ⴗ": 529,
      "Ⴞ": 530,
      "ᆼ": 531,
      "ኸ": 532,
      "ኾ": 533,
      "Ἧ": 534,
      "​": 535,
      "‐": 536,
      "–": 537,
      "—": 538,
      "―": 539,
      "‘": 540,
      "’": 541,
      "‚": 542,
      "“": 543,
      "”": 544,
      "„": 545,
      "‟": 546,
      "†": 547,
      "‡": 548,
      "•": 549,
      "․": 550,
      "…": 551,
      "‧": 552,
      "‰": 553,
      "′": 554,
      "″": 555,
      "‵": 556,
      "‹": 557,
      "※": 558,
      "€": 559,
      "℃": 560,
      "℉": 561,
      "№": 562,
      "™": 563,
      "Ⅰ": 564,
      "Ⅱ": 565,
      "Ⅲ": 566,
      "Ⅴ": 567,
      "ⅳ": 568,
      "→": 569,
      "↖": 570,
      "∑": 571,
      "−": 572,
      "∕": 573,
      "∗": 574,
      "∘": 575,
      "∙": 576,
      "∮": 577,
      "∵": 578,
      "∶": 579,
      "∼": 580,
      "≤": 581,
      "≥": 582,
      "≦": 583,
      "≧": 584,
      "⊳": 585,
      "⊿": 586,
      "⋅": 587,
      "⋯": 588,
      "⋹": 589,
      "⌒": 590,
      "⎄": 591,
      "⎊": 592,
      "␩": 593,
      "①": 594,
      "②": 595,
      "③": 596,
      "④": 597,
      "⑴": 598,
      "⑵": 599,
      "⑶": 600,
      "⑷": 601,
      "⑸": 602,
      "⑹": 603,
      "⑺": 604,
      "⑻": 605,
      "⑼": 606,
      "⑽": 607,
      "⑾": 608,
      "⑿": 609,
      "⒀": 610,
      "⒁": 611,
      "⒂": 612,
      "⒃": 613,
      "⒄": 614,
      "⒅": 615,
      "⒆": 616,
      "⒇": 617,
      "─": 618,
      "━": 619,
      "│": 620,
      "┄": 621,
      "┅": 622,
      "┆": 623,
      "┈": 624,
      "┋": 625,
      "┍": 626,
      "┎": 627,
      "┏": 628,
      "┑": 629,
      "┕": 630,
      "┗": 631,
      "┘": 632,
      "┚": 633,
      "├": 634,
      "┠": 635,
      "┣": 636,
      "┤": 637,
      "┥": 638,
      "┦": 639,
      "┪": 640,
      "┬": 641,
      "┮": 642,
      "┯": 643,
      "┰": 644,
      "┱": 645,
      "┵": 646,
      "┶": 647,
      "┷": 648,
      "┸": 649,
      "┻": 650,
      "┾": 651,
      "┿": 652,
      "╀": 653,
      "╃": 654,
      "╆": 655,
      "╈": 656,
      "╊": 657,
      "║": 658,
      "╖": 659,
      "╝": 660,
      "╟": 661,
      "╡": 662,
      "╢": 663,
      "╣": 664,
      "╧": 665,
      "╪": 666,
      "╬": 667,
      "╭": 668,
      "╮": 669,
      "╯": 670,
      "╰": 671,
      "╱": 672,
      "╲": 673,
      "▄": 674,
      "▅": 675,
      "▆": 676,
      "■": 677,
      "□": 678,
      "▪": 679,
      "△": 680,
      "►": 681,
      "▽": 682,
      "◆": 683,
      "◊": 684,
      "○": 685,
      "◎": 686,
      "●": 687,
      "◯": 688,
      "♦": 689,
      "♪": 690,
      "♫": 691,
      "❑": 692,
      "➢": 693,
      "⣬": 694,
      "ⰲ": 695,
      "⼯": 696,
      "、": 697,
      "。": 698,
      "〃": 699,
      "々": 700,
      "〇": 701,
      "〈": 702,
      "〉": 703,
      "《": 704,
      "》": 705,
      "「": 706,
      "」": 707,
      "『": 708,
      "』": 709,
      "【": 710,
      "】": 711,
      "〔": 712,
      "〕": 713,
      "〖": 714,
      "〗": 715,
      "〝": 716,
      "〞": 717,
      "〡": 718,
      "〣": 719,
      "あ": 720,
      "ぃ": 721,
      "い": 722,
      "う": 723,
      "ぇ": 724,
      "え": 725,
      "ぉ": 726,
      "か": 727,
      "が": 728,
      "き": 729,
      "く": 730,
      "ぐ": 731,
      "け": 732,
      "こ": 733,
      "ご": 734,
      "さ": 735,
      "ざ": 736,
      "じ": 737,
      "す": 738,
      "ず": 739,
      "せ": 740,
      "ぜ": 741,
      "そ": 742,
      "だ": 743,
      "ち": 744,
      "っ": 745,
      "つ": 746,
      "て": 747,
      "と": 748,
      "ど": 749,
      "な": 750,
      "に": 751,
      "ね": 752,
      "の": 753,
      "は": 754,
      "ぱ": 755,
      "ひ": 756,
      "び": 757,
      "ぶ": 758,
      "ぷ": 759,
      "へ": 760,
      "ぺ": 761,
      "ほ": 762,
      "ま": 763,
      "み": 764,
      "め": 765,
      "も": 766,
      "ゃ": 767,
      "や": 768,
      "ゅ": 769,
      "ゆ": 770,
      "よ": 771,
      "ら": 772,
      "り": 773,
      "る": 774,
      "れ": 775,
      "ろ": 776,
      "ゎ": 777,
      "わ": 778,
      "ゑ": 779,
      "を": 780,
      "ん": 781,
      "゜": 782,
      "ゞ": 783,
      "ァ": 784,
      "ア": 785,
      "イ": 786,
      "ゥ": 787,
      "ウ": 788,
      "ェ": 789,
      "エ": 790,
      "オ": 791,
      "カ": 792,
      "ガ": 793,
      "キ": 794,
      "ギ": 795,
      "ケ": 796,
      "ゲ": 797,
      "ゴ": 798,
      "サ": 799,
      "ザ": 800,
      "ジ": 801,
      "ス": 802,
      "セ": 803,
      "ゼ": 804,
      "ソ": 805,
      "タ": 806,
      "ダ": 807,
      "チ": 808,
      "ッ": 809,
      "ヅ": 810,
      "デ": 811,
      "ド": 812,
      "ナ": 813,
      "ニ": 814,
      "ネ": 815,
      "ノ": 816,
      "ハ": 817,
      "バ": 818,
      "パ": 819,
      "ヒ": 820,
      "フ": 821,
      "ブ": 822,
      "ヘ": 823,
      "ホ": 824,
      "ボ": 825,
      "ミ": 826,
      "メ": 827,
      "ユ": 828,
      "ョ": 829,
      "ラ": 830,
      "ル": 831,
      "レ": 832,
      "ワ": 833,
      "ヰ": 834,
      "ン": 835,
      "ヴ": 836,
      "ヶ": 837,
      "・": 838,
      "ー": 839,
      "ヾ": 840,
      "ㄅ": 841,
      "ㄆ": 842,
      "ㄇ": 843,
      "ㄈ": 844,
      "ㄉ": 845,
      "ㄊ": 846,
      "ㄌ": 847,
      "ㄎ": 848,
      "ㄏ": 849,
      "ㄐ": 850,
      "ㄑ": 851,
      "ㄒ": 852,
      "ㄓ": 853,
      "ㄗ": 854,
      "ㄘ": 855,
      "ㄚ": 856,
      "ㄛ": 857,
      "ㄞ": 858,
      "ㄟ": 859,
      "ㄠ": 860,
      "ㄢ": 861,
      "ㄣ": 862,
      "ㄤ": 863,
      "ㄥ": 864,
      "ㄧ": 865,
      "ㄨ": 866,
      "ㄩ": 867,
      "㈠": 868,
      "㈡": 869,
      "㈢": 870,
      "㈣": 871,
      "㈤": 872,
      "㈥": 873,
      "㈦": 874,
      "㈧": 875,
      "㈨": 876,
      "㈩": 877,
      "㈱": 878,
      "㊣": 879,
      "㊽": 880,
      "㎎": 881,
      "㎝": 882,
      "㎡": 883,
      "㏄": 884,
      "㏑": 885,
      "㐍": 886,
      "㗎": 887,
      "㧐": 888,
      "㱮": 889,
      "㷻": 890,
      "䁿": 891,
      "䊽": 892,
      "䋼": 893,
      "一": 894,
      "丁": 895,
      "七": 896,
      "万": 897,
      "丈": 898,
      "三": 899,
      "上": 900,
      "下": 901,
      "不": 902,
      "与": 903,
      "丐": 904,
      "丑": 905,
      "专": 906,
      "且": 907,
      "世": 908,
      "丘": 909,
      "丙": 910,
      "业": 911,
      "丛": 912,
      "东": 913,
      "丝": 914,
      "丞": 915,
      "丟": 916,
      "丢": 917,
      "两": 918,
      "严": 919,
      "並": 920,
      "丧": 921,
      "个": 922,
      "丫": 923,
      "中": 924,
      "丰": 925,
      "串": 926,
      "临": 927,
      "丸": 928,
      "丹": 929,
      "为": 930,
      "主": 931,
      "丽": 932,
      "举": 933,
      "乂": 934,
      "乃": 935,
      "久": 936,
      "么": 937,
      "义": 938,
      "之": 939,
      "乌": 940,
      "乍": 941,
      "乎": 942,
      "乏": 943,
      "乐": 944,
      "乒": 945,
      "乓": 946,
      "乔": 947,
      "乖": 948,
      "乘": 949,
      "乙": 950,
      "乜": 951,
      "九": 952,
      "乞": 953,
      "也": 954,
      "习": 955,
      "乡": 956,
      "书": 957,
      "买": 958,
      "乱": 959,
      "乳": 960,
      "乾": 961,
      "亂": 962,
      "了": 963,
      "予": 964,
      "争": 965,
      "事": 966,
      "二": 967,
      "于": 968,
      "亏": 969,
      "云": 970,
      "互": 971,
      "五": 972,
      "井": 973,
      "亘": 974,
      "亙": 975,
      "亚": 976,
      "些": 977,
      "亞": 978,
      "亟": 979,
      "亡": 980,
      "亢": 981,
      "交": 982,
      "亥": 983,
      "亦": 984,
      "产": 985,
      "亨": 986,
      "亩": 987,
      "享": 988,
      "京": 989,
      "亭": 990,
      "亮": 991,
      "亲": 992,
      "亵": 993,
      "人": 994,
      "亿": 995,
      "什": 996,
      "仁": 997,
      "仃": 998,
      "仅": 999,
      "仆": 1000,
      "仇": 1001,
      "今": 1002,
      "介": 1003,
      "仍": 1004,
      "从": 1005,
      "仑": 1006,
      "仓": 1007,
      "仔": 1008,
      "仕": 1009,
      "他": 1010,
      "仗": 1011,
      "付": 1012,
      "仙": 1013,
      "仞": 1014,
      "仟": 1015,
      "代": 1016,
      "令": 1017,
      "以": 1018,
      "仨": 1019,
      "仪": 1020,
      "们": 1021,
      "仰": 1022,
      "仲": 1023,
      "件": 1024,
      "价": 1025,
      "任": 1026,
      "份": 1027,
      "仿": 1028,
      "企": 1029,
      "伉": 1030,
      "伊": 1031,
      "伍": 1032,
      "伎": 1033,
      "伏": 1034,
      "伐": 1035,
      "休": 1036,
      "伔": 1037,
      "众": 1038,
      "优": 1039,
      "伙": 1040,
      "会": 1041,
      "伝": 1042,
      "伞": 1043,
      "伟": 1044,
      "传": 1045,
      "伢": 1046,
      "伤": 1047,
      "伦": 1048,
      "伪": 1049,
      "伫": 1050,
      "伯": 1051,
      "估": 1052,
      "伲": 1053,
      "伴": 1054,
      "伶": 1055,
      "伸": 1056,
      "伺": 1057,
      "似": 1058,
      "伽": 1059,
      "佃": 1060,
      "但": 1061,
      "佈": 1062,
      "位": 1063,
      "低": 1064,
      "住": 1065,
      "佐": 1066,
      "佑": 1067,
      "体": 1068,
      "佔": 1069,
      "何": 1070,
      "佗": 1071,
      "佘": 1072,
      "余": 1073,
      "佚": 1074,
      "佛": 1075,
      "作": 1076,
      "佝": 1077,
      "佞": 1078,
      "你": 1079,
      "佢": 1080,
      "佣": 1081,
      "佤": 1082,
      "佩": 1083,
      "佪": 1084,
      "佬": 1085,
      "佯": 1086,
      "佰": 1087,
      "佳": 1088,
      "佴": 1089,
      "併": 1090,
      "佷": 1091,
      "佻": 1092,
      "佼": 1093,
      "佽": 1094,
      "使": 1095,
      "侂": 1096,
      "侃": 1097,
      "侄": 1098,
      "來": 1099,
      "侇": 1100,
      "侈": 1101,
      "例": 1102,
      "侍": 1103,
      "侏": 1104,
      "侑": 1105,
      "侖": 1106,
      "侗": 1107,
      "侚": 1108,
      "供": 1109,
      "侜": 1110,
      "依": 1111,
      "侠": 1112,
      "侣": 1113,
      "侥": 1114,
      "侦": 1115,
      "侧": 1116,
      "侨": 1117,
      "侩": 1118,
      "侪": 1119,
      "侬": 1120,
      "侮": 1121,
      "侯": 1122,
      "侳": 1123,
      "侵": 1124,
      "侶": 1125,
      "便": 1126,
      "俀": 1127,
      "係": 1128,
      "促": 1129,
      "俄": 1130,
      "俅": 1131,
      "俇": 1132,
      "俊": 1133,
      "俋": 1134,
      "俎": 1135,
      "俏": 1136,
      "俐": 1137,
      "俑": 1138,
      "俗": 1139,
      "俘": 1140,
      "俙": 1141,
      "俚": 1142,
      "保": 1143,
      "俞": 1144,
      "俟": 1145,
      "俠": 1146,
      "信": 1147,
      "俣": 1148,
      "俨": 1149,
      "俩": 1150,
      "俪": 1151,
      "俬": 1152,
      "俭": 1153,
      "修": 1154,
      "俯": 1155,
      "俱": 1156,
      "俳": 1157,
      "俴": 1158,
      "俸": 1159,
      "俺": 1160,
      "俾": 1161,
      "倆": 1162,
      "倉": 1163,
      "個": 1164,
      "倌": 1165,
      "倍": 1166,
      "倏": 1167,
      "們": 1168,
      "倒": 1169,
      "倓": 1170,
      "倔": 1171,
      "倖": 1172,
      "倘": 1173,
      "候": 1174,
      "倚": 1175,
      "倜": 1176,
      "借": 1177,
      "倡": 1178,
      "倦": 1179,
      "倨": 1180,
      "倩": 1181,
      "倪": 1182,
      "倫": 1183,
      "倭": 1184,
      "倮": 1185,
      "倰": 1186,
      "倳": 1187,
      "债": 1188,
      "值": 1189,
      "倾": 1190,
      "偃": 1191,
      "假": 1192,
      "偈": 1193,
      "偉": 1194,
      "偌": 1195,
      "偎": 1196,
      "偏": 1197,
      "偕": 1198,
      "做": 1199,
      "停": 1200,
      "健": 1201,
      "側": 1202,
      "偵": 1203,
      "偶": 1204,
      "偷": 1205,
      "偻": 1206,
      "偽": 1207,
      "偿": 1208,
      "傀": 1209,
      "傅": 1210,
      "傍": 1211,
      "傑": 1212,
      "傖": 1213,
      "傘": 1214,
      "備": 1215,
      "傢": 1216,
      "傣": 1217,
      "傥": 1218,
      "傧": 1219,
      "储": 1220,
      "催": 1221,
      "傭": 1222,
      "傲": 1223,
      "傳": 1224,
      "債": 1225,
      "傷": 1226,
      "傻": 1227,
      "傾": 1228,
      "僅": 1229,
      "僊": 1230,
      "像": 1231,
      "僕": 1232,
      "僚": 1233,
      "僞": 1234,
      "僧": 1235,
      "僭": 1236,
      "僮": 1237,
      "僱": 1238,
      "僳": 1239,
      "僵": 1240,
      "價": 1241,
      "僻": 1242,
      "儀": 1243,
      "儂": 1244,
      "億": 1245,
      "儆": 1246,
      "儈": 1247,
      "儉": 1248,
      "儒": 1249,
      "儘": 1250,
      "償": 1251,
      "儡": 1252,
      "優": 1253,
      "儲": 1254,
      "儸": 1255,
      "儿": 1256,
      "兀": 1257,
      "允": 1258,
      "元": 1259,
      "兄": 1260,
      "充": 1261,
      "兆": 1262,
      "兇": 1263,
      "先": 1264,
      "光": 1265,
      "克": 1266,
      "兌": 1267,
      "免": 1268,
      "兑": 1269,
      "兒": 1270,
      "兔": 1271,
      "党": 1272,
      "兜": 1273,
      "兢": 1274,
      "入": 1275,
      "內": 1276,
      "全": 1277,
      "兩": 1278,
      "八": 1279,
      "公": 1280,
      "六": 1281,
      "兮": 1282,
      "兰": 1283,
      "共": 1284,
      "关": 1285,
      "兴": 1286,
      "兵": 1287,
      "其": 1288,
      "具": 1289,
      "典": 1290,
      "兹": 1291,
      "养": 1292,
      "兼": 1293,
      "兽": 1294,
      "冀": 1295,
      "内": 1296,
      "円": 1297,
      "冇": 1298,
      "冈": 1299,
      "冉": 1300,
      "冊": 1301,
      "册": 1302,
      "再": 1303,
      "冏": 1304,
      "冑": 1305,
      "冒": 1306,
      "冕": 1307,
      "冗": 1308,
      "写": 1309,
      "冚": 1310,
      "军": 1311,
      "农": 1312,
      "冠": 1313,
      "冢": 1314,
      "冤": 1315,
      "冥": 1316,
      "冪": 1317,
      "冬": 1318,
      "冯": 1319,
      "冰": 1320,
      "冱": 1321,
      "冲": 1322,
      "决": 1323,
      "况": 1324,
      "冶": 1325,
      "冷": 1326,
      "冻": 1327,
      "净": 1328,
      "凄": 1329,
      "凅": 1330,
      "准": 1331,
      "凉": 1332,
      "凋": 1333,
      "凌": 1334,
      "凍": 1335,
      "减": 1336,
      "凑": 1337,
      "凛": 1338,
      "凜": 1339,
      "凝": 1340,
      "几": 1341,
      "凡": 1342,
      "凤": 1343,
      "凫": 1344,
      "凭": 1345,
      "凯": 1346,
      "凰": 1347,
      "凱": 1348,
      "凳": 1349,
      "凶": 1350,
      "凸": 1351,
      "凹": 1352,
      "出": 1353,
      "击": 1354,
      "函": 1355,
      "凿": 1356,
      "刀": 1357,
      "刁": 1358,
      "刃": 1359,
      "分": 1360,
      "切": 1361,
      "刉": 1362,
      "刊": 1363,
      "刍": 1364,
      "刎": 1365,
      "刑": 1366,
      "划": 1367,
      "刓": 1368,
      "列": 1369,
      "刘": 1370,
      "则": 1371,
      "刚": 1372,
      "创": 1373,
      "初": 1374,
      "删": 1375,
      "判": 1376,
      "別": 1377,
      "刨": 1378,
      "利": 1379,
      "刪": 1380,
      "别": 1381,
      "刮": 1382,
      "到": 1383,
      "制": 1384,
      "刷": 1385,
      "券": 1386,
      "刹": 1387,
      "刺": 1388,
      "刻": 1389,
      "刽": 1390,
      "剀": 1391,
      "剁": 1392,
      "剂": 1393,
      "剃": 1394,
      "則": 1395,
      "剉": 1396,
      "削": 1397,
      "剋": 1398,
      "剌": 1399,
      "前": 1400,
      "剎": 1401,
      "剐": 1402,
      "剑": 1403,
      "剒": 1404,
      "剔": 1405,
      "剕": 1406,
      "剖": 1407,
      "剛": 1408,
      "剝": 1409,
      "剞": 1410,
      "剥": 1411,
      "剧": 1412,
      "剩": 1413,
      "剪": 1414,
      "剮": 1415,
      "副": 1416,
      "割": 1417,
      "創": 1418,
      "剷": 1419,
      "剽": 1420,
      "剿": 1421,
      "劃": 1422,
      "劇": 1423,
      "劈": 1424,
      "劉": 1425,
      "劊": 1426,
      "劍": 1427,
      "劑": 1428,
      "劓": 1429,
      "力": 1430,
      "劝": 1431,
      "办": 1432,
      "功": 1433,
      "加": 1434,
      "务": 1435,
      "劣": 1436,
      "劦": 1437,
      "动": 1438,
      "助": 1439,
      "努": 1440,
      "劫": 1441,
      "励": 1442,
      "劲": 1443,
      "劳": 1444,
      "劵": 1445,
      "劾": 1446,
      "势": 1447,
      "勀": 1448,
      "勁": 1449,
      "勃": 1450,
      "勇": 1451,
      "勉": 1452,
      "勋": 1453,
      "勍": 1454,
      "勐": 1455,
      "勒": 1456,
      "動": 1457,
      "勘": 1458,
      "務": 1459,
      "勛": 1460,
      "勝": 1461,
      "勞": 1462,
      "募": 1463,
      "勢": 1464,
      "勤": 1465,
      "勦": 1466,
      "勳": 1467,
      "勵": 1468,
      "勸": 1469,
      "勺": 1470,
      "勻": 1471,
      "勾": 1472,
      "勿": 1473,
      "匀": 1474,
      "包": 1475,
      "匆": 1476,
      "匈": 1477,
      "匍": 1478,
      "匐": 1479,
      "匕": 1480,
      "化": 1481,
      "北": 1482,
      "匙": 1483,
      "匝": 1484,
      "匠": 1485,
      "匡": 1486,
      "匣": 1487,
      "匪": 1488,
      "匮": 1489,
      "匯": 1490,
      "匹": 1491,
      "区": 1492,
      "医": 1493,
      "匾": 1494,
      "匿": 1495,
      "區": 1496,
      "十": 1497,
      "千": 1498,
      "卅": 1499,
      "升": 1500,
      "午": 1501,
      "卉": 1502,
      "半": 1503,
      "卍": 1504,
      "华": 1505,
      "协": 1506,
      "卑": 1507,
      "卒": 1508,
      "卓": 1509,
      "協": 1510,
      "单": 1511,
      "卖": 1512,
      "南": 1513,
      "博": 1514,
      "卜": 1515,
      "卞": 1516,
      "占": 1517,
      "卡": 1518,
      "卢": 1519,
      "卤": 1520,
      "卦": 1521,
      "卧": 1522,
      "卫": 1523,
      "卯": 1524,
      "印": 1525,
      "危": 1526,
      "即": 1527,
      "却": 1528,
      "卵": 1529,
      "卷": 1530,
      "卸": 1531,
      "卻": 1532,
      "卿": 1533,
      "厂": 1534,
      "厄": 1535,
      "厅": 1536,
      "历": 1537,
      "厉": 1538,
      "压": 1539,
      "厌": 1540,
      "厕": 1541,
      "厘": 1542,
      "厚": 1543,
      "厝": 1544,
      "原": 1545,
      "厢": 1546,
      "厥": 1547,
      "厦": 1548,
      "厨": 1549,
      "厩": 1550,
      "厭": 1551,
      "厮": 1552,
      "厲": 1553,
      "去": 1554,
      "县": 1555,
      "叁": 1556,
      "参": 1557,
      "參": 1558,
      "又": 1559,
      "叉": 1560,
      "及": 1561,
      "友": 1562,
      "双": 1563,
      "反": 1564,
      "发": 1565,
      "叔": 1566,
      "取": 1567,
      "受": 1568,
      "变": 1569,
      "叙": 1570,
      "叛": 1571,
      "叟": 1572,
      "叠": 1573,
      "叢": 1574,
      "口": 1575,
      "古": 1576,
      "句": 1577,
      "另": 1578,
      "叨": 1579,
      "叩": 1580,
      "只": 1581,
      "叫": 1582,
      "召": 1583,
      "叭": 1584,
      "叮": 1585,
      "可": 1586,
      "台": 1587,
      "叱": 1588,
      "史": 1589,
      "右": 1590,
      "叵": 1591,
      "叶": 1592,
      "号": 1593,
      "司": 1594,
      "叹": 1595,
      "叼": 1596,
      "叽": 1597,
      "吁": 1598,
      "吃": 1599,
      "各": 1600,
      "吆": 1601,
      "合": 1602,
      "吉": 1603,
      "吊": 1604,
      "吋": 1605,
      "同": 1606,
      "名": 1607,
      "后": 1608,
      "吏": 1609,
      "吐": 1610,
      "向": 1611,
      "吓": 1612,
      "吔": 1613,
      "吕": 1614,
      "吖": 1615,
      "吗": 1616,
      "君": 1617,
      "吝": 1618,
      "吞": 1619,
      "吟": 1620,
      "吠": 1621,
      "吡": 1622,
      "否": 1623,
      "吧": 1624,
      "吨": 1625,
      "吩": 1626,
      "含": 1627,
      "听": 1628,
      "吭": 1629,
      "吮": 1630,
      "启": 1631,
      "吱": 1632,
      "吳": 1633,
      "吴": 1634,
      "吵": 1635,
      "吶": 1636,
      "吸": 1637,
      "吹": 1638,
      "吻": 1639,
      "吼": 1640,
      "吽": 1641,
      "吾": 1642,
      "呀": 1643,
      "呂": 1644,
      "呃": 1645,
      "呆": 1646,
      "呈": 1647,
      "告": 1648,
      "呋": 1649,
      "呎": 1650,
      "呐": 1651,
      "呑": 1652,
      "呒": 1653,
      "呕": 1654,
      "呗": 1655,
      "员": 1656,
      "呛": 1657,
      "呜": 1658,
      "呡": 1659,
      "呢": 1660,
      "呣": 1661,
      "呤": 1662,
      "呦": 1663,
      "呧": 1664,
      "周": 1665,
      "呯": 1666,
      "呱": 1667,
      "味": 1668,
      "呵": 1669,
      "呶": 1670,
      "呸": 1671,
      "呻": 1672,
      "呼": 1673,
      "命": 1674,
      "呾": 1675,
      "咀": 1676,
      "咁": 1677,
      "咂": 1678,
      "咄": 1679,
      "咆": 1680,
      "咋": 1681,
      "和": 1682,
      "咍": 1683,
      "咎": 1684,
      "咏": 1685,
      "咐": 1686,
      "咒": 1687,
      "咔": 1688,
      "咕": 1689,
      "咖": 1690,
      "咗": 1691,
      "咙": 1692,
      "咚": 1693,
      "咡": 1694,
      "咤": 1695,
      "咦": 1696,
      "咧": 1697,
      "咨": 1698,
      "咩": 1699,
      "咪": 1700,
      "咫": 1701,
      "咬": 1702,
      "咭": 1703,
      "咯": 1704,
      "咱": 1705,
      "咳": 1706,
      "咸": 1707,
      "咻": 1708,
      "咽": 1709,
      "咿": 1710,
      "哀": 1711,
      "品": 1712,
      "哂": 1713,
      "哄": 1714,
      "哆": 1715,
      "哇": 1716,
      "哈": 1717,
      "哉": 1718,
      "哋": 1719,
      "哌": 1720,
      "响": 1721,
      "哎": 1722,
      "哑": 1723,
      "哒": 1724,
      "哔": 1725,
      "哗": 1726,
      "哝": 1727,
      "哞": 1728,
      "哟": 1729,
      "員": 1730,
      "哥": 1731,
      "哦": 1732,
      "哧": 1733,
      "哨": 1734,
      "哩": 1735,
      "哪": 1736,
      "哭": 1737,
      "哮": 1738,
      "哲": 1739,
      "哺": 1740,
      "哼": 1741,
      "哽": 1742,
      "唁": 1743,
      "唄": 1744,
      "唆": 1745,
      "唇": 1746,
      "唉": 1747,
      "唏": 1748,
      "唐": 1749,
      "唑": 1750,
      "唔": 1751,
      "唗": 1752,
      "唛": 1753,
      "唠": 1754,
      "唤": 1755,
      "唧": 1756,
      "唬": 1757,
      "售": 1758,
      "唯": 1759,
      "唰": 1760,
      "唱": 1761,
      "唳": 1762,
      "唵": 1763,
      "唷": 1764,
      "唸": 1765,
      "唻": 1766,
      "唾": 1767,
      "啁": 1768,
      "啃": 1769,
      "啄": 1770,
      "商": 1771,
      "啊": 1772,
      "啋": 1773,
      "問": 1774,
      "啕": 1775,
      "啖": 1776,
      "啜": 1777,
      "啞": 1778,
      "啟": 1779,
      "啡": 1780,
      "啣": 1781,
      "啤": 1782,
      "啥": 1783,
      "啦": 1784,
      "啧": 1785,
      "啪": 1786,
      "啫": 1787,
      "啬": 1788,
      "啮": 1789,
      "啰": 1790,
      "啱": 1791,
      "啲": 1792,
      "啵": 1793,
      "啶": 1794,
      "啸": 1795,
      "啻": 1796,
      "啼": 1797,
      "啾": 1798,
      "喀": 1799,
      "喂": 1800,
      "喃": 1801,
      "善": 1802,
      "喇": 1803,
      "喉": 1804,
      "喊": 1805,
      "喋": 1806,
      "喎": 1807,
      "喏": 1808,
      "喑": 1809,
      "喔": 1810,
      "喘": 1811,
      "喙": 1812,
      "喚": 1813,
      "喜": 1814,
      "喝": 1815,
      "喧": 1816,
      "喪": 1817,
      "喫": 1818,
      "喬": 1819,
      "單": 1820,
      "喱": 1821,
      "喲": 1822,
      "喳": 1823,
      "喵": 1824,
      "喷": 1825,
      "喹": 1826,
      "喺": 1827,
      "喻": 1828,
      "喽": 1829,
      "嗅": 1830,
      "嗆": 1831,
      "嗇": 1832,
      "嗌": 1833,
      "嗎": 1834,
      "嗐": 1835,
      "嗑": 1836,
      "嗒": 1837,
      "嗓": 1838,
      "嗖": 1839,
      "嗚": 1840,
      "嗜": 1841,
      "嗝": 1842,
      "嗡": 1843,
      "嗣": 1844,
      "嗤": 1845,
      "嗥": 1846,
      "嗦": 1847,
      "嗨": 1848,
      "嗪": 1849,
      "嗬": 1850,
      "嗯": 1851,
      "嗰": 1852,
      "嗱": 1853,
      "嗲": 1854,
      "嗳": 1855,
      "嗶": 1856,
      "嗷": 1857,
      "嗽": 1858,
      "嘀": 1859,
      "嘅": 1860,
      "嘆": 1861,
      "嘈": 1862,
      "嘉": 1863,
      "嘍": 1864,
      "嘎": 1865,
      "嘔": 1866,
      "嘗": 1867,
      "嘘": 1868,
      "嘛": 1869,
      "嘞": 1870,
      "嘟": 1871,
      "嘠": 1872,
      "嘢": 1873,
      "嘣": 1874,
      "嘩": 1875,
      "嘭": 1876,
      "嘯": 1877,
      "嘱": 1878,
      "嘲": 1879,
      "嘴": 1880,
      "嘶": 1881,
      "嘹": 1882,
      "嘻": 1883,
      "嘿": 1884,
      "噁": 1885,
      "噎": 1886,
      "噓": 1887,
      "噔": 1888,
      "噗": 1889,
      "噙": 1890,
      "噜": 1891,
      "噠": 1892,
      "噢": 1893,
      "器": 1894,
      "噩": 1895,
      "噪": 1896,
      "噫": 1897,
      "噬": 1898,
      "噱": 1899,
      "噴": 1900,
      "噶": 1901,
      "噸": 1902,
      "噹": 1903,
      "噻": 1904,
      "噿": 1905,
      "嚀": 1906,
      "嚇": 1907,
      "嚎": 1908,
      "嚏": 1909,
      "嚐": 1910,
      "嚒": 1911,
      "嚓": 1912,
      "嚟": 1913,
      "嚣": 1914,
      "嚥": 1915,
      "嚨": 1916,
      "嚮": 1917,
      "嚯": 1918,
      "嚴": 1919,
      "嚶": 1920,
      "嚷": 1921,
      "嚼": 1922,
      "囂": 1923,
      "囉": 1924,
      "囊": 1925,
      "囑": 1926,
      "囔": 1927,
      "囚": 1928,
      "四": 1929,
      "回": 1930,
      "因": 1931,
      "囡": 1932,
      "团": 1933,
      "囤": 1934,
      "囧": 1935,
      "囪": 1936,
      "园": 1937,
      "囮": 1938,
      "困": 1939,
      "囱": 1940,
      "围": 1941,
      "囹": 1942,
      "固": 1943,
      "国": 1944,
      "图": 1945,
      "囿": 1946,
      "圃": 1947,
      "圄": 1948,
      "圆": 1949,
      "圈": 1950,
      "國": 1951,
      "圍": 1952,
      "園": 1953,
      "圓": 1954,
      "圖": 1955,
      "團": 1956,
      "土": 1957,
      "圣": 1958,
      "在": 1959,
      "圭": 1960,
      "地": 1961,
      "圳": 1962,
      "圴": 1963,
      "场": 1964,
      "圾": 1965,
      "址": 1966,
      "坂": 1967,
      "均": 1968,
      "坊": 1969,
      "坍": 1970,
      "坎": 1971,
      "坏": 1972,
      "坐": 1973,
      "坑": 1974,
      "块": 1975,
      "坚": 1976,
      "坛": 1977,
      "坝": 1978,
      "坞": 1979,
      "坟": 1980,
      "坠": 1981,
      "坡": 1982,
      "坤": 1983,
      "坦": 1984,
      "坨": 1985,
      "坩": 1986,
      "坪": 1987,
      "坫": 1988,
      "坯": 1989,
      "坳": 1990,
      "坴": 1991,
      "坶": 1992,
      "坷": 1993,
      "坻": 1994,
      "垀": 1995,
      "垂": 1996,
      "垃": 1997,
      "垄": 1998,
      "型": 1999,
      "垒": 2000,
      "垛": 2001,
      "垠": 2002,
      "垢": 2003,
      "垣": 2004,
      "垦": 2005,
      "垩": 2006,
      "垫": 2007,
      "垭": 2008,
      "垮": 2009,
      "垸": 2010,
      "埃": 2011,
      "埋": 2012,
      "城": 2013,
      "埔": 2014,
      "埕": 2015,
      "埚": 2016,
      "埜": 2017,
      "域": 2018,
      "埠": 2019,
      "埣": 2020,
      "埭": 2021,
      "埮": 2022,
      "埲": 2023,
      "執": 2024,
      "埸": 2025,
      "培": 2026,
      "基": 2027,
      "埻": 2028,
      "堀": 2029,
      "堂": 2030,
      "堅": 2031,
      "堆": 2032,
      "堇": 2033,
      "堈": 2034,
      "堋": 2035,
      "堍": 2036,
      "堎": 2037,
      "堑": 2038,
      "堕": 2039,
      "堡": 2040,
      "堤": 2041,
      "堪": 2042,
      "報": 2043,
      "場": 2044,
      "堵": 2045,
      "塊": 2046,
      "塋": 2047,
      "塌": 2048,
      "塑": 2049,
      "塔": 2050,
      "塗": 2051,
      "塘": 2052,
      "塞": 2053,
      "塢": 2054,
      "填": 2055,
      "塵": 2056,
      "塾": 2057,
      "境": 2058,
      "墅": 2059,
      "墉": 2060,
      "墊": 2061,
      "墒": 2062,
      "墓": 2063,
      "増": 2064,
      "墙": 2065,
      "墜": 2066,
      "增": 2067,
      "墟": 2068,
      "墨": 2069,
      "墩": 2070,
      "墮": 2071,
      "墳": 2072,
      "墾": 2073,
      "壁": 2074,
      "壅": 2075,
      "壇": 2076,
      "壑": 2077,
      "壓": 2078,
      "壕": 2079,
      "壘": 2080,
      "壚": 2081,
      "壞": 2082,
      "壟": 2083,
      "壤": 2084,
      "壩": 2085,
      "士": 2086,
      "壮": 2087,
      "壯": 2088,
      "声": 2089,
      "壳": 2090,
      "壶": 2091,
      "壹": 2092,
      "壺": 2093,
      "壽": 2094,
      "处": 2095,
      "备": 2096,
      "复": 2097,
      "夏": 2098,
      "夔": 2099,
      "夕": 2100,
      "外": 2101,
      "夙": 2102,
      "多": 2103,
      "夜": 2104,
      "够": 2105,
      "夠": 2106,
      "夢": 2107,
      "夥": 2108,
      "大": 2109,
      "天": 2110,
      "太": 2111,
      "夫": 2112,
      "夭": 2113,
      "央": 2114,
      "夯": 2115,
      "失": 2116,
      "头": 2117,
      "夷": 2118,
      "夸": 2119,
      "夹": 2120,
      "夺": 2121,
      "夼": 2122,
      "夾": 2123,
      "奀": 2124,
      "奁": 2125,
      "奂": 2126,
      "奄": 2127,
      "奇": 2128,
      "奈": 2129,
      "奉": 2130,
      "奋": 2131,
      "奌": 2132,
      "奎": 2133,
      "奏": 2134,
      "契": 2135,
      "奔": 2136,
      "奕": 2137,
      "奖": 2138,
      "套": 2139,
      "奚": 2140,
      "奠": 2141,
      "奢": 2142,
      "奥": 2143,
      "奧": 2144,
      "奪": 2145,
      "奮": 2146,
      "女": 2147,
      "奴": 2148,
      "奶": 2149,
      "奸": 2150,
      "她": 2151,
      "奻": 2152,
      "好": 2153,
      "奾": 2154,
      "如": 2155,
      "妃": 2156,
      "妄": 2157,
      "妆": 2158,
      "妇": 2159,
      "妈": 2160,
      "妊": 2161,
      "妍": 2162,
      "妏": 2163,
      "妒": 2164,
      "妓": 2165,
      "妖": 2166,
      "妗": 2167,
      "妙": 2168,
      "妝": 2169,
      "妞": 2170,
      "妥": 2171,
      "妦": 2172,
      "妨": 2173,
      "妩": 2174,
      "妪": 2175,
      "妮": 2176,
      "妲": 2177,
      "妳": 2178,
      "妹": 2179,
      "妻": 2180,
      "妾": 2181,
      "姆": 2182,
      "姊": 2183,
      "始": 2184,
      "姍": 2185,
      "姐": 2186,
      "姑": 2187,
      "姓": 2188,
      "委": 2189,
      "姗": 2190,
      "姘": 2191,
      "姚": 2192,
      "姜": 2193,
      "姣": 2194,
      "姥": 2195,
      "姦": 2196,
      "姨": 2197,
      "姪": 2198,
      "姬": 2199,
      "姻": 2200,
      "姿": 2201,
      "威": 2202,
      "娃": 2203,
      "娄": 2204,
      "娅": 2205,
      "娆": 2206,
      "娇": 2207,
      "娈": 2208,
      "娒": 2209,
      "娘": 2210,
      "娛": 2211,
      "娜": 2212,
      "娟": 2213,
      "娠": 2214,
      "娣": 2215,
      "娥": 2216,
      "娩": 2217,
      "娱": 2218,
      "娴": 2219,
      "娶": 2220,
      "娼": 2221,
      "婁": 2222,
      "婄": 2223,
      "婆": 2224,
      "婉": 2225,
      "婊": 2226,
      "婌": 2227,
      "婓": 2228,
      "婕": 2229,
      "婚": 2230,
      "婢": 2231,
      "婦": 2232,
      "婪": 2233,
      "婬": 2234,
      "婭": 2235,
      "婴": 2236,
      "婵": 2237,
      "婶": 2238,
      "婷": 2239,
      "婼": 2240,
      "婿": 2241,
      "媎": 2242,
      "媒": 2243,
      "媚": 2244,
      "媛": 2245,
      "媞": 2246,
      "媲": 2247,
      "媳": 2248,
      "媼": 2249,
      "媽": 2250,
      "媾": 2251,
      "嫁": 2252,
      "嫂": 2253,
      "嫉": 2254,
      "嫌": 2255,
      "嫔": 2256,
      "嫖": 2257,
      "嫡": 2258,
      "嫣": 2259,
      "嫦": 2260,
      "嫩": 2261,
      "嬉": 2262,
      "嬤": 2263,
      "嬰": 2264,
      "嬲": 2265,
      "嬴": 2266,
      "嬷": 2267,
      "嬸": 2268,
      "孀": 2269,
      "孃": 2270,
      "子": 2271,
      "孑": 2272,
      "孔": 2273,
      "孕": 2274,
      "孖": 2275,
      "字": 2276,
      "存": 2277,
      "孙": 2278,
      "孚": 2279,
      "孜": 2280,
      "孝": 2281,
      "孟": 2282,
      "孢": 2283,
      "季": 2284,
      "孤": 2285,
      "学": 2286,
      "孩": 2287,
      "孪": 2288,
      "孫": 2289,
      "孬": 2290,
      "孮": 2291,
      "孰": 2292,
      "孱": 2293,
      "孳": 2294,
      "孵": 2295,
      "學": 2296,
      "孺": 2297,
      "孽": 2298,
      "孿": 2299,
      "宁": 2300,
      "它": 2301,
      "宅": 2302,
      "宇": 2303,
      "守": 2304,
      "安": 2305,
      "宋": 2306,
      "完": 2307,
      "宎": 2308,
      "宏": 2309,
      "宒": 2310,
      "宓": 2311,
      "宕": 2312,
      "宗": 2313,
      "官": 2314,
      "宙": 2315,
      "定": 2316,
      "宛": 2317,
      "宜": 2318,
      "宝": 2319,
      "实": 2320,
      "実": 2321,
      "宠": 2322,
      "审": 2323,
      "客": 2324,
      "宣": 2325,
      "室": 2326,
      "宥": 2327,
      "宦": 2328,
      "宪": 2329,
      "宫": 2330,
      "宮": 2331,
      "宰": 2332,
      "害": 2333,
      "宴": 2334,
      "宵": 2335,
      "家": 2336,
      "宸": 2337,
      "容": 2338,
      "宽": 2339,
      "宾": 2340,
      "宿": 2341,
      "寀": 2342,
      "寁": 2343,
      "寂": 2344,
      "寄": 2345,
      "寅": 2346,
      "密": 2347,
      "寇": 2348,
      "富": 2349,
      "寐": 2350,
      "寒": 2351,
      "寓": 2352,
      "寝": 2353,
      "寞": 2354,
      "察": 2355,
      "寡": 2356,
      "寢": 2357,
      "寤": 2358,
      "寥": 2359,
      "實": 2360,
      "寧": 2361,
      "寨": 2362,
      "審": 2363,
      "寫": 2364,
      "寬": 2365,
      "寮": 2366,
      "寰": 2367,
      "寵": 2368,
      "寶": 2369,
      "寸": 2370,
      "对": 2371,
      "寺": 2372,
      "寻": 2373,
      "导": 2374,
      "寿": 2375,
      "封": 2376,
      "射": 2377,
      "尅": 2378,
      "将": 2379,
      "將": 2380,
      "專": 2381,
      "尉": 2382,
      "尊": 2383,
      "尋": 2384,
      "對": 2385,
      "導": 2386,
      "小": 2387,
      "少": 2388,
      "尓": 2389,
      "尔": 2390,
      "尖": 2391,
      "尘": 2392,
      "尚": 2393,
      "尝": 2394,
      "尢": 2395,
      "尤": 2396,
      "尧": 2397,
      "尨": 2398,
      "尪": 2399,
      "尬": 2400,
      "就": 2401,
      "尴": 2402,
      "尷": 2403,
      "尸": 2404,
      "尹": 2405,
      "尺": 2406,
      "尻": 2407,
      "尼": 2408,
      "尽": 2409,
      "尾": 2410,
      "尿": 2411,
      "局": 2412,
      "屁": 2413,
      "层": 2414,
      "屄": 2415,
      "居": 2416,
      "屆": 2417,
      "屈": 2418,
      "屉": 2419,
      "届": 2420,
      "屋": 2421,
      "屌": 2422,
      "屍": 2423,
      "屎": 2424,
      "屏": 2425,
      "屐": 2426,
      "屑": 2427,
      "展": 2428,
      "屙": 2429,
      "屜": 2430,
      "属": 2431,
      "屠": 2432,
      "屡": 2433,
      "層": 2434,
      "履": 2435,
      "屬": 2436,
      "屯": 2437,
      "山": 2438,
      "屹": 2439,
      "屾": 2440,
      "屿": 2441,
      "岁": 2442,
      "岂": 2443,
      "岆": 2444,
      "岈": 2445,
      "岌": 2446,
      "岍": 2447,
      "岐": 2448,
      "岑": 2449,
      "岔": 2450,
      "岖": 2451,
      "岗": 2452,
      "岘": 2453,
      "岚": 2454,
      "岛": 2455,
      "岡": 2456,
      "岩": 2457,
      "岬": 2458,
      "岭": 2459,
      "岱": 2460,
      "岳": 2461,
      "岸": 2462,
      "岿": 2463,
      "峇": 2464,
      "峈": 2465,
      "峊": 2466,
      "峋": 2467,
      "峙": 2468,
      "峡": 2469,
      "峥": 2470,
      "峦": 2471,
      "峨": 2472,
      "峪": 2473,
      "峭": 2474,
      "峯": 2475,
      "峰": 2476,
      "島": 2477,
      "峻": 2478,
      "峽": 2479,
      "崂": 2480,
      "崇": 2481,
      "崋": 2482,
      "崎": 2483,
      "崔": 2484,
      "崖": 2485,
      "崗": 2486,
      "崛": 2487,
      "崩": 2488,
      "崭": 2489,
      "崴": 2490,
      "崽": 2491,
      "嵋": 2492,
      "嵌": 2493,
      "嵘": 2494,
      "嵩": 2495,
      "嵴": 2496,
      "嶂": 2497,
      "嶄": 2498,
      "嶋": 2499,
      "嶙": 2500,
      "嶲": 2501,
      "嶺": 2502,
      "嶼": 2503,
      "巅": 2504,
      "巒": 2505,
      "巖": 2506,
      "川": 2507,
      "州": 2508,
      "巡": 2509,
      "巢": 2510,
      "工": 2511,
      "左": 2512,
      "巧": 2513,
      "巨": 2514,
      "巩": 2515,
      "巫": 2516,
      "差": 2517,
      "己": 2518,
      "已": 2519,
      "巳": 2520,
      "巴": 2521,
      "巷": 2522,
      "巻": 2523,
      "巾": 2524,
      "巿": 2525,
      "币": 2526,
      "市": 2527,
      "布": 2528,
      "帅": 2529,
      "帆": 2530,
      "师": 2531,
      "帊": 2532,
      "希": 2533,
      "帐": 2534,
      "帑": 2535,
      "帕": 2536,
      "帖": 2537,
      "帘": 2538,
      "帚": 2539,
      "帛": 2540,
      "帜": 2541,
      "帝": 2542,
      "帥": 2543,
      "带": 2544,
      "帧": 2545,
      "師": 2546,
      "席": 2547,
      "帮": 2548,
      "帳": 2549,
      "帶": 2550,
      "帷": 2551,
      "常": 2552,
      "帼": 2553,
      "帽": 2554,
      "幂": 2555,
      "幄": 2556,
      "幅": 2557,
      "幌": 2558,
      "幔": 2559,
      "幕": 2560,
      "幗": 2561,
      "幛": 2562,
      "幡": 2563,
      "幢": 2564,
      "幣": 2565,
      "幫": 2566,
      "干": 2567,
      "平": 2568,
      "年": 2569,
      "并": 2570,
      "幸": 2571,
      "幹": 2572,
      "幺": 2573,
      "幻": 2574,
      "幼": 2575,
      "幽": 2576,
      "幾": 2577,
      "广": 2578,
      "庄": 2579,
      "庆": 2580,
      "庇": 2581,
      "庈": 2582,
      "床": 2583,
      "序": 2584,
      "庐": 2585,
      "库": 2586,
      "应": 2587,
      "底": 2588,
      "庖": 2589,
      "店": 2590,
      "庙": 2591,
      "庚": 2592,
      "府": 2593,
      "庞": 2594,
      "废": 2595,
      "度": 2596,
      "座": 2597,
      "庫": 2598,
      "庭": 2599,
      "庵": 2600,
      "庶": 2601,
      "康": 2602,
      "庸": 2603,
      "廁": 2604,
      "廂": 2605,
      "廄": 2606,
      "廈": 2607,
      "廉": 2608,
      "廊": 2609,
      "廓": 2610,
      "廖": 2611,
      "廚": 2612,
      "廝": 2613,
      "廟": 2614,
      "廠": 2615,
      "廢": 2616,
      "廣": 2617,
      "廳": 2618,
      "延": 2619,
      "廷": 2620,
      "廸": 2621,
      "建": 2622,
      "廻": 2623,
      "廿": 2624,
      "开": 2625,
      "弁": 2626,
      "异": 2627,
      "弃": 2628,
      "弄": 2629,
      "弅": 2630,
      "弇": 2631,
      "弈": 2632,
      "弊": 2633,
      "弋": 2634,
      "式": 2635,
      "弑": 2636,
      "弓": 2637,
      "弔": 2638,
      "引": 2639,
      "弗": 2640,
      "弘": 2641,
      "弛": 2642,
      "弝": 2643,
      "弟": 2644,
      "张": 2645,
      "弥": 2646,
      "弦": 2647,
      "弧": 2648,
      "弩": 2649,
      "弭": 2650,
      "弯": 2651,
      "弱": 2652,
      "張": 2653,
      "強": 2654,
      "弹": 2655,
      "强": 2656,
      "弼": 2657,
      "彆": 2658,
      "彈": 2659,
      "彌": 2660,
      "彎": 2661,
      "归": 2662,
      "当": 2663,
      "录": 2664,
      "彗": 2665,
      "彙": 2666,
      "形": 2667,
      "彤": 2668,
      "彥": 2669,
      "彦": 2670,
      "彩": 2671,
      "彪": 2672,
      "彬": 2673,
      "彭": 2674,
      "彰": 2675,
      "影": 2676,
      "彴": 2677,
      "彷": 2678,
      "彸": 2679,
      "役": 2680,
      "彻": 2681,
      "彼": 2682,
      "彿": 2683,
      "往": 2684,
      "征": 2685,
      "径": 2686,
      "待": 2687,
      "徇": 2688,
      "很": 2689,
      "徉": 2690,
      "徊": 2691,
      "律": 2692,
      "後": 2693,
      "徏": 2694,
      "徐": 2695,
      "徑": 2696,
      "徒": 2697,
      "徕": 2698,
      "得": 2699,
      "徘": 2700,
      "徙": 2701,
      "徜": 2702,
      "從": 2703,
      "御": 2704,
      "徨": 2705,
      "復": 2706,
      "循": 2707,
      "徬": 2708,
      "微": 2709,
      "徳": 2710,
      "徵": 2711,
      "德": 2712,
      "徹": 2713,
      "徼": 2714,
      "徽": 2715,
      "心": 2716,
      "必": 2717,
      "忆": 2718,
      "忌": 2719,
      "忍": 2720,
      "忏": 2721,
      "忒": 2722,
      "忖": 2723,
      "志": 2724,
      "忘": 2725,
      "忙": 2726,
      "忠": 2727,
      "忡": 2728,
      "忤": 2729,
      "忧": 2730,
      "忪": 2731,
      "快": 2732,
      "忭": 2733,
      "忱": 2734,
      "念": 2735,
      "忸": 2736,
      "忽": 2737,
      "忾": 2738,
      "忿": 2739,
      "怀": 2740,
      "态": 2741,
      "怂": 2742,
      "怅": 2743,
      "怆": 2744,
      "怍": 2745,
      "怎": 2746,
      "怏": 2747,
      "怒": 2748,
      "怓": 2749,
      "怕": 2750,
      "怖": 2751,
      "怙": 2752,
      "怜": 2753,
      "思": 2754,
      "怠": 2755,
      "怡": 2756,
      "急": 2757,
      "怦": 2758,
      "性": 2759,
      "怨": 2760,
      "怩": 2761,
      "怪": 2762,
      "怮": 2763,
      "怯": 2764,
      "总": 2765,
      "恀": 2766,
      "恁": 2767,
      "恃": 2768,
      "恅": 2769,
      "恆": 2770,
      "恋": 2771,
      "恍": 2772,
      "恐": 2773,
      "恒": 2774,
      "恕": 2775,
      "恙": 2776,
      "恛": 2777,
      "恢": 2778,
      "恣": 2779,
      "恤": 2780,
      "恥": 2781,
      "恨": 2782,
      "恩": 2783,
      "恪": 2784,
      "恫": 2785,
      "恬": 2786,
      "恭": 2787,
      "息": 2788,
      "恰": 2789,
      "恳": 2790,
      "恵": 2791,
      "恶": 2792,
      "恸": 2793,
      "恺": 2794,
      "恻": 2795,
      "恼": 2796,
      "恿": 2797,
      "悄": 2798,
      "悅": 2799,
      "悉": 2800,
      "悌": 2801,
      "悍": 2802,
      "悔": 2803,
      "悖": 2804,
      "悗": 2805,
      "悚": 2806,
      "悛": 2807,
      "悝": 2808,
      "悟": 2809,
      "悠": 2810,
      "患": 2811,
      "悦": 2812,
      "您": 2813,
      "悬": 2814,
      "悯": 2815,
      "悲": 2816,
      "悴": 2817,
      "悵": 2818,
      "悶": 2819,
      "悸": 2820,
      "悼": 2821,
      "悽": 2822,
      "情": 2823,
      "惆": 2824,
      "惇": 2825,
      "惊": 2826,
      "惋": 2827,
      "惑": 2828,
      "惕": 2829,
      "惘": 2830,
      "惚": 2831,
      "惛": 2832,
      "惜": 2833,
      "惟": 2834,
      "惠": 2835,
      "惡": 2836,
      "惦": 2837,
      "惧": 2838,
      "惨": 2839,
      "惩": 2840,
      "惫": 2841,
      "惬": 2842,
      "惭": 2843,
      "惮": 2844,
      "惯": 2845,
      "惰": 2846,
      "惱": 2847,
      "想": 2848,
      "惶": 2849,
      "惹": 2850,
      "惺": 2851,
      "愁": 2852,
      "愆": 2853,
      "愈": 2854,
      "愉": 2855,
      "愍": 2856,
      "愎": 2857,
      "意": 2858,
      "愕": 2859,
      "愚": 2860,
      "愛": 2861,
      "感": 2862,
      "愣": 2863,
      "愤": 2864,
      "愦": 2865,
      "愧": 2866,
      "愿": 2867,
      "慄": 2868,
      "慇": 2869,
      "慈": 2870,
      "態": 2871,
      "慌": 2872,
      "慎": 2873,
      "慑": 2874,
      "慕": 2875,
      "慘": 2876,
      "慢": 2877,
      "慣": 2878,
      "慧": 2879,
      "慨": 2880,
      "慫": 2881,
      "慮": 2882,
      "慰": 2883,
      "慶": 2884,
      "慷": 2885,
      "慾": 2886,
      "憂": 2887,
      "憊": 2888,
      "憋": 2889,
      "憎": 2890,
      "憐": 2891,
      "憑": 2892,
      "憒": 2893,
      "憔": 2894,
      "憤": 2895,
      "憧": 2896,
      "憨": 2897,
      "憩": 2898,
      "憫": 2899,
      "憬": 2900,
      "憲": 2901,
      "憶": 2902,
      "憾": 2903,
      "懂": 2904,
      "懇": 2905,
      "懈": 2906,
      "應": 2907,
      "懊": 2908,
      "懑": 2909,
      "懒": 2910,
      "懟": 2911,
      "懦": 2912,
      "懧": 2913,
      "懨": 2914,
      "懮": 2915,
      "懲": 2916,
      "懵": 2917,
      "懶": 2918,
      "懷": 2919,
      "懸": 2920,
      "懺": 2921,
      "懼": 2922,
      "懾": 2923,
      "懿": 2924,
      "戀": 2925,
      "戈": 2926,
      "戊": 2927,
      "戌": 2928,
      "戍": 2929,
      "戎": 2930,
      "戏": 2931,
      "成": 2932,
      "我": 2933,
      "戒": 2934,
      "戕": 2935,
      "或": 2936,
      "战": 2937,
      "戚": 2938,
      "戛": 2939,
      "戟": 2940,
      "戡": 2941,
      "戥": 2942,
      "截": 2943,
      "戮": 2944,
      "戰": 2945,
      "戲": 2946,
      "戳": 2947,
      "戴": 2948,
      "戶": 2949,
      "户": 2950,
      "房": 2951,
      "所": 2952,
      "扁": 2953,
      "扂": 2954,
      "扇": 2955,
      "扈": 2956,
      "扉": 2957,
      "手": 2958,
      "才": 2959,
      "扎": 2960,
      "扑": 2961,
      "扒": 2962,
      "打": 2963,
      "扔": 2964,
      "托": 2965,
      "扛": 2966,
      "扞": 2967,
      "扢": 2968,
      "扣": 2969,
      "执": 2970,
      "扩": 2971,
      "扪": 2972,
      "扫": 2973,
      "扬": 2974,
      "扭": 2975,
      "扮": 2976,
      "扯": 2977,
      "扰": 2978,
      "扲": 2979,
      "扳": 2980,
      "扶": 2981,
      "批": 2982,
      "扼": 2983,
      "找": 2984,
      "承": 2985,
      "技": 2986,
      "抄": 2987,
      "抇": 2988,
      "抉": 2989,
      "把": 2990,
      "抑": 2991,
      "抒": 2992,
      "抓": 2993,
      "投": 2994,
      "抖": 2995,
      "抗": 2996,
      "折": 2997,
      "抚": 2998,
      "抛": 2999,
      "抠": 3000,
      "抡": 3001,
      "抢": 3002,
      "护": 3003,
      "报": 3004,
      "抨": 3005,
      "披": 3006,
      "抬": 3007,
      "抰": 3008,
      "抱": 3009,
      "抵": 3010,
      "抹": 3011,
      "抻": 3012,
      "押": 3013,
      "抽": 3014,
      "抿": 3015,
      "拂": 3016,
      "拄": 3017,
      "担": 3018,
      "拆": 3019,
      "拇": 3020,
      "拈": 3021,
      "拉": 3022,
      "拋": 3023,
      "拌": 3024,
      "拍": 3025,
      "拎": 3026,
      "拐": 3027,
      "拒": 3028,
      "拓": 3029,
      "拔": 3030,
      "拖": 3031,
      "拗": 3032,
      "拘": 3033,
      "拙": 3034,
      "拚": 3035,
      "招": 3036,
      "拜": 3037,
      "拟": 3038,
      "拢": 3039,
      "拣": 3040,
      "拥": 3041,
      "拦": 3042,
      "拧": 3043,
      "拨": 3044,
      "择": 3045,
      "括": 3046,
      "拭": 3047,
      "拮": 3048,
      "拯": 3049,
      "拱": 3050,
      "拳": 3051,
      "拴": 3052,
      "拷": 3053,
      "拸": 3054,
      "拼": 3055,
      "拽": 3056,
      "拾": 3057,
      "拿": 3058,
      "持": 3059,
      "挂": 3060,
      "指": 3061,
      "挈": 3062,
      "按": 3063,
      "挎": 3064,
      "挑": 3065,
      "挖": 3066,
      "挚": 3067,
      "挛": 3068,
      "挝": 3069,
      "挞": 3070,
      "挟": 3071,
      "挠": 3072,
      "挡": 3073,
      "挣": 3074,
      "挤": 3075,
      "挥": 3076,
      "挨": 3077,
      "挪": 3078,
      "挫": 3079,
      "振": 3080,
      "挲": 3081,
      "挺": 3082,
      "挼": 3083,
      "挽": 3084,
      "挾": 3085,
      "捂": 3086,
      "捅": 3087,
      "捆": 3088,
      "捉": 3089,
      "捋": 3090,
      "捌": 3091,
      "捍": 3092,
      "捎": 3093,
      "捏": 3094,
      "捐": 3095,
      "捕": 3096,
      "捚": 3097,
      "捞": 3098,
      "损": 3099,
      "捡": 3100,
      "换": 3101,
      "捣": 3102,
      "捧": 3103,
      "捨": 3104,
      "捩": 3105,
      "捫": 3106,
      "据": 3107,
      "捱": 3108,
      "捲": 3109,
      "捶": 3110,
      "捷": 3111,
      "捻": 3112,
      "掀": 3113,
      "掂": 3114,
      "掃": 3115,
      "掇": 3116,
      "授": 3117,
      "掉": 3118,
      "掌": 3119,
      "掍": 3120,
      "掏": 3121,
      "掐": 3122,
      "排": 3123,
      "掖": 3124,
      "掗": 3125,
      "掘": 3126,
      "掙": 3127,
      "掛": 3128,
      "掠": 3129,
      "採": 3130,
      "探": 3131,
      "掣": 3132,
      "接": 3133,
      "控": 3134,
      "推": 3135,
      "掩": 3136,
      "措": 3137,
      "掬": 3138,
      "掮": 3139,
      "掰": 3140,
      "掳": 3141,
      "掴": 3142,
      "掷": 3143,
      "掸": 3144,
      "掺": 3145,
      "揀": 3146,
      "揄": 3147,
      "揉": 3148,
      "揌": 3149,
      "揍": 3150,
      "描": 3151,
      "提": 3152,
      "插": 3153,
      "揖": 3154,
      "揚": 3155,
      "換": 3156,
      "揝": 3157,
      "握": 3158,
      "揣": 3159,
      "揤": 3160,
      "揩": 3161,
      "揪": 3162,
      "揭": 3163,
      "揮": 3164,
      "援": 3165,
      "揶": 3166,
      "揸": 3167,
      "揹": 3168,
      "揽": 3169,
      "揾": 3170,
      "搀": 3171,
      "搁": 3172,
      "搂": 3173,
      "搅": 3174,
      "損": 3175,
      "搏": 3176,
      "搐": 3177,
      "搓": 3178,
      "搔": 3179,
      "搖": 3180,
      "搗": 3181,
      "搛": 3182,
      "搜": 3183,
      "搞": 3184,
      "搟": 3185,
      "搡": 3186,
      "搥": 3187,
      "搪": 3188,
      "搬": 3189,
      "搭": 3190,
      "搴": 3191,
      "搵": 3192,
      "搶": 3193,
      "携": 3194,
      "搽": 3195,
      "摀": 3196,
      "摁": 3197,
      "摂": 3198,
      "摄": 3199,
      "摆": 3200,
      "摇": 3201,
      "摈": 3202,
      "摊": 3203,
      "摒": 3204,
      "摔": 3205,
      "摘": 3206,
      "摟": 3207,
      "摧": 3208,
      "摩": 3209,
      "摯": 3210,
      "摸": 3211,
      "摹": 3212,
      "摺": 3213,
      "摻": 3214,
      "撂": 3215,
      "撅": 3216,
      "撇": 3217,
      "撈": 3218,
      "撐": 3219,
      "撑": 3220,
      "撒": 3221,
      "撓": 3222,
      "撕": 3223,
      "撙": 3224,
      "撞": 3225,
      "撣": 3226,
      "撤": 3227,
      "撥": 3228,
      "撩": 3229,
      "撫": 3230,
      "撬": 3231,
      "播": 3232,
      "撮": 3233,
      "撰": 3234,
      "撲": 3235,
      "撵": 3236,
      "撷": 3237,
      "撸": 3238,
      "撺": 3239,
      "撼": 3240,
      "撿": 3241,
      "擁": 3242,
      "擂": 3243,
      "擄": 3244,
      "擅": 3245,
      "擇": 3246,
      "擊": 3247,
      "擋": 3248,
      "操": 3249,
      "擎": 3250,
      "擒": 3251,
      "擔": 3252,
      "擘": 3253,
      "據": 3254,
      "擞": 3255,
      "擠": 3256,
      "擢": 3257,
      "擤": 3258,
      "擦": 3259,
      "擬": 3260,
      "擭": 3261,
      "擰": 3262,
      "擱": 3263,
      "擲": 3264,
      "擴": 3265,
      "擺": 3266,
      "擼": 3267,
      "擾": 3268,
      "攀": 3269,
      "攆": 3270,
      "攏": 3271,
      "攒": 3272,
      "攔": 3273,
      "攘": 3274,
      "攛": 3275,
      "攜": 3276,
      "攝": 3277,
      "攢": 3278,
      "攣": 3279,
      "攤": 3280,
      "攥": 3281,
      "攪": 3282,
      "攫": 3283,
      "攬": 3284,
      "支": 3285,
      "攰": 3286,
      "收": 3287,
      "攸": 3288,
      "改": 3289,
      "攻": 3290,
      "放": 3291,
      "政": 3292,
      "敃": 3293,
      "故": 3294,
      "效": 3295,
      "敌": 3296,
      "敏": 3297,
      "救": 3298,
      "敕": 3299,
      "敖": 3300,
      "敗": 3301,
      "敘": 3302,
      "教": 3303,
      "敛": 3304,
      "敝": 3305,
      "敞": 3306,
      "敢": 3307,
      "散": 3308,
      "敦": 3309,
      "敬": 3310,
      "数": 3311,
      "敲": 3312,
      "整": 3313,
      "敵": 3314,
      "敷": 3315,
      "數": 3316,
      "斂": 3317,
      "斃": 3318,
      "文": 3319,
      "斋": 3320,
      "斌": 3321,
      "斐": 3322,
      "斑": 3323,
      "斓": 3324,
      "斕": 3325,
      "斗": 3326,
      "料": 3327,
      "斛": 3328,
      "斜": 3329,
      "斟": 3330,
      "斡": 3331,
      "斤": 3332,
      "斥": 3333,
      "斧": 3334,
      "斩": 3335,
      "斬": 3336,
      "断": 3337,
      "斯": 3338,
      "新": 3339,
      "斷": 3340,
      "方": 3341,
      "於": 3342,
      "施": 3343,
      "旁": 3344,
      "旅": 3345,
      "旋": 3346,
      "旌": 3347,
      "旍": 3348,
      "族": 3349,
      "旗": 3350,
      "无": 3351,
      "既": 3352,
      "日": 3353,
      "旦": 3354,
      "旧": 3355,
      "旨": 3356,
      "早": 3357,
      "旬": 3358,
      "旭": 3359,
      "旮": 3360,
      "旯": 3361,
      "旰": 3362,
      "旱": 3363,
      "旳": 3364,
      "时": 3365,
      "旷": 3366,
      "旺": 3367,
      "昂": 3368,
      "昄": 3369,
      "昆": 3370,
      "昇": 3371,
      "昊": 3372,
      "昌": 3373,
      "明": 3374,
      "昏": 3375,
      "昒": 3376,
      "易": 3377,
      "昔": 3378,
      "昕": 3379,
      "昙": 3380,
      "昜": 3381,
      "星": 3382,
      "映": 3383,
      "昢": 3384,
      "春": 3385,
      "昧": 3386,
      "昨": 3387,
      "昫": 3388,
      "昭": 3389,
      "是": 3390,
      "昴": 3391,
      "昵": 3392,
      "昹": 3393,
      "昻": 3394,
      "昼": 3395,
      "显": 3396,
      "時": 3397,
      "晃": 3398,
      "晉": 3399,
      "晋": 3400,
      "晌": 3401,
      "晏": 3402,
      "晒": 3403,
      "晓": 3404,
      "晔": 3405,
      "晕": 3406,
      "晖": 3407,
      "晚": 3408,
      "晝": 3409,
      "晟": 3410,
      "晡": 3411,
      "晤": 3412,
      "晦": 3413,
      "晨": 3414,
      "普": 3415,
      "景": 3416,
      "晰": 3417,
      "晴": 3418,
      "晶": 3419,
      "智": 3420,
      "晾": 3421,
      "暂": 3422,
      "暄": 3423,
      "暇": 3424,
      "暈": 3425,
      "暉": 3426,
      "暍": 3427,
      "暑": 3428,
      "暖": 3429,
      "暗": 3430,
      "暢": 3431,
      "暧": 3432,
      "暨": 3433,
      "暫": 3434,
      "暮": 3435,
      "暴": 3436,
      "暹": 3437,
      "暺": 3438,
      "曆": 3439,
      "曉": 3440,
      "曖": 3441,
      "曙": 3442,
      "曝": 3443,
      "曠": 3444,
      "曦": 3445,
      "曬": 3446,
      "曰": 3447,
      "曲": 3448,
      "曳": 3449,
      "更": 3450,
      "書": 3451,
      "曹": 3452,
      "曼": 3453,
      "曾": 3454,
      "替": 3455,
      "最": 3456,
      "會": 3457,
      "月": 3458,
      "有": 3459,
      "朊": 3460,
      "朋": 3461,
      "服": 3462,
      "朔": 3463,
      "朕": 3464,
      "朗": 3465,
      "望": 3466,
      "朝": 3467,
      "期": 3468,
      "朦": 3469,
      "朧": 3470,
      "木": 3471,
      "未": 3472,
      "末": 3473,
      "本": 3474,
      "札": 3475,
      "朮": 3476,
      "术": 3477,
      "朱": 3478,
      "朴": 3479,
      "朵": 3480,
      "朶": 3481,
      "朸": 3482,
      "机": 3483,
      "朽": 3484,
      "杀": 3485,
      "杂": 3486,
      "权": 3487,
      "杅": 3488,
      "杆": 3489,
      "杈": 3490,
      "杉": 3491,
      "李": 3492,
      "杏": 3493,
      "材": 3494,
      "村": 3495,
      "杓": 3496,
      "杖": 3497,
      "杜": 3498,
      "杞": 3499,
      "束": 3500,
      "杠": 3501,
      "条": 3502,
      "来": 3503,
      "杨": 3504,
      "杭": 3505,
      "杯": 3506,
      "杰": 3507,
      "東": 3508,
      "杵": 3509,
      "杷": 3510,
      "杻": 3511,
      "松": 3512,
      "板": 3513,
      "极": 3514,
      "构": 3515,
      "枅": 3516,
      "枇": 3517,
      "枉": 3518,
      "析": 3519,
      "枑": 3520,
      "枕": 3521,
      "林": 3522,
      "枙": 3523,
      "枚": 3524,
      "果": 3525,
      "枝": 3526,
      "枞": 3527,
      "枢": 3528,
      "枣": 3529,
      "枪": 3530,
      "枫": 3531,
      "枭": 3532,
      "枯": 3533,
      "枱": 3534,
      "枴": 3535,
      "架": 3536,
      "枷": 3537,
      "枸": 3538,
      "柁": 3539,
      "柄": 3540,
      "柊": 3541,
      "柏": 3542,
      "某": 3543,
      "柑": 3544,
      "柒": 3545,
      "染": 3546,
      "柔": 3547,
      "柚": 3548,
      "柜": 3549,
      "柠": 3550,
      "柢": 3551,
      "查": 3552,
      "柩": 3553,
      "柬": 3554,
      "柯": 3555,
      "柰": 3556,
      "柱": 3557,
      "柲": 3558,
      "柳": 3559,
      "柴": 3560,
      "柵": 3561,
      "柽": 3562,
      "柿": 3563,
      "栀": 3564,
      "栅": 3565,
      "标": 3566,
      "栈": 3567,
      "栉": 3568,
      "栋": 3569,
      "栎": 3570,
      "栏": 3571,
      "树": 3572,
      "栓": 3573,
      "栖": 3574,
      "栗": 3575,
      "栠": 3576,
      "校": 3577,
      "栩": 3578,
      "株": 3579,
      "样": 3580,
      "核": 3581,
      "根": 3582,
      "格": 3583,
      "栽": 3584,
      "桀": 3585,
      "桂": 3586,
      "桃": 3587,
      "桅": 3588,
      "框": 3589,
      "案": 3590,
      "桉": 3591,
      "桌": 3592,
      "桎": 3593,
      "桐": 3594,
      "桑": 3595,
      "桓": 3596,
      "桔": 3597,
      "桖": 3598,
      "桜": 3599,
      "桡": 3600,
      "桢": 3601,
      "档": 3602,
      "桥": 3603,
      "桦": 3604,
      "桧": 3605,
      "桨": 3606,
      "桩": 3607,
      "桯": 3608,
      "桲": 3609,
      "桴": 3610,
      "桵": 3611,
      "桶": 3612,
      "桽": 3613,
      "桿": 3614,
      "梁": 3615,
      "梅": 3616,
      "梆": 3617,
      "梏": 3618,
      "梑": 3619,
      "梒": 3620,
      "梓": 3621,
      "梗": 3622,
      "條": 3623,
      "梢": 3624,
      "梦": 3625,
      "梧": 3626,
      "梨": 3627,
      "梭": 3628,
      "梯": 3629,
      "械": 3630,
      "梳": 3631,
      "梵": 3632,
      "检": 3633,
      "棄": 3634,
      "棉": 3635,
      "棋": 3636,
      "棍": 3637,
      "棒": 3638,
      "棕": 3639,
      "棗": 3640,
      "棘": 3641,
      "棚": 3642,
      "棟": 3643,
      "棠": 3644,
      "棣": 3645,
      "森": 3646,
      "棱": 3647,
      "棲": 3648,
      "棵": 3649,
      "棺": 3650,
      "椄": 3651,
      "椅": 3652,
      "椋": 3653,
      "植": 3654,
      "椎": 3655,
      "椐": 3656,
      "椒": 3657,
      "椤": 3658,
      "椭": 3659,
      "椰": 3660,
      "椿": 3661,
      "楂": 3662,
      "楊": 3663,
      "楓": 3664,
      "楔": 3665,
      "楚": 3666,
      "楛": 3667,
      "楝": 3668,
      "楞": 3669,
      "楠": 3670,
      "楢": 3671,
      "楣": 3672,
      "楦": 3673,
      "楨": 3674,
      "業": 3675,
      "極": 3676,
      "楷": 3677,
      "楸": 3678,
      "楼": 3679,
      "概": 3680,
      "榄": 3681,
      "榅": 3682,
      "榆": 3683,
      "榈": 3684,
      "榉": 3685,
      "榔": 3686,
      "榕": 3687,
      "榘": 3688,
      "榛": 3689,
      "榜": 3690,
      "榨": 3691,
      "榭": 3692,
      "榮": 3693,
      "榴": 3694,
      "榷": 3695,
      "榻": 3696,
      "槁": 3697,
      "槃": 3698,
      "構": 3699,
      "槌": 3700,
      "槍": 3701,
      "槐": 3702,
      "槓": 3703,
      "槙": 3704,
      "槛": 3705,
      "槟": 3706,
      "槨": 3707,
      "槲": 3708,
      "槳": 3709,
      "槽": 3710,
      "槿": 3711,
      "樁": 3712,
      "樂": 3713,
      "樊": 3714,
      "樑": 3715,
      "樓": 3716,
      "標": 3717,
      "樞": 3718,
      "樟": 3719,
      "模": 3720,
      "樣": 3721,
      "横": 3722,
      "樱": 3723,
      "樵": 3724,
      "樸": 3725,
      "樹": 3726,
      "樺": 3727,
      "樽": 3728,
      "橄": 3729,
      "橇": 3730,
      "橈": 3731,
      "橋": 3732,
      "橔": 3733,
      "橘": 3734,
      "橙": 3735,
      "機": 3736,
      "橡": 3737,
      "橢": 3738,
      "橥": 3739,
      "橫": 3740,
      "橱": 3741,
      "橵": 3742,
      "橼": 3743,
      "橾": 3744,
      "檀": 3745,
      "檐": 3746,
      "檔": 3747,
      "檞": 3748,
      "檢": 3749,
      "檫": 3750,
      "檬": 3751,
      "檯": 3752,
      "檳": 3753,
      "檸": 3754,
      "櫃": 3755,
      "櫈": 3756,
      "櫚": 3757,
      "櫥": 3758,
      "櫻": 3759,
      "欄": 3760,
      "權": 3761,
      "欑": 3762,
      "欖": 3763,
      "欠": 3764,
      "次": 3765,
      "欢": 3766,
      "欣": 3767,
      "欧": 3768,
      "欲": 3769,
      "欴": 3770,
      "欸": 3771,
      "欺": 3772,
      "欽": 3773,
      "款": 3774,
      "歃": 3775,
      "歆": 3776,
      "歇": 3777,
      "歉": 3778,
      "歌": 3779,
      "歎": 3780,
      "歐": 3781,
      "歛": 3782,
      "歡": 3783,
      "止": 3784,
      "正": 3785,
      "此": 3786,
      "步": 3787,
      "武": 3788,
      "歧": 3789,
      "歪": 3790,
      "歲": 3791,
      "歷": 3792,
      "歸": 3793,
      "歹": 3794,
      "死": 3795,
      "歼": 3796,
      "殃": 3797,
      "殄": 3798,
      "殆": 3799,
      "殉": 3800,
      "殊": 3801,
      "残": 3802,
      "殒": 3803,
      "殓": 3804,
      "殖": 3805,
      "殘": 3806,
      "殛": 3807,
      "殡": 3808,
      "殭": 3809,
      "殲": 3810,
      "殴": 3811,
      "段": 3812,
      "殷": 3813,
      "殺": 3814,
      "殻": 3815,
      "殼": 3816,
      "殿": 3817,
      "毀": 3818,
      "毁": 3819,
      "毂": 3820,
      "毅": 3821,
      "毆": 3822,
      "毋": 3823,
      "母": 3824,
      "毎": 3825,
      "每": 3826,
      "毒": 3827,
      "毓": 3828,
      "比": 3829,
      "毕": 3830,
      "毖": 3831,
      "毗": 3832,
      "毙": 3833,
      "毚": 3834,
      "毛": 3835,
      "毞": 3836,
      "毡": 3837,
      "毫": 3838,
      "毯": 3839,
      "毽": 3840,
      "氏": 3841,
      "氐": 3842,
      "民": 3843,
      "氓": 3844,
      "气": 3845,
      "氖": 3846,
      "氘": 3847,
      "氙": 3848,
      "氚": 3849,
      "氛": 3850,
      "氟": 3851,
      "氡": 3852,
      "氢": 3853,
      "氣": 3854,
      "氦": 3855,
      "氧": 3856,
      "氨": 3857,
      "氩": 3858,
      "氪": 3859,
      "氫": 3860,
      "氮": 3861,
      "氯": 3862,
      "氰": 3863,
      "水": 3864,
      "永": 3865,
      "氹": 3866,
      "汀": 3867,
      "汁": 3868,
      "求": 3869,
      "汇": 3870,
      "汉": 3871,
      "汐": 3872,
      "汔": 3873,
      "汗": 3874,
      "汜": 3875,
      "汝": 3876,
      "汞": 3877,
      "江": 3878,
      "池": 3879,
      "污": 3880,
      "汤": 3881,
      "汩": 3882,
      "汪": 3883,
      "汰": 3884,
      "汲": 3885,
      "汴": 3886,
      "汶": 3887,
      "汹": 3888,
      "決": 3889,
      "汽": 3890,
      "汾": 3891,
      "沁": 3892,
      "沂": 3893,
      "沃": 3894,
      "沅": 3895,
      "沆": 3896,
      "沈": 3897,
      "沉": 3898,
      "沌": 3899,
      "沏": 3900,
      "沐": 3901,
      "沒": 3902,
      "沓": 3903,
      "沖": 3904,
      "沙": 3905,
      "沛": 3906,
      "沟": 3907,
      "没": 3908,
      "沢": 3909,
      "沣": 3910,
      "沤": 3911,
      "沥": 3912,
      "沦": 3913,
      "沧": 3914,
      "沫": 3915,
      "沬": 3916,
      "沭": 3917,
      "沮": 3918,
      "沱": 3919,
      "河": 3920,
      "沸": 3921,
      "油": 3922,
      "治": 3923,
      "沼": 3924,
      "沽": 3925,
      "沾": 3926,
      "沿": 3927,
      "況": 3928,
      "泂": 3929,
      "泄": 3930,
      "泅": 3931,
      "泉": 3932,
      "泊": 3933,
      "泌": 3934,
      "泐": 3935,
      "泔": 3936,
      "法": 3937,
      "泗": 3938,
      "泛": 3939,
      "泞": 3940,
      "泠": 3941,
      "泡": 3942,
      "波": 3943,
      "泣": 3944,
      "泥": 3945,
      "注": 3946,
      "泪": 3947,
      "泭": 3948,
      "泮": 3949,
      "泯": 3950,
      "泰": 3951,
      "泱": 3952,
      "泳": 3953,
      "泵": 3954,
      "泷": 3955,
      "泻": 3956,
      "泼": 3957,
      "泽": 3958,
      "泾": 3959,
      "洁": 3960,
      "洄": 3961,
      "洇": 3962,
      "洋": 3963,
      "洒": 3964,
      "洗": 3965,
      "洙": 3966,
      "洛": 3967,
      "洞": 3968,
      "津": 3969,
      "洩": 3970,
      "洪": 3971,
      "洮": 3972,
      "洱": 3973,
      "洲": 3974,
      "洶": 3975,
      "洷": 3976,
      "活": 3977,
      "洼": 3978,
      "洽": 3979,
      "派": 3980,
      "流": 3981,
      "浃": 3982,
      "浅": 3983,
      "浆": 3984,
      "浇": 3985,
      "浊": 3986,
      "测": 3987,
      "浍": 3988,
      "济": 3989,
      "浏": 3990,
      "浑": 3991,
      "浒": 3992,
      "浓": 3993,
      "浙": 3994,
      "浚": 3995,
      "浣": 3996,
      "浦": 3997,
      "浩": 3998,
      "浪": 3999,
      "浬": 4000,
      "浮": 4001,
      "浯": 4002,
      "浴": 4003,
      "海": 4004,
      "浸": 4005,
      "涂": 4006,
      "涅": 4007,
      "消": 4008,
      "涉": 4009,
      "涌": 4010,
      "涎": 4011,
      "涓": 4012,
      "涕": 4013,
      "涛": 4014,
      "涝": 4015,
      "涟": 4016,
      "涡": 4017,
      "涣": 4018,
      "涤": 4019,
      "润": 4020,
      "涧": 4021,
      "涨": 4022,
      "涩": 4023,
      "涮": 4024,
      "涯": 4025,
      "液": 4026,
      "涴": 4027,
      "涵": 4028,
      "涸": 4029,
      "涼": 4030,
      "淀": 4031,
      "淅": 4032,
      "淆": 4033,
      "淇": 4034,
      "淊": 4035,
      "淋": 4036,
      "淌": 4037,
      "淏": 4038,
      "淑": 4039,
      "淖": 4040,
      "淘": 4041,
      "淚": 4042,
      "淡": 4043,
      "淤": 4044,
      "淨": 4045,
      "淩": 4046,
      "淪": 4047,
      "淫": 4048,
      "淬": 4049,
      "淮": 4050,
      "深": 4051,
      "淳": 4052,
      "淵": 4053,
      "混": 4054,
      "淹": 4055,
      "淺": 4056,
      "添": 4057,
      "渀": 4058,
      "清": 4059,
      "渊": 4060,
      "渍": 4061,
      "渎": 4062,
      "渐": 4063,
      "渔": 4064,
      "渗": 4065,
      "渙": 4066,
      "渚": 4067,
      "減": 4068,
      "渝": 4069,
      "渠": 4070,
      "渡": 4071,
      "渣": 4072,
      "渤": 4073,
      "渥": 4074,
      "渦": 4075,
      "渧": 4076,
      "温": 4077,
      "測": 4078,
      "渭": 4079,
      "港": 4080,
      "渲": 4081,
      "渴": 4082,
      "游": 4083,
      "渺": 4084,
      "渾": 4085,
      "湃": 4086,
      "湄": 4087,
      "湊": 4088,
      "湍": 4089,
      "湎": 4090,
      "湔": 4091,
      "湖": 4092,
      "湘": 4093,
      "湛": 4094,
      "湧": 4095,
      "湮": 4096,
      "湯": 4097,
      "湴": 4098,
      "湾": 4099,
      "湿": 4100,
      "溃": 4101,
      "溅": 4102,
      "溉": 4103,
      "溏": 4104,
      "源": 4105,
      "準": 4106,
      "溘": 4107,
      "溜": 4108,
      "溝": 4109,
      "溢": 4110,
      "溥": 4111,
      "溪": 4112,
      "溫": 4113,
      "溯": 4114,
      "溴": 4115,
      "溶": 4116,
      "溷": 4117,
      "溺": 4118,
      "溼": 4119,
      "滂": 4120,
      "滅": 4121,
      "滇": 4122,
      "滋": 4123,
      "滌": 4124,
      "滑": 4125,
      "滓": 4126,
      "滔": 4127,
      "滕": 4128,
      "滚": 4129,
      "滞": 4130,
      "满": 4131,
      "滤": 4132,
      "滥": 4133,
      "滨": 4134,
      "滩": 4135,
      "滯": 4136,
      "滲": 4137,
      "滴": 4138,
      "滾": 4139,
      "滿": 4140,
      "漁": 4141,
      "漂": 4142,
      "漆": 4143,
      "漉": 4144,
      "漏": 4145,
      "漒": 4146,
      "漓": 4147,
      "演": 4148,
      "漠": 4149,
      "漢": 4150,
      "漩": 4151,
      "漪": 4152,
      "漫": 4153,
      "漬": 4154,
      "漯": 4155,
      "漱": 4156,
      "漲": 4157,
      "漸": 4158,
      "漾": 4159,
      "漿": 4160,
      "潇": 4161,
      "潑": 4162,
      "潔": 4163,
      "潘": 4164,
      "潛": 4165,
      "潜": 4166,
      "潠": 4167,
      "潢": 4168,
      "潤": 4169,
      "潦": 4170,
      "潭": 4171,
      "潮": 4172,
      "潰": 4173,
      "潸": 4174,
      "潺": 4175,
      "澄": 4176,
      "澆": 4177,
      "澈": 4178,
      "澎": 4179,
      "澜": 4180,
      "澡": 4181,
      "澤": 4182,
      "澪": 4183,
      "澳": 4184,
      "澹": 4185,
      "激": 4186,
      "濁": 4187,
      "濂": 4188,
      "濃": 4189,
      "濑": 4190,
      "濒": 4191,
      "濕": 4192,
      "濘": 4193,
      "濛": 4194,
      "濟": 4195,
      "濡": 4196,
      "濤": 4197,
      "濫": 4198,
      "濬": 4199,
      "濮": 4200,
      "濯": 4201,
      "濱": 4202,
      "濺": 4203,
      "濾": 4204,
      "瀆": 4205,
      "瀏": 4206,
      "瀑": 4207,
      "瀕": 4208,
      "瀚": 4209,
      "瀝": 4210,
      "瀟": 4211,
      "瀣": 4212,
      "瀬": 4213,
      "瀰": 4214,
      "灌": 4215,
      "灑": 4216,
      "灘": 4217,
      "灣": 4218,
      "火": 4219,
      "灭": 4220,
      "灯": 4221,
      "灰": 4222,
      "灵": 4223,
      "灶": 4224,
      "灸": 4225,
      "灼": 4226,
      "災": 4227,
      "灾": 4228,
      "灿": 4229,
      "炆": 4230,
      "炉": 4231,
      "炊": 4232,
      "炎": 4233,
      "炒": 4234,
      "炔": 4235,
      "炕": 4236,
      "炖": 4237,
      "炙": 4238,
      "炜": 4239,
      "炫": 4240,
      "炬": 4241,
      "炭": 4242,
      "炮": 4243,
      "炯": 4244,
      "炰": 4245,
      "炳": 4246,
      "炵": 4247,
      "炷": 4248,
      "炸": 4249,
      "点": 4250,
      "為": 4251,
      "炼": 4252,
      "炽": 4253,
      "烁": 4254,
      "烂": 4255,
      "烃": 4256,
      "烈": 4257,
      "烊": 4258,
      "烏": 4259,
      "烘": 4260,
      "烙": 4261,
      "烛": 4262,
      "烟": 4263,
      "烤": 4264,
      "烦": 4265,
      "烧": 4266,
      "烩": 4267,
      "烫": 4268,
      "烬": 4269,
      "热": 4270,
      "烯": 4271,
      "烷": 4272,
      "烹": 4273,
      "烽": 4274,
      "焉": 4275,
      "焊": 4276,
      "焕": 4277,
      "焖": 4278,
      "焗": 4279,
      "焙": 4280,
      "焚": 4281,
      "無": 4282,
      "焦": 4283,
      "焰": 4284,
      "然": 4285,
      "煅": 4286,
      "煉": 4287,
      "煌": 4288,
      "煎": 4289,
      "煖": 4290,
      "煙": 4291,
      "煞": 4292,
      "煤": 4293,
      "煥": 4294,
      "煦": 4295,
      "照": 4296,
      "煨": 4297,
      "煩": 4298,
      "煭": 4299,
      "煮": 4300,
      "煲": 4301,
      "煸": 4302,
      "煽": 4303,
      "熄": 4304,
      "熊": 4305,
      "熏": 4306,
      "熔": 4307,
      "熙": 4308,
      "熟": 4309,
      "熠": 4310,
      "熨": 4311,
      "熬": 4312,
      "熱": 4313,
      "熵": 4314,
      "熹": 4315,
      "燃": 4316,
      "燄": 4317,
      "燈": 4318,
      "燉": 4319,
      "燎": 4320,
      "燒": 4321,
      "燕": 4322,
      "燙": 4323,
      "營": 4324,
      "燠": 4325,
      "燥": 4326,
      "燦": 4327,
      "燧": 4328,
      "燬": 4329,
      "燭": 4330,
      "燮": 4331,
      "燴": 4332,
      "燻": 4333,
      "燼": 4334,
      "爆": 4335,
      "爍": 4336,
      "爐": 4337,
      "爛": 4338,
      "爪": 4339,
      "爬": 4340,
      "爭": 4341,
      "爱": 4342,
      "爲": 4343,
      "爵": 4344,
      "父": 4345,
      "爷": 4346,
      "爸": 4347,
      "爹": 4348,
      "爺": 4349,
      "爽": 4350,
      "爾": 4351,
      "牀": 4352,
      "牆": 4353,
      "片": 4354,
      "版": 4355,
      "牌": 4356,
      "牍": 4357,
      "牒": 4358,
      "牙": 4359,
      "牛": 4360,
      "牟": 4361,
      "牠": 4362,
      "牡": 4363,
      "牢": 4364,
      "牦": 4365,
      "牧": 4366,
      "物": 4367,
      "牲": 4368,
      "牵": 4369,
      "特": 4370,
      "牺": 4371,
      "牽": 4372,
      "犀": 4373,
      "犁": 4374,
      "犄": 4375,
      "犊": 4376,
      "犒": 4377,
      "犖": 4378,
      "犢": 4379,
      "犧": 4380,
      "犬": 4381,
      "犭": 4382,
      "犯": 4383,
      "犰": 4384,
      "状": 4385,
      "犸": 4386,
      "犹": 4387,
      "狀": 4388,
      "狂": 4389,
      "狄": 4390,
      "狈": 4391,
      "狍": 4392,
      "狎": 4393,
      "狐": 4394,
      "狒": 4395,
      "狓": 4396,
      "狗": 4397,
      "狙": 4398,
      "狝": 4399,
      "狞": 4400,
      "狟": 4401,
      "狠": 4402,
      "狡": 4403,
      "狥": 4404,
      "狦": 4405,
      "狨": 4406,
      "狩": 4407,
      "独": 4408,
      "狭": 4409,
      "狮": 4410,
      "狰": 4411,
      "狱": 4412,
      "狲": 4413,
      "狳": 4414,
      "狵": 4415,
      "狶": 4416,
      "狸": 4417,
      "狹": 4418,
      "狻": 4419,
      "狼": 4420,
      "狽": 4421,
      "狾": 4422,
      "狿": 4423,
      "猁": 4424,
      "猂": 4425,
      "猅": 4426,
      "猋": 4427,
      "猌": 4428,
      "猎": 4429,
      "猓": 4430,
      "猔": 4431,
      "猕": 4432,
      "猖": 4433,
      "猘": 4434,
      "猛": 4435,
      "猜": 4436,
      "猝": 4437,
      "猞": 4438,
      "猟": 4439,
      "猠": 4440,
      "猡": 4441,
      "猢": 4442,
      "猥": 4443,
      "猧": 4444,
      "猩": 4445,
      "猪": 4446,
      "猫": 4447,
      "猬": 4448,
      "猭": 4449,
      "献": 4450,
      "猳": 4451,
      "猴": 4452,
      "猵": 4453,
      "猶": 4454,
      "猾": 4455,
      "猿": 4456,
      "獀": 4457,
      "獁": 4458,
      "獃": 4459,
      "獄": 4460,
      "獅": 4461,
      "獎": 4462,
      "獗": 4463,
      "獠": 4464,
      "獨": 4465,
      "獭": 4466,
      "獰": 4467,
      "獲": 4468,
      "獴": 4469,
      "獵": 4470,
      "獶": 4471,
      "獸": 4472,
      "獹": 4473,
      "獺": 4474,
      "獻": 4475,
      "獽": 4476,
      "獾": 4477,
      "獿": 4478,
      "玂": 4479,
      "玄": 4480,
      "玅": 4481,
      "玆": 4482,
      "率": 4483,
      "玉": 4484,
      "玊": 4485,
      "王": 4486,
      "玌": 4487,
      "玍": 4488,
      "玐": 4489,
      "玒": 4490,
      "玙": 4491,
      "玛": 4492,
      "玜": 4493,
      "玡": 4494,
      "玥": 4495,
      "玦": 4496,
      "玨": 4497,
      "玩": 4498,
      "玪": 4499,
      "玫": 4500,
      "玭": 4501,
      "玮": 4502,
      "环": 4503,
      "现": 4504,
      "玱": 4505,
      "玲": 4506,
      "玳": 4507,
      "玴": 4508,
      "玵": 4509,
      "玶": 4510,
      "玷": 4511,
      "玺": 4512,
      "玻": 4513,
      "玼": 4514,
      "玾": 4515,
      "珀": 4516,
      "珂": 4517,
      "珃": 4518,
      "珅": 4519,
      "珆": 4520,
      "珇": 4521,
      "珈": 4522,
      "珉": 4523,
      "珊": 4524,
      "珋": 4525,
      "珍": 4526,
      "珏": 4527,
      "珑": 4528,
      "珗": 4529,
      "珠": 4530,
      "珥": 4531,
      "珧": 4532,
      "珨": 4533,
      "珩": 4534,
      "班": 4535,
      "珮": 4536,
      "珹": 4537,
      "珼": 4538,
      "現": 4539,
      "珿": 4540,
      "琁": 4541,
      "球": 4542,
      "琄": 4543,
      "琅": 4544,
      "理": 4545,
      "琉": 4546,
      "琌": 4547,
      "琍": 4548,
      "琎": 4549,
      "琐": 4550,
      "琕": 4551,
      "琘": 4552,
      "琛": 4553,
      "琜": 4554,
      "琢": 4555,
      "琥": 4556,
      "琦": 4557,
      "琩": 4558,
      "琪": 4559,
      "琰": 4560,
      "琳": 4561,
      "琴": 4562,
      "琵": 4563,
      "琶": 4564,
      "琼": 4565,
      "琾": 4566,
      "琿": 4567,
      "瑀": 4568,
      "瑁": 4569,
      "瑅": 4570,
      "瑆": 4571,
      "瑇": 4572,
      "瑈": 4573,
      "瑌": 4574,
      "瑍": 4575,
      "瑕": 4576,
      "瑗": 4577,
      "瑙": 4578,
      "瑚": 4579,
      "瑛": 4580,
      "瑜": 4581,
      "瑞": 4582,
      "瑟": 4583,
      "瑠": 4584,
      "瑩": 4585,
      "瑪": 4586,
      "瑯": 4587,
      "瑰": 4588,
      "瑶": 4589,
      "瑻": 4590,
      "瑼": 4591,
      "瑾": 4592,
      "瑿": 4593,
      "璀": 4594,
      "璂": 4595,
      "璃": 4596,
      "璅": 4597,
      "璆": 4598,
      "璇": 4599,
      "璉": 4600,
      "璊": 4601,
      "璍": 4602,
      "璐": 4603,
      "璑": 4604,
      "璓": 4605,
      "璗": 4606,
      "璚": 4607,
      "璛": 4608,
      "璜": 4609,
      "璝": 4610,
      "璞": 4611,
      "璣": 4612,
      "璦": 4613,
      "璧": 4614,
      "璨": 4615,
      "璭": 4616,
      "璮": 4617,
      "環": 4618,
      "璱": 4619,
      "璵": 4620,
      "璶": 4621,
      "璸": 4622,
      "璹": 4623,
      "璼": 4624,
      "璽": 4625,
      "瓀": 4626,
      "瓁": 4627,
      "瓂": 4628,
      "瓃": 4629,
      "瓆": 4630,
      "瓊": 4631,
      "瓒": 4632,
      "瓜": 4633,
      "瓠": 4634,
      "瓢": 4635,
      "瓣": 4636,
      "瓦": 4637,
      "瓮": 4638,
      "瓳": 4639,
      "瓶": 4640,
      "瓷": 4641,
      "瓸": 4642,
      "瓿": 4643,
      "甀": 4644,
      "甁": 4645,
      "甃": 4646,
      "甄": 4647,
      "甅": 4648,
      "甉": 4649,
      "甊": 4650,
      "甘": 4651,
      "甚": 4652,
      "甜": 4653,
      "甝": 4654,
      "生": 4655,
      "甡": 4656,
      "產": 4657,
      "産": 4658,
      "甤": 4659,
      "甥": 4660,
      "甦": 4661,
      "甧": 4662,
      "用": 4663,
      "甩": 4664,
      "甪": 4665,
      "甫": 4666,
      "甬": 4667,
      "甭": 4668,
      "甮": 4669,
      "田": 4670,
      "由": 4671,
      "甲": 4672,
      "申": 4673,
      "电": 4674,
      "甶": 4675,
      "男": 4676,
      "甸": 4677,
      "町": 4678,
      "画": 4679,
      "畀": 4680,
      "畃": 4681,
      "畄": 4682,
      "畅": 4683,
      "畉": 4684,
      "界": 4685,
      "畍": 4686,
      "畏": 4687,
      "畐": 4688,
      "畑": 4689,
      "畒": 4690,
      "畓": 4691,
      "畔": 4692,
      "畕": 4693,
      "留": 4694,
      "畜": 4695,
      "畝": 4696,
      "畟": 4697,
      "畢": 4698,
      "略": 4699,
      "番": 4700,
      "畫": 4701,
      "異": 4702,
      "畴": 4703,
      "當": 4704,
      "畸": 4705,
      "畿": 4706,
      "疆": 4707,
      "疉": 4708,
      "疊": 4709,
      "疍": 4710,
      "疏": 4711,
      "疑": 4712,
      "疖": 4713,
      "疗": 4714,
      "疙": 4715,
      "疚": 4716,
      "疝": 4717,
      "疟": 4718,
      "疡": 4719,
      "疤": 4720,
      "疥": 4721,
      "疦": 4722,
      "疩": 4723,
      "疫": 4724,
      "疭": 4725,
      "疮": 4726,
      "疯": 4727,
      "疱": 4728,
      "疲": 4729,
      "疵": 4730,
      "疶": 4731,
      "疸": 4732,
      "疹": 4733,
      "疻": 4734,
      "疼": 4735,
      "疽": 4736,
      "疾": 4737,
      "痁": 4738,
      "痂": 4739,
      "痄": 4740,
      "病": 4741,
      "症": 4742,
      "痈": 4743,
      "痉": 4744,
      "痊": 4745,
      "痌": 4746,
      "痍": 4747,
      "痒": 4748,
      "痔": 4749,
      "痕": 4750,
      "痘": 4751,
      "痙": 4752,
      "痚": 4753,
      "痛": 4754,
      "痜": 4755,
      "痝": 4756,
      "痞": 4757,
      "痠": 4758,
      "痢": 4759,
      "痣": 4760,
      "痨": 4761,
      "痪": 4762,
      "痫": 4763,
      "痮": 4764,
      "痰": 4765,
      "痲": 4766,
      "痴": 4767,
      "痷": 4768,
      "痸": 4769,
      "痹": 4770,
      "痺": 4771,
      "痻": 4772,
      "痼": 4773,
      "痾": 4774,
      "痿": 4775,
      "瘀": 4776,
      "瘁": 4777,
      "瘂": 4778,
      "瘆": 4779,
      "瘋": 4780,
      "瘍": 4781,
      "瘓": 4782,
      "瘘": 4783,
      "瘙": 4784,
      "瘜": 4785,
      "瘟": 4786,
      "瘠": 4787,
      "瘡": 4788,
      "瘤": 4789,
      "瘦": 4790,
      "瘧": 4791,
      "瘩": 4792,
      "瘪": 4793,
      "瘫": 4794,
      "瘴": 4795,
      "瘸": 4796,
      "瘾": 4797,
      "療": 4798,
      "癌": 4799,
      "癐": 4800,
      "癑": 4801,
      "癒": 4802,
      "癔": 4803,
      "癖": 4804,
      "癘": 4805,
      "癚": 4806,
      "癛": 4807,
      "癞": 4808,
      "癟": 4809,
      "癠": 4810,
      "癡": 4811,
      "癢": 4812,
      "癣": 4813,
      "癥": 4814,
      "癩": 4815,
      "癫": 4816,
      "癬": 4817,
      "癮": 4818,
      "癱": 4819,
      "癲": 4820,
      "癳": 4821,
      "癵": 4822,
      "癶": 4823,
      "癸": 4824,
      "癹": 4825,
      "発": 4826,
      "登": 4827,
      "發": 4828,
      "白": 4829,
      "百": 4830,
      "皁": 4831,
      "皂": 4832,
      "皃": 4833,
      "的": 4834,
      "皆": 4835,
      "皇": 4836,
      "皈": 4837,
      "皊": 4838,
      "皌": 4839,
      "皎": 4840,
      "皐": 4841,
      "皑": 4842,
      "皓": 4843,
      "皗": 4844,
      "皘": 4845,
      "皙": 4846,
      "皛": 4847,
      "皮": 4848,
      "皱": 4849,
      "皺": 4850,
      "皿": 4851,
      "盂": 4852,
      "盃": 4853,
      "盅": 4854,
      "盆": 4855,
      "盈": 4856,
      "盉": 4857,
      "益": 4858,
      "盋": 4859,
      "盌": 4860,
      "盎": 4861,
      "盏": 4862,
      "盐": 4863,
      "监": 4864,
      "盒": 4865,
      "盓": 4866,
      "盔": 4867,
      "盕": 4868,
      "盖": 4869,
      "盗": 4870,
      "盘": 4871,
      "盚": 4872,
      "盛": 4873,
      "盜": 4874,
      "盞": 4875,
      "盟": 4876,
      "盠": 4877,
      "盡": 4878,
      "盢": 4879,
      "監": 4880,
      "盤": 4881,
      "盥": 4882,
      "盧": 4883,
      "盪": 4884,
      "目": 4885,
      "盯": 4886,
      "盰": 4887,
      "盲": 4888,
      "直": 4889,
      "相": 4890,
      "盹": 4891,
      "盼": 4892,
      "盽": 4893,
      "盾": 4894,
      "盿": 4895,
      "眀": 4896,
      "省": 4897,
      "眃": 4898,
      "眅": 4899,
      "眈": 4900,
      "眉": 4901,
      "眊": 4902,
      "看": 4903,
      "眎": 4904,
      "眏": 4905,
      "眒": 4906,
      "眔": 4907,
      "眕": 4908,
      "眖": 4909,
      "眙": 4910,
      "眞": 4911,
      "真": 4912,
      "眠": 4913,
      "眢": 4914,
      "眣": 4915,
      "眤": 4916,
      "眦": 4917,
      "眨": 4918,
      "眩": 4919,
      "眭": 4920,
      "眯": 4921,
      "眳": 4922,
      "眶": 4923,
      "眷": 4924,
      "眸": 4925,
      "眺": 4926,
      "眻": 4927,
      "眼": 4928,
      "眾": 4929,
      "着": 4930,
      "睁": 4931,
      "睆": 4932,
      "睇": 4933,
      "睌": 4934,
      "睐": 4935,
      "睑": 4936,
      "睚": 4937,
      "睛": 4938,
      "睜": 4939,
      "睝": 4940,
      "睡": 4941,
      "睢": 4942,
      "督": 4943,
      "睤": 4944,
      "睦": 4945,
      "睪": 4946,
      "睫": 4947,
      "睬": 4948,
      "睭": 4949,
      "睱": 4950,
      "睲": 4951,
      "睵": 4952,
      "睹": 4953,
      "睼": 4954,
      "睽": 4955,
      "睾": 4956,
      "睿": 4957,
      "瞄": 4958,
      "瞅": 4959,
      "瞇": 4960,
      "瞈": 4961,
      "瞉": 4962,
      "瞊": 4963,
      "瞋": 4964,
      "瞌": 4965,
      "瞎": 4966,
      "瞏": 4967,
      "瞑": 4968,
      "瞒": 4969,
      "瞝": 4970,
      "瞞": 4971,
      "瞟": 4972,
      "瞠": 4973,
      "瞡": 4974,
      "瞥": 4975,
      "瞦": 4976,
      "瞧": 4977,
      "瞨": 4978,
      "瞩": 4979,
      "瞪": 4980,
      "瞬": 4981,
      "瞭": 4982,
      "瞯": 4983,
      "瞰": 4984,
      "瞳": 4985,
      "瞴": 4986,
      "瞶": 4987,
      "瞷": 4988,
      "瞺": 4989,
      "瞻": 4990,
      "瞼": 4991,
      "矇": 4992,
      "矓": 4993,
      "矗": 4994,
      "矚": 4995,
      "矛": 4996,
      "矜": 4997,
      "矢": 4998,
      "矣": 4999,
      "知": 5000,
      "矩": 5001,
      "矪": 5002,
      "矫": 5003,
      "短": 5004,
      "矮": 5005,
      "矯": 5006,
      "石": 5007,
      "矶": 5008,
      "矹": 5009,
      "矽": 5010,
      "矾": 5011,
      "矿": 5012,
      "码": 5013,
      "砂": 5014,
      "砃": 5015,
      "砆": 5016,
      "砈": 5017,
      "砉": 5018,
      "砊": 5019,
      "砋": 5020,
      "砌": 5021,
      "砍": 5022,
      "砏": 5023,
      "砐": 5024,
      "砑": 5025,
      "砒": 5026,
      "砓": 5027,
      "研": 5028,
      "砕": 5029,
      "砖": 5030,
      "砘": 5031,
      "砛": 5032,
      "砝": 5033,
      "砞": 5034,
      "砣": 5035,
      "砥": 5036,
      "砦": 5037,
      "砧": 5038,
      "砩": 5039,
      "砪": 5040,
      "砫": 5041,
      "砭": 5042,
      "砯": 5043,
      "砰": 5044,
      "砱": 5045,
      "砲": 5046,
      "破": 5047,
      "砷": 5048,
      "砸": 5049,
      "砺": 5050,
      "砾": 5051,
      "础": 5052,
      "硁": 5053,
      "硂": 5054,
      "硃": 5055,
      "硄": 5056,
      "硅": 5057,
      "硈": 5058,
      "硉": 5059,
      "硋": 5060,
      "硌": 5061,
      "硐": 5062,
      "硑": 5063,
      "硒": 5064,
      "硓": 5065,
      "硔": 5066,
      "硕": 5067,
      "硖": 5068,
      "硙": 5069,
      "硚": 5070,
      "硝": 5071,
      "硪": 5072,
      "硫": 5073,
      "硬": 5074,
      "确": 5075,
      "硷": 5076,
      "硼": 5077,
      "碈": 5078,
      "碉": 5079,
      "碊": 5080,
      "碌": 5081,
      "碍": 5082,
      "碎": 5083,
      "碑": 5084,
      "碓": 5085,
      "碔": 5086,
      "碕": 5087,
      "碗": 5088,
      "碘": 5089,
      "碙": 5090,
      "碜": 5091,
      "碝": 5092,
      "碞": 5093,
      "碟": 5094,
      "碧": 5095,
      "碩": 5096,
      "碪": 5097,
      "碭": 5098,
      "碰": 5099,
      "碱": 5100,
      "碲": 5101,
      "碳": 5102,
      "碴": 5103,
      "確": 5104,
      "碼": 5105,
      "碾": 5106,
      "碿": 5107,
      "磀": 5108,
      "磁": 5109,
      "磅": 5110,
      "磊": 5111,
      "磋": 5112,
      "磐": 5113,
      "磑": 5114,
      "磕": 5115,
      "磖": 5116,
      "磚": 5117,
      "磝": 5118,
      "磞": 5119,
      "磨": 5120,
      "磯": 5121,
      "磷": 5122,
      "磺": 5123,
      "礁": 5124,
      "礎": 5125,
      "礙": 5126,
      "礚": 5127,
      "礛": 5128,
      "礟": 5129,
      "礢": 5130,
      "礦": 5131,
      "礨": 5132,
      "礩": 5133,
      "礴": 5134,
      "礶": 5135,
      "礷": 5136,
      "礹": 5137,
      "示": 5138,
      "礼": 5139,
      "社": 5140,
      "礿": 5141,
      "祀": 5142,
      "祁": 5143,
      "祂": 5144,
      "祅": 5145,
      "祇": 5146,
      "祈": 5147,
      "祉": 5148,
      "祍": 5149,
      "祏": 5150,
      "祐": 5151,
      "祑": 5152,
      "祔": 5153,
      "祕": 5154,
      "祖": 5155,
      "祗": 5156,
      "祘": 5157,
      "祙": 5158,
      "祛": 5159,
      "祜": 5160,
      "祝": 5161,
      "神": 5162,
      "祟": 5163,
      "祠": 5164,
      "祢": 5165,
      "祥": 5166,
      "祧": 5167,
      "票": 5168,
      "祩": 5169,
      "祭": 5170,
      "祷": 5171,
      "祸": 5172,
      "祺": 5173,
      "祿": 5174,
      "禀": 5175,
      "禁": 5176,
      "禄": 5177,
      "禅": 5178,
      "禍": 5179,
      "福": 5180,
      "禔": 5181,
      "禗": 5182,
      "禘": 5183,
      "禜": 5184,
      "禟": 5185,
      "禣": 5186,
      "禥": 5187,
      "禦": 5188,
      "禧": 5189,
      "禪": 5190,
      "禫": 5191,
      "禬": 5192,
      "禭": 5193,
      "禮": 5194,
      "禯": 5195,
      "禰": 5196,
      "禱": 5197,
      "禲": 5198,
      "禴": 5199,
      "禸": 5200,
      "禺": 5201,
      "离": 5202,
      "禼": 5203,
      "禽": 5204,
      "禾": 5205,
      "禿": 5206,
      "秀": 5207,
      "私": 5208,
      "秂": 5209,
      "秃": 5210,
      "秅": 5211,
      "秆": 5212,
      "秈": 5213,
      "秉": 5214,
      "秋": 5215,
      "种": 5216,
      "秎": 5217,
      "秏": 5218,
      "科": 5219,
      "秒": 5220,
      "秖": 5221,
      "秘": 5222,
      "秝": 5223,
      "租": 5224,
      "秤": 5225,
      "秦": 5226,
      "秧": 5227,
      "秨": 5228,
      "秩": 5229,
      "秪": 5230,
      "积": 5231,
      "称": 5232,
      "秶": 5233,
      "秸": 5234,
      "移": 5235,
      "秽": 5236,
      "稀": 5237,
      "稂": 5238,
      "稅": 5239,
      "程": 5240,
      "稍": 5241,
      "税": 5242,
      "稔": 5243,
      "稗": 5244,
      "稚": 5245,
      "稟": 5246,
      "稠": 5247,
      "稣": 5248,
      "稦": 5249,
      "稬": 5250,
      "種": 5251,
      "稰": 5252,
      "稱": 5253,
      "稲": 5254,
      "稳": 5255,
      "稴": 5256,
      "稵": 5257,
      "稶": 5258,
      "稷": 5259,
      "稺": 5260,
      "稻": 5261,
      "稼": 5262,
      "稽": 5263,
      "稿": 5264,
      "穀": 5265,
      "穆": 5266,
      "穌": 5267,
      "積": 5268,
      "穎": 5269,
      "穐": 5270,
      "穑": 5271,
      "穒": 5272,
      "穓": 5273,
      "穕": 5274,
      "穖": 5275,
      "穗": 5276,
      "穘": 5277,
      "穚": 5278,
      "穛": 5279,
      "穝": 5280,
      "穢": 5281,
      "穦": 5282,
      "穨": 5283,
      "穩": 5284,
      "穫": 5285,
      "穱": 5286,
      "穴": 5287,
      "究": 5288,
      "穷": 5289,
      "穹": 5290,
      "空": 5291,
      "穻": 5292,
      "穿": 5293,
      "突": 5294,
      "窃": 5295,
      "窄": 5296,
      "窈": 5297,
      "窍": 5298,
      "窑": 5299,
      "窒": 5300,
      "窕": 5301,
      "窖": 5302,
      "窗": 5303,
      "窘": 5304,
      "窜": 5305,
      "窝": 5306,
      "窟": 5307,
      "窠": 5308,
      "窥": 5309,
      "窦": 5310,
      "窩": 5311,
      "窪": 5312,
      "窮": 5313,
      "窯": 5314,
      "窰": 5315,
      "窱": 5316,
      "窵": 5317,
      "窸": 5318,
      "窺": 5319,
      "窽": 5320,
      "窾": 5321,
      "窿": 5322,
      "竄": 5323,
      "竅": 5324,
      "竇": 5325,
      "竊": 5326,
      "立": 5327,
      "竒": 5328,
      "竕": 5329,
      "竖": 5330,
      "站": 5331,
      "竚": 5332,
      "竛": 5333,
      "竜": 5334,
      "竝": 5335,
      "竞": 5336,
      "竟": 5337,
      "章": 5338,
      "竡": 5339,
      "竣": 5340,
      "竤": 5341,
      "童": 5342,
      "竧": 5343,
      "竨": 5344,
      "竬": 5345,
      "竭": 5346,
      "竮": 5347,
      "端": 5348,
      "竲": 5349,
      "竳": 5350,
      "競": 5351,
      "竹": 5352,
      "竺": 5353,
      "竽": 5354,
      "竿": 5355,
      "笃": 5356,
      "笆": 5357,
      "笈": 5358,
      "笋": 5359,
      "笑": 5360,
      "笔": 5361,
      "笘": 5362,
      "笙": 5363,
      "笛": 5364,
      "笞": 5365,
      "笠": 5366,
      "笢": 5367,
      "笥": 5368,
      "符": 5369,
      "笨": 5370,
      "第": 5371,
      "笭": 5372,
      "笰": 5373,
      "笱": 5374,
      "笲": 5375,
      "笳": 5376,
      "笴": 5377,
      "笵": 5378,
      "笷": 5379,
      "笹": 5380,
      "笺": 5381,
      "笻": 5382,
      "笼": 5383,
      "笿": 5384,
      "筁": 5385,
      "筂": 5386,
      "筆": 5387,
      "等": 5388,
      "筋": 5389,
      "筍": 5390,
      "筎": 5391,
      "筏": 5392,
      "筐": 5393,
      "筑": 5394,
      "筒": 5395,
      "答": 5396,
      "策": 5397,
      "筛": 5398,
      "筝": 5399,
      "筠": 5400,
      "筧": 5401,
      "筱": 5402,
      "筳": 5403,
      "筴": 5404,
      "筵": 5405,
      "筷": 5406,
      "筹": 5407,
      "筽": 5408,
      "签": 5409,
      "筿": 5410,
      "简": 5411,
      "箂": 5412,
      "箄": 5413,
      "箇": 5414,
      "箉": 5415,
      "箍": 5416,
      "箎": 5417,
      "箔": 5418,
      "算": 5419,
      "箝": 5420,
      "管": 5421,
      "箩": 5422,
      "箫": 5423,
      "箬": 5424,
      "箭": 5425,
      "箱": 5426,
      "箴": 5427,
      "節": 5428,
      "範": 5429,
      "篇": 5430,
      "篈": 5431,
      "築": 5432,
      "篊": 5433,
      "篋": 5434,
      "篏": 5435,
      "篑": 5436,
      "篓": 5437,
      "篗": 5438,
      "篙": 5439,
      "篝": 5440,
      "篟": 5441,
      "篡": 5442,
      "篤": 5443,
      "篦": 5444,
      "篪": 5445,
      "篫": 5446,
      "篮": 5447,
      "篱": 5448,
      "篴": 5449,
      "篶": 5450,
      "篷": 5451,
      "篽": 5452,
      "篾": 5453,
      "簀": 5454,
      "簆": 5455,
      "簇": 5456,
      "簈": 5457,
      "簍": 5458,
      "簎": 5459,
      "簑": 5460,
      "簒": 5461,
      "簘": 5462,
      "簙": 5463,
      "簡": 5464,
      "簧": 5465,
      "簫": 5466,
      "簸": 5467,
      "簽": 5468,
      "簾": 5469,
      "簿": 5470,
      "籁": 5471,
      "籃": 5472,
      "籄": 5473,
      "籇": 5474,
      "籈": 5475,
      "籊": 5476,
      "籌": 5477,
      "籍": 5478,
      "籏": 5479,
      "籐": 5480,
      "籓": 5481,
      "籔": 5482,
      "籖": 5483,
      "籘": 5484,
      "籜": 5485,
      "籟": 5486,
      "籠": 5487,
      "籤": 5488,
      "籥": 5489,
      "籩": 5490,
      "籬": 5491,
      "籮": 5492,
      "籯": 5493,
      "籲": 5494,
      "米": 5495,
      "籴": 5496,
      "籹": 5497,
      "类": 5498,
      "籽": 5499,
      "粁": 5500,
      "粂": 5501,
      "粃": 5502,
      "粄": 5503,
      "粆": 5504,
      "粇": 5505,
      "粉": 5506,
      "粑": 5507,
      "粒": 5508,
      "粖": 5509,
      "粗": 5510,
      "粘": 5511,
      "粟": 5512,
      "粤": 5513,
      "粥": 5514,
      "粪": 5515,
      "粮": 5516,
      "粱": 5517,
      "粹": 5518,
      "粽": 5519,
      "精": 5520,
      "粿": 5521,
      "糃": 5522,
      "糅": 5523,
      "糉": 5524,
      "糊": 5525,
      "糋": 5526,
      "糎": 5527,
      "糐": 5528,
      "糑": 5529,
      "糒": 5530,
      "糓": 5531,
      "糔": 5532,
      "糕": 5533,
      "糖": 5534,
      "糗": 5535,
      "糙": 5536,
      "糛": 5537,
      "糞": 5538,
      "糟": 5539,
      "糠": 5540,
      "糤": 5541,
      "糧": 5542,
      "糯": 5543,
      "糴": 5544,
      "糵": 5545,
      "糶": 5546,
      "糷": 5547,
      "糸": 5548,
      "系": 5549,
      "糽": 5550,
      "糾": 5551,
      "紀": 5552,
      "紁": 5553,
      "約": 5554,
      "紅": 5555,
      "紆": 5556,
      "紇": 5557,
      "紈": 5558,
      "紊": 5559,
      "紋": 5560,
      "紌": 5561,
      "納": 5562,
      "紏": 5563,
      "紐": 5564,
      "純": 5565,
      "紗": 5566,
      "紙": 5567,
      "級": 5568,
      "紛": 5569,
      "素": 5570,
      "紡": 5571,
      "索": 5572,
      "紧": 5573,
      "紫": 5574,
      "紮": 5575,
      "累": 5576,
      "細": 5577,
      "紲": 5578,
      "紳": 5579,
      "紹": 5580,
      "紽": 5581,
      "紿": 5582,
      "終": 5583,
      "絃": 5584,
      "組": 5585,
      "絆": 5586,
      "絉": 5587,
      "絊": 5588,
      "絋": 5589,
      "絏": 5590,
      "結": 5591,
      "絒": 5592,
      "絕": 5593,
      "絘": 5594,
      "絙": 5595,
      "絚": 5596,
      "絛": 5597,
      "絞": 5598,
      "絡": 5599,
      "絤": 5600,
      "給": 5601,
      "絨": 5602,
      "絩": 5603,
      "絪": 5604,
      "絫": 5605,
      "絬": 5606,
      "絮": 5607,
      "絰": 5608,
      "統": 5609,
      "絲": 5610,
      "絴": 5611,
      "絶": 5612,
      "絿": 5613,
      "綁": 5614,
      "綑": 5615,
      "經": 5616,
      "続": 5617,
      "綜": 5618,
      "綝": 5619,
      "綟": 5620,
      "綠": 5621,
      "綢": 5622,
      "綣": 5623,
      "綤": 5624,
      "綪": 5625,
      "維": 5626,
      "綮": 5627,
      "綰": 5628,
      "綱": 5629,
      "網": 5630,
      "綴": 5631,
      "綵": 5632,
      "綸": 5633,
      "綺": 5634,
      "綻": 5635,
      "綼": 5636,
      "綽": 5637,
      "綾": 5638,
      "綿": 5639,
      "緄": 5640,
      "緅": 5641,
      "緇": 5642,
      "緊": 5643,
      "緋": 5644,
      "緍": 5645,
      "緑": 5646,
      "緒": 5647,
      "緓": 5648,
      "緘": 5649,
      "緙": 5650,
      "線": 5651,
      "緝": 5652,
      "緞": 5653,
      "締": 5654,
      "緣": 5655,
      "編": 5656,
      "緩": 5657,
      "緬": 5658,
      "練": 5659,
      "緸": 5660,
      "緻": 5661,
      "緼": 5662,
      "緽": 5663,
      "縀": 5664,
      "縇": 5665,
      "縈": 5666,
      "縉": 5667,
      "縊": 5668,
      "縋": 5669,
      "縎": 5670,
      "縐": 5671,
      "縒": 5672,
      "縛": 5673,
      "縡": 5674,
      "縣": 5675,
      "縤": 5676,
      "縩": 5677,
      "縫": 5678,
      "縬": 5679,
      "縮": 5680,
      "縱": 5681,
      "縷": 5682,
      "縸": 5683,
      "總": 5684,
      "績": 5685,
      "繁": 5686,
      "繃": 5687,
      "繆": 5688,
      "織": 5689,
      "繕": 5690,
      "繚": 5691,
      "繞": 5692,
      "繡": 5693,
      "繥": 5694,
      "繦": 5695,
      "繧": 5696,
      "繨": 5697,
      "繩": 5698,
      "繪": 5699,
      "繫": 5700,
      "繭": 5701,
      "繰": 5702,
      "繳": 5703,
      "繵": 5704,
      "繷": 5705,
      "繹": 5706,
      "繺": 5707,
      "繻": 5708,
      "繼": 5709,
      "繽": 5710,
      "繿": 5711,
      "纂": 5712,
      "纄": 5713,
      "纉": 5714,
      "纊": 5715,
      "續": 5716,
      "纏": 5717,
      "纐": 5718,
      "纒": 5719,
      "纓": 5720,
      "纔": 5721,
      "纕": 5722,
      "纖": 5723,
      "纗": 5724,
      "纘": 5725,
      "纜": 5726,
      "纞": 5727,
      "纠": 5728,
      "红": 5729,
      "纣": 5730,
      "纤": 5731,
      "约": 5732,
      "级": 5733,
      "纨": 5734,
      "纪": 5735,
      "纫": 5736,
      "纬": 5737,
      "纭": 5738,
      "纯": 5739,
      "纰": 5740,
      "纱": 5741,
      "纲": 5742,
      "纳": 5743,
      "纵": 5744,
      "纶": 5745,
      "纷": 5746,
      "纸": 5747,
      "纹": 5748,
      "纺": 5749,
      "纽": 5750,
      "纾": 5751,
      "线": 5752,
      "练": 5753,
      "组": 5754,
      "绅": 5755,
      "细": 5756,
      "织": 5757,
      "终": 5758,
      "绉": 5759,
      "绊": 5760,
      "绌": 5761,
      "绍": 5762,
      "绎": 5763,
      "经": 5764,
      "绑": 5765,
      "绒": 5766,
      "结": 5767,
      "绔": 5768,
      "绕": 5769,
      "绘": 5770,
      "给": 5771,
      "绚": 5772,
      "绛": 5773,
      "络": 5774,
      "绝": 5775,
      "绞": 5776,
      "统": 5777,
      "绢": 5778,
      "绣": 5779,
      "绥": 5780,
      "绦": 5781,
      "继": 5782,
      "绩": 5783,
      "绪": 5784,
      "续": 5785,
      "绮": 5786,
      "绯": 5787,
      "绰": 5788,
      "绳": 5789,
      "维": 5790,
      "绵": 5791,
      "绶": 5792,
      "绷": 5793,
      "绸": 5794,
      "综": 5795,
      "绽": 5796,
      "绿": 5797,
      "缀": 5798,
      "缄": 5799,
      "缅": 5800,
      "缆": 5801,
      "缇": 5802,
      "缈": 5803,
      "缉": 5804,
      "缎": 5805,
      "缒": 5806,
      "缓": 5807,
      "缔": 5808,
      "缕": 5809,
      "编": 5810,
      "缘": 5811,
      "缙": 5812,
      "缚": 5813,
      "缛": 5814,
      "缜": 5815,
      "缝": 5816,
      "缠": 5817,
      "缡": 5818,
      "缢": 5819,
      "缤": 5820,
      "缥": 5821,
      "缨": 5822,
      "缩": 5823,
      "缪": 5824,
      "缫": 5825,
      "缬": 5826,
      "缭": 5827,
      "缮": 5828,
      "缯": 5829,
      "缰": 5830,
      "缴": 5831,
      "缶": 5832,
      "缷": 5833,
      "缸": 5834,
      "缺": 5835,
      "缽": 5836,
      "罂": 5837,
      "罄": 5838,
      "罌": 5839,
      "罎": 5840,
      "罐": 5841,
      "网": 5842,
      "罔": 5843,
      "罕": 5844,
      "罖": 5845,
      "罗": 5846,
      "罙": 5847,
      "罚": 5848,
      "罠": 5849,
      "罢": 5850,
      "罩": 5851,
      "罪": 5852,
      "置": 5853,
      "罰": 5854,
      "署": 5855,
      "罵": 5856,
      "罷": 5857,
      "罹": 5858,
      "罺": 5859,
      "罽": 5860,
      "羁": 5861,
      "羅": 5862,
      "羆": 5863,
      "羇": 5864,
      "羈": 5865,
      "羊": 5866,
      "羌": 5867,
      "美": 5868,
      "羔": 5869,
      "羘": 5870,
      "羙": 5871,
      "羚": 5872,
      "羛": 5873,
      "羞": 5874,
      "羟": 5875,
      "羡": 5876,
      "羣": 5877,
      "群": 5878,
      "羦": 5879,
      "羨": 5880,
      "義": 5881,
      "羪": 5882,
      "羬": 5883,
      "羭": 5884,
      "羯": 5885,
      "羰": 5886,
      "羲": 5887,
      "羶": 5888,
      "羸": 5889,
      "羹": 5890,
      "羽": 5891,
      "翁": 5892,
      "翅": 5893,
      "翊": 5894,
      "翌": 5895,
      "翎": 5896,
      "習": 5897,
      "翔": 5898,
      "翘": 5899,
      "翠": 5900,
      "翡": 5901,
      "翦": 5902,
      "翧": 5903,
      "翩": 5904,
      "翰": 5905,
      "翱": 5906,
      "翳": 5907,
      "翴": 5908,
      "翹": 5909,
      "翺": 5910,
      "翻": 5911,
      "翼": 5912,
      "耀": 5913,
      "老": 5914,
      "考": 5915,
      "耄": 5916,
      "者": 5917,
      "耆": 5918,
      "耋": 5919,
      "而": 5920,
      "耍": 5921,
      "耐": 5922,
      "耑": 5923,
      "耕": 5924,
      "耗": 5925,
      "耘": 5926,
      "耙": 5927,
      "耚": 5928,
      "耞": 5929,
      "耡": 5930,
      "耤": 5931,
      "耦": 5932,
      "耫": 5933,
      "耭": 5934,
      "耳": 5935,
      "耴": 5936,
      "耶": 5937,
      "耷": 5938,
      "耸": 5939,
      "耻": 5940,
      "耽": 5941,
      "耿": 5942,
      "聂": 5943,
      "聆": 5944,
      "聊": 5945,
      "聋": 5946,
      "职": 5947,
      "聐": 5948,
      "聒": 5949,
      "联": 5950,
      "聕": 5951,
      "聖": 5952,
      "聘": 5953,
      "聚": 5954,
      "聞": 5955,
      "聩": 5956,
      "聪": 5957,
      "聯": 5958,
      "聰": 5959,
      "聲": 5960,
      "聳": 5961,
      "聶": 5962,
      "職": 5963,
      "聼": 5964,
      "聽": 5965,
      "聾": 5966,
      "肃": 5967,
      "肄": 5968,
      "肅": 5969,
      "肆": 5970,
      "肇": 5971,
      "肈": 5972,
      "肉": 5973,
      "肋": 5974,
      "肌": 5975,
      "肏": 5976,
      "肓": 5977,
      "肖": 5978,
      "肘": 5979,
      "肚": 5980,
      "肛": 5981,
      "肝": 5982,
      "肞": 5983,
      "肠": 5984,
      "股": 5985,
      "肢": 5986,
      "肤": 5987,
      "肥": 5988,
      "肩": 5989,
      "肪": 5990,
      "肫": 5991,
      "肮": 5992,
      "肯": 5993,
      "肱": 5994,
      "育": 5995,
      "肴": 5996,
      "肺": 5997,
      "肽": 5998,
      "肾": 5999,
      "肿": 6000,
      "胀": 6001,
      "胁": 6002,
      "胃": 6003,
      "胄": 6004,
      "胆": 6005,
      "胊": 6006,
      "背": 6007,
      "胎": 6008,
      "胐": 6009,
      "胑": 6010,
      "胔": 6011,
      "胕": 6012,
      "胖": 6013,
      "胚": 6014,
      "胛": 6015,
      "胜": 6016,
      "胞": 6017,
      "胠": 6018,
      "胡": 6019,
      "胥": 6020,
      "胧": 6021,
      "胫": 6022,
      "胭": 6023,
      "胯": 6024,
      "胰": 6025,
      "胱": 6026,
      "胳": 6027,
      "胴": 6028,
      "胶": 6029,
      "胸": 6030,
      "胺": 6031,
      "胻": 6032,
      "能": 6033,
      "脂": 6034,
      "脄": 6035,
      "脅": 6036,
      "脆": 6037,
      "脈": 6038,
      "脉": 6039,
      "脊": 6040,
      "脋": 6041,
      "脏": 6042,
      "脐": 6043,
      "脑": 6044,
      "脓": 6045,
      "脔": 6046,
      "脖": 6047,
      "脚": 6048,
      "脛": 6049,
      "脫": 6050,
      "脯": 6051,
      "脱": 6052,
      "脸": 6053,
      "脹": 6054,
      "脾": 6055,
      "腀": 6056,
      "腃": 6057,
      "腆": 6058,
      "腇": 6059,
      "腈": 6060,
      "腉": 6061,
      "腊": 6062,
      "腋": 6063,
      "腌": 6064,
      "腎": 6065,
      "腐": 6066,
      "腑": 6067,
      "腓": 6068,
      "腔": 6069,
      "腕": 6070,
      "腞": 6071,
      "腢": 6072,
      "腥": 6073,
      "腦": 6074,
      "腨": 6075,
      "腩": 6076,
      "腪": 6077,
      "腫": 6078,
      "腭": 6079,
      "腮": 6080,
      "腯": 6081,
      "腰": 6082,
      "腱": 6083,
      "腳": 6084,
      "腴": 6085,
      "腶": 6086,
      "腸": 6087,
      "腹": 6088,
      "腺": 6089,
      "腻": 6090,
      "腼": 6091,
      "腾": 6092,
      "腿": 6093,
      "膀": 6094,
      "膅": 6095,
      "膈": 6096,
      "膊": 6097,
      "膎": 6098,
      "膏": 6099,
      "膐": 6100,
      "膑": 6101,
      "膒": 6102,
      "膘": 6103,
      "膚": 6104,
      "膛": 6105,
      "膜": 6106,
      "膝": 6107,
      "膞": 6108,
      "膠": 6109,
      "膥": 6110,
      "膨": 6111,
      "膩": 6112,
      "膳": 6113,
      "膺": 6114,
      "膽": 6115,
      "膿": 6116,
      "臀": 6117,
      "臂": 6118,
      "臃": 6119,
      "臆": 6120,
      "臈": 6121,
      "臉": 6122,
      "臊": 6123,
      "臍": 6124,
      "臔": 6125,
      "臘": 6126,
      "臚": 6127,
      "臛": 6128,
      "臟": 6129,
      "臣": 6130,
      "臥": 6131,
      "臦": 6132,
      "臨": 6133,
      "臩": 6134,
      "自": 6135,
      "臫": 6136,
      "臭": 6137,
      "臮": 6138,
      "臱": 6139,
      "至": 6140,
      "致": 6141,
      "臷": 6142,
      "臸": 6143,
      "臺": 6144,
      "臻": 6145,
      "臼": 6146,
      "臽": 6147,
      "舀": 6148,
      "舂": 6149,
      "舅": 6150,
      "舆": 6151,
      "與": 6152,
      "興": 6153,
      "舉": 6154,
      "舊": 6155,
      "舌": 6156,
      "舍": 6157,
      "舐": 6158,
      "舒": 6159,
      "舔": 6160,
      "舖": 6161,
      "舗": 6162,
      "舘": 6163,
      "舛": 6164,
      "舜": 6165,
      "舞": 6166,
      "舟": 6167,
      "舠": 6168,
      "舦": 6169,
      "舧": 6170,
      "舩": 6171,
      "航": 6172,
      "舫": 6173,
      "般": 6174,
      "舮": 6175,
      "舰": 6176,
      "舱": 6177,
      "舵": 6178,
      "舶": 6179,
      "舷": 6180,
      "船": 6181,
      "舺": 6182,
      "艇": 6183,
      "艉": 6184,
      "艋": 6185,
      "艘": 6186,
      "艙": 6187,
      "艦": 6188,
      "艮": 6189,
      "良": 6190,
      "艰": 6191,
      "艱": 6192,
      "色": 6193,
      "艳": 6194,
      "艶": 6195,
      "艷": 6196,
      "艹": 6197,
      "艺": 6198,
      "艼": 6199,
      "艾": 6200,
      "节": 6201,
      "芅": 6202,
      "芉": 6203,
      "芋": 6204,
      "芍": 6205,
      "芒": 6206,
      "芔": 6207,
      "芖": 6208,
      "芙": 6209,
      "芚": 6210,
      "芛": 6211,
      "芜": 6212,
      "芝": 6213,
      "芠": 6214,
      "芥": 6215,
      "芦": 6216,
      "芬": 6217,
      "芭": 6218,
      "芮": 6219,
      "芯": 6220,
      "花": 6221,
      "芲": 6222,
      "芳": 6223,
      "芴": 6224,
      "芶": 6225,
      "芷": 6226,
      "芸": 6227,
      "芹": 6228,
      "芽": 6229,
      "芾": 6230,
      "苀": 6231,
      "苂": 6232,
      "苇": 6233,
      "苍": 6234,
      "苏": 6235,
      "苑": 6236,
      "苒": 6237,
      "苓": 6238,
      "苔": 6239,
      "苗": 6240,
      "苘": 6241,
      "苛": 6242,
      "苜": 6243,
      "苝": 6244,
      "苞": 6245,
      "苟": 6246,
      "苣": 6247,
      "苤": 6248,
      "若": 6249,
      "苦": 6250,
      "苯": 6251,
      "英": 6252,
      "苳": 6253,
      "苷": 6254,
      "苹": 6255,
      "茁": 6256,
      "茂": 6257,
      "范": 6258,
      "茄": 6259,
      "茅": 6260,
      "茉": 6261,
      "茍": 6262,
      "茎": 6263,
      "茗": 6264,
      "茛": 6265,
      "茜": 6266,
      "茞": 6267,
      "茧": 6268,
      "茨": 6269,
      "茫": 6270,
      "茬": 6271,
      "茱": 6272,
      "茲": 6273,
      "茴": 6274,
      "茵": 6275,
      "茶": 6276,
      "茸": 6277,
      "茹": 6278,
      "荀": 6279,
      "荃": 6280,
      "荆": 6281,
      "草": 6282,
      "荎": 6283,
      "荏": 6284,
      "荐": 6285,
      "荒": 6286,
      "荔": 6287,
      "荘": 6288,
      "荚": 6289,
      "荜": 6290,
      "荟": 6291,
      "荡": 6292,
      "荣": 6293,
      "荤": 6294,
      "荧": 6295,
      "荨": 6296,
      "荪": 6297,
      "荫": 6298,
      "药": 6299,
      "荷": 6300,
      "荻": 6301,
      "荼": 6302,
      "荽": 6303,
      "莅": 6304,
      "莆": 6305,
      "莉": 6306,
      "莊": 6307,
      "莎": 6308,
      "莓": 6309,
      "莖": 6310,
      "莞": 6311,
      "莠": 6312,
      "莢": 6313,
      "莪": 6314,
      "莫": 6315,
      "莰": 6316,
      "莱": 6317,
      "莲": 6318,
      "获": 6319,
      "莹": 6320,
      "莺": 6321,
      "莽": 6322,
      "菁": 6323,
      "菅": 6324,
      "菇": 6325,
      "菈": 6326,
      "菊": 6327,
      "菌": 6328,
      "菏": 6329,
      "菜": 6330,
      "菝": 6331,
      "菠": 6332,
      "菩": 6333,
      "華": 6334,
      "菱": 6335,
      "菲": 6336,
      "菴": 6337,
      "菸": 6338,
      "萃": 6339,
      "萄": 6340,
      "萇": 6341,
      "萊": 6342,
      "萌": 6343,
      "萍": 6344,
      "萎": 6345,
      "萘": 6346,
      "萜": 6347,
      "萝": 6348,
      "萤": 6349,
      "营": 6350,
      "萦": 6351,
      "萧": 6352,
      "萨": 6353,
      "萩": 6354,
      "萬": 6355,
      "萱": 6356,
      "萵": 6357,
      "萸": 6358,
      "萺": 6359,
      "萼": 6360,
      "落": 6361,
      "葆": 6362,
      "葉": 6363,
      "著": 6364,
      "葚": 6365,
      "葛": 6366,
      "葡": 6367,
      "董": 6368,
      "葩": 6369,
      "葫": 6370,
      "葬": 6371,
      "葭": 6372,
      "葱": 6373,
      "葳": 6374,
      "葵": 6375,
      "葷": 6376,
      "葺": 6377,
      "蒂": 6378,
      "蒋": 6379,
      "蒐": 6380,
      "蒔": 6381,
      "蒙": 6382,
      "蒜": 6383,
      "蒞": 6384,
      "蒠": 6385,
      "蒲": 6386,
      "蒳": 6387,
      "蒸": 6388,
      "蒼": 6389,
      "蒿": 6390,
      "蓄": 6391,
      "蓉": 6392,
      "蓋": 6393,
      "蓓": 6394,
      "蓖": 6395,
      "蓝": 6396,
      "蓟": 6397,
      "蓦": 6398,
      "蓬": 6399,
      "蓮": 6400,
      "蓿": 6401,
      "蔑": 6402,
      "蔓": 6403,
      "蔔": 6404,
      "蔗": 6405,
      "蔚": 6406,
      "蔡": 6407,
      "蔣": 6408,
      "蔥": 6409,
      "蔫": 6410,
      "蔬": 6411,
      "蔭": 6412,
      "蔷": 6413,
      "蔻": 6414,
      "蔼": 6415,
      "蔽": 6416,
      "蕁": 6417,
      "蕃": 6418,
      "蕈": 6419,
      "蕉": 6420,
      "蕊": 6421,
      "蕓": 6422,
      "蕙": 6423,
      "蕞": 6424,
      "蕨": 6425,
      "蕩": 6426,
      "蕪": 6427,
      "蕭": 6428,
      "蕴": 6429,
      "蕾": 6430,
      "薃": 6431,
      "薄": 6432,
      "薇": 6433,
      "薊": 6434,
      "薏": 6435,
      "薑": 6436,
      "薙": 6437,
      "薛": 6438,
      "薜": 6439,
      "薦": 6440,
      "薩": 6441,
      "薪": 6442,
      "薮": 6443,
      "薯": 6444,
      "薰": 6445,
      "藉": 6446,
      "藍": 6447,
      "藏": 6448,
      "藐": 6449,
      "藓": 6450,
      "藕": 6451,
      "藜": 6452,
      "藝": 6453,
      "藤": 6454,
      "藥": 6455,
      "藩": 6456,
      "藷": 6457,
      "藻": 6458,
      "藿": 6459,
      "蘃": 6460,
      "蘇": 6461,
      "蘊": 6462,
      "蘋": 6463,
      "蘑": 6464,
      "蘭": 6465,
      "蘸": 6466,
      "蘼": 6467,
      "蘿": 6468,
      "虎": 6469,
      "虏": 6470,
      "虐": 6471,
      "虑": 6472,
      "虔": 6473,
      "處": 6474,
      "虚": 6475,
      "虛": 6476,
      "虜": 6477,
      "虞": 6478,
      "號": 6479,
      "虧": 6480,
      "虫": 6481,
      "虱": 6482,
      "虷": 6483,
      "虹": 6484,
      "虼": 6485,
      "虽": 6486,
      "虾": 6487,
      "蚀": 6488,
      "蚁": 6489,
      "蚂": 6490,
      "蚊": 6491,
      "蚋": 6492,
      "蚌": 6493,
      "蚓": 6494,
      "蚔": 6495,
      "蚕": 6496,
      "蚗": 6497,
      "蚚": 6498,
      "蚜": 6499,
      "蚝": 6500,
      "蚣": 6501,
      "蚤": 6502,
      "蚩": 6503,
      "蚪": 6504,
      "蚬": 6505,
      "蚯": 6506,
      "蚱": 6507,
      "蚳": 6508,
      "蚾": 6509,
      "蛀": 6510,
      "蛁": 6511,
      "蛂": 6512,
      "蛆": 6513,
      "蛇": 6514,
      "蛊": 6515,
      "蛋": 6516,
      "蛎": 6517,
      "蛐": 6518,
      "蛔": 6519,
      "蛙": 6520,
      "蛛": 6521,
      "蛞": 6522,
      "蛟": 6523,
      "蛤": 6524,
      "蛭": 6525,
      "蛮": 6526,
      "蛰": 6527,
      "蛸": 6528,
      "蛹": 6529,
      "蛾": 6530,
      "蜀": 6531,
      "蜂": 6532,
      "蜃": 6533,
      "蜆": 6534,
      "蜇": 6535,
      "蜈": 6536,
      "蜊": 6537,
      "蜍": 6538,
      "蜒": 6539,
      "蜓": 6540,
      "蜕": 6541,
      "蜗": 6542,
      "蜘": 6543,
      "蜚": 6544,
      "蜜": 6545,
      "蜡": 6546,
      "蜢": 6547,
      "蜥": 6548,
      "蜧": 6549,
      "蜩": 6550,
      "蜱": 6551,
      "蜴": 6552,
      "蜷": 6553,
      "蜻": 6554,
      "蜿": 6555,
      "蝇": 6556,
      "蝉": 6557,
      "蝌": 6558,
      "蝎": 6559,
      "蝓": 6560,
      "蝕": 6561,
      "蝗": 6562,
      "蝙": 6563,
      "蝚": 6564,
      "蝟": 6565,
      "蝠": 6566,
      "蝦": 6567,
      "蝨": 6568,
      "蝬": 6569,
      "蝮": 6570,
      "蝰": 6571,
      "蝴": 6572,
      "蝶": 6573,
      "蝸": 6574,
      "蝽": 6575,
      "蝾": 6576,
      "螁": 6577,
      "螂": 6578,
      "螃": 6579,
      "螆": 6580,
      "螇": 6581,
      "螈": 6582,
      "螉": 6583,
      "螌": 6584,
      "融": 6585,
      "螒": 6586,
      "螔": 6587,
      "螕": 6588,
      "螖": 6589,
      "螘": 6590,
      "螚": 6591,
      "螛": 6592,
      "螝": 6593,
      "螞": 6594,
      "螟": 6595,
      "螠": 6596,
      "螡": 6597,
      "螢": 6598,
      "螣": 6599,
      "螤": 6600,
      "螨": 6601,
      "螯": 6602,
      "螳": 6603,
      "螺": 6604,
      "蟀": 6605,
      "蟄": 6606,
      "蟆": 6607,
      "蟈": 6608,
      "蟋": 6609,
      "蟑": 6610,
      "蟒": 6611,
      "蟠": 6612,
      "蟥": 6613,
      "蟬": 6614,
      "蟲": 6615,
      "蟹": 6616,
      "蟺": 6617,
      "蟻": 6618,
      "蟼": 6619,
      "蟽": 6620,
      "蟾": 6621,
      "蟿": 6622,
      "蠀": 6623,
      "蠁": 6624,
      "蠂": 6625,
      "蠄": 6626,
      "蠅": 6627,
      "蠈": 6628,
      "蠉": 6629,
      "蠋": 6630,
      "蠍": 6631,
      "蠑": 6632,
      "蠔": 6633,
      "蠕": 6634,
      "蠖": 6635,
      "蠟": 6636,
      "蠢": 6637,
      "蠱": 6638,
      "蠹": 6639,
      "蠻": 6640,
      "血": 6641,
      "衄": 6642,
      "衅": 6643,
      "衆": 6644,
      "行": 6645,
      "衍": 6646,
      "術": 6647,
      "衔": 6648,
      "街": 6649,
      "衙": 6650,
      "衛": 6651,
      "衝": 6652,
      "衡": 6653,
      "衣": 6654,
      "补": 6655,
      "表": 6656,
      "衩": 6657,
      "衪": 6658,
      "衫": 6659,
      "衬": 6660,
      "衭": 6661,
      "衰": 6662,
      "衲": 6663,
      "衷": 6664,
      "衹": 6665,
      "衾": 6666,
      "袁": 6667,
      "袂": 6668,
      "袄": 6669,
      "袉": 6670,
      "袋": 6671,
      "袍": 6672,
      "袒": 6673,
      "袖": 6674,
      "袛": 6675,
      "袜": 6676,
      "袤": 6677,
      "袧": 6678,
      "袨": 6679,
      "被": 6680,
      "袭": 6681,
      "袱": 6682,
      "裁": 6683,
      "裂": 6684,
      "装": 6685,
      "裆": 6686,
      "裋": 6687,
      "裎": 6688,
      "裏": 6689,
      "裔": 6690,
      "裕": 6691,
      "裘": 6692,
      "裙": 6693,
      "補": 6694,
      "裝": 6695,
      "裡": 6696,
      "裤": 6697,
      "裨": 6698,
      "裱": 6699,
      "裳": 6700,
      "裴": 6701,
      "裸": 6702,
      "裹": 6703,
      "製": 6704,
      "褂": 6705,
      "複": 6706,
      "褊": 6707,
      "褐": 6708,
      "褒": 6709,
      "褓": 6710,
      "褛": 6711,
      "褥": 6712,
      "褪": 6713,
      "褫": 6714,
      "褲": 6715,
      "褶": 6716,
      "褻": 6717,
      "襁": 6718,
      "襄": 6719,
      "襞": 6720,
      "襟": 6721,
      "襢": 6722,
      "襪": 6723,
      "襯": 6724,
      "襲": 6725,
      "西": 6726,
      "要": 6727,
      "覂": 6728,
      "覃": 6729,
      "覆": 6730,
      "見": 6731,
      "規": 6732,
      "覓": 6733,
      "視": 6734,
      "覜": 6735,
      "親": 6736,
      "覲": 6737,
      "覷": 6738,
      "覺": 6739,
      "覽": 6740,
      "觀": 6741,
      "见": 6742,
      "观": 6743,
      "规": 6744,
      "觅": 6745,
      "视": 6746,
      "览": 6747,
      "觉": 6748,
      "觊": 6749,
      "觎": 6750,
      "觐": 6751,
      "觑": 6752,
      "角": 6753,
      "觝": 6754,
      "觞": 6755,
      "觟": 6756,
      "解": 6757,
      "触": 6758,
      "觸": 6759,
      "言": 6760,
      "訂": 6761,
      "訃": 6762,
      "訇": 6763,
      "計": 6764,
      "訊": 6765,
      "討": 6766,
      "訓": 6767,
      "訕": 6768,
      "託": 6769,
      "記": 6770,
      "訛": 6771,
      "訝": 6772,
      "訟": 6773,
      "訢": 6774,
      "訣": 6775,
      "訧": 6776,
      "訪": 6777,
      "設": 6778,
      "許": 6779,
      "訴": 6780,
      "診": 6781,
      "註": 6782,
      "証": 6783,
      "訾": 6784,
      "詆": 6785,
      "詐": 6786,
      "評": 6787,
      "詛": 6788,
      "詞": 6789,
      "詠": 6790,
      "詢": 6791,
      "試": 6792,
      "詩": 6793,
      "詪": 6794,
      "詫": 6795,
      "詭": 6796,
      "話": 6797,
      "該": 6798,
      "詳": 6799,
      "詹": 6800,
      "誇": 6801,
      "誉": 6802,
      "誊": 6803,
      "誌": 6804,
      "認": 6805,
      "誑": 6806,
      "誒": 6807,
      "誓": 6808,
      "誕": 6809,
      "誘": 6810,
      "語": 6811,
      "誠": 6812,
      "誡": 6813,
      "誣": 6814,
      "誤": 6815,
      "誦": 6816,
      "誨": 6817,
      "說": 6818,
      "説": 6819,
      "誰": 6820,
      "課": 6821,
      "誹": 6822,
      "誼": 6823,
      "調": 6824,
      "諀": 6825,
      "談": 6826,
      "諉": 6827,
      "請": 6828,
      "諒": 6829,
      "論": 6830,
      "諜": 6831,
      "諢": 6832,
      "諦": 6833,
      "諧": 6834,
      "諫": 6835,
      "諭": 6836,
      "諮": 6837,
      "諱": 6838,
      "諷": 6839,
      "諸": 6840,
      "諾": 6841,
      "謀": 6842,
      "謂": 6843,
      "謊": 6844,
      "謎": 6845,
      "謐": 6846,
      "謗": 6847,
      "謙": 6848,
      "講": 6849,
      "謝": 6850,
      "謠": 6851,
      "謬": 6852,
      "謹": 6853,
      "謽": 6854,
      "謾": 6855,
      "證": 6856,
      "識": 6857,
      "譚": 6858,
      "譜": 6859,
      "譟": 6860,
      "譡": 6861,
      "警": 6862,
      "譫": 6863,
      "譬": 6864,
      "譯": 6865,
      "議": 6866,
      "譴": 6867,
      "護": 6868,
      "譻": 6869,
      "譽": 6870,
      "讀": 6871,
      "讃": 6872,
      "變": 6873,
      "讓": 6874,
      "讕": 6875,
      "讚": 6876,
      "计": 6877,
      "订": 6878,
      "讣": 6879,
      "认": 6880,
      "讥": 6881,
      "讦": 6882,
      "讧": 6883,
      "讨": 6884,
      "让": 6885,
      "讪": 6886,
      "讫": 6887,
      "讬": 6888,
      "训": 6889,
      "议": 6890,
      "讯": 6891,
      "记": 6892,
      "讲": 6893,
      "讳": 6894,
      "讴": 6895,
      "讶": 6896,
      "讷": 6897,
      "许": 6898,
      "讹": 6899,
      "论": 6900,
      "讼": 6901,
      "讽": 6902,
      "设": 6903,
      "访": 6904,
      "诀": 6905,
      "证": 6906,
      "诂": 6907,
      "诃": 6908,
      "评": 6909,
      "诅": 6910,
      "识": 6911,
      "诈": 6912,
      "诉": 6913,
      "诊": 6914,
      "诋": 6915,
      "诌": 6916,
      "词": 6917,
      "诏": 6918,
      "译": 6919,
      "诓": 6920,
      "试": 6921,
      "诖": 6922,
      "诗": 6923,
      "诘": 6924,
      "诙": 6925,
      "诚": 6926,
      "诛": 6927,
      "话": 6928,
      "诞": 6929,
      "诟": 6930,
      "诠": 6931,
      "诡": 6932,
      "询": 6933,
      "诣": 6934,
      "该": 6935,
      "详": 6936,
      "诧": 6937,
      "诨": 6938,
      "诩": 6939,
      "诫": 6940,
      "诬": 6941,
      "语": 6942,
      "误": 6943,
      "诱": 6944,
      "诲": 6945,
      "说": 6946,
      "诵": 6947,
      "诶": 6948,
      "请": 6949,
      "诸": 6950,
      "诹": 6951,
      "诺": 6952,
      "读": 6953,
      "诽": 6954,
      "课": 6955,
      "诿": 6956,
      "谀": 6957,
      "谁": 6958,
      "谂": 6959,
      "调": 6960,
      "谄": 6961,
      "谅": 6962,
      "谆": 6963,
      "谈": 6964,
      "谊": 6965,
      "谋": 6966,
      "谌": 6967,
      "谍": 6968,
      "谎": 6969,
      "谏": 6970,
      "谐": 6971,
      "谑": 6972,
      "谓": 6973,
      "谔": 6974,
      "谕": 6975,
      "谗": 6976,
      "谘": 6977,
      "谙": 6978,
      "谚": 6979,
      "谛": 6980,
      "谜": 6981,
      "谟": 6982,
      "谢": 6983,
      "谣": 6984,
      "谤": 6985,
      "谦": 6986,
      "谧": 6987,
      "谨": 6988,
      "谩": 6989,
      "谬": 6990,
      "谭": 6991,
      "谰": 6992,
      "谱": 6993,
      "谲": 6994,
      "谴": 6995,
      "谶": 6996,
      "谷": 6997,
      "豁": 6998,
      "豆": 6999,
      "豈": 7000,
      "豉": 7001,
      "豌": 7002,
      "豎": 7003,
      "豐": 7004,
      "豖": 7005,
      "豚": 7006,
      "象": 7007,
      "豢": 7008,
      "豪": 7009,
      "豫": 7010,
      "豬": 7011,
      "豸": 7012,
      "豹": 7013,
      "豺": 7014,
      "貂": 7015,
      "貉": 7016,
      "貌": 7017,
      "貍": 7018,
      "貓": 7019,
      "貘": 7020,
      "貝": 7021,
      "貞": 7022,
      "負": 7023,
      "財": 7024,
      "貢": 7025,
      "貧": 7026,
      "貨": 7027,
      "販": 7028,
      "貪": 7029,
      "貫": 7030,
      "責": 7031,
      "貯": 7032,
      "貴": 7033,
      "貶": 7034,
      "買": 7035,
      "貸": 7036,
      "費": 7037,
      "貼": 7038,
      "貿": 7039,
      "賀": 7040,
      "賂": 7041,
      "賄": 7042,
      "資": 7043,
      "賈": 7044,
      "賊": 7045,
      "賑": 7046,
      "賓": 7047,
      "賜": 7048,
      "賞": 7049,
      "賠": 7050,
      "賡": 7051,
      "賢": 7052,
      "賣": 7053,
      "賤": 7054,
      "賦": 7055,
      "質": 7056,
      "賬": 7057,
      "賭": 7058,
      "賴": 7059,
      "賵": 7060,
      "賸": 7061,
      "賺": 7062,
      "購": 7063,
      "賽": 7064,
      "贅": 7065,
      "贈": 7066,
      "贊": 7067,
      "贍": 7068,
      "贏": 7069,
      "贓": 7070,
      "贖": 7071,
      "贗": 7072,
      "贝": 7073,
      "贞": 7074,
      "负": 7075,
      "贡": 7076,
      "财": 7077,
      "责": 7078,
      "贤": 7079,
      "败": 7080,
      "账": 7081,
      "货": 7082,
      "质": 7083,
      "贩": 7084,
      "贪": 7085,
      "贫": 7086,
      "贬": 7087,
      "购": 7088,
      "贮": 7089,
      "贯": 7090,
      "贰": 7091,
      "贱": 7092,
      "贲": 7093,
      "贴": 7094,
      "贵": 7095,
      "贷": 7096,
      "贸": 7097,
      "费": 7098,
      "贺": 7099,
      "贻": 7100,
      "贼": 7101,
      "贾": 7102,
      "贿": 7103,
      "赀": 7104,
      "赁": 7105,
      "赂": 7106,
      "赃": 7107,
      "资": 7108,
      "赅": 7109,
      "赈": 7110,
      "赊": 7111,
      "赋": 7112,
      "赌": 7113,
      "赎": 7114,
      "赏": 7115,
      "赐": 7116,
      "赔": 7117,
      "赖": 7118,
      "赘": 7119,
      "赚": 7120,
      "赛": 7121,
      "赝": 7122,
      "赞": 7123,
      "赠": 7124,
      "赡": 7125,
      "赢": 7126,
      "赣": 7127,
      "赤": 7128,
      "赦": 7129,
      "赫": 7130,
      "走": 7131,
      "赳": 7132,
      "赴": 7133,
      "赵": 7134,
      "赶": 7135,
      "起": 7136,
      "赻": 7137,
      "赽": 7138,
      "趁": 7139,
      "趄": 7140,
      "超": 7141,
      "越": 7142,
      "趋": 7143,
      "趔": 7144,
      "趕": 7145,
      "趙": 7146,
      "趟": 7147,
      "趣": 7148,
      "趨": 7149,
      "足": 7150,
      "趴": 7151,
      "趸": 7152,
      "趼": 7153,
      "趾": 7154,
      "跃": 7155,
      "跄": 7156,
      "跆": 7157,
      "跋": 7158,
      "跌": 7159,
      "跎": 7160,
      "跑": 7161,
      "跖": 7162,
      "跘": 7163,
      "跚": 7164,
      "跛": 7165,
      "距": 7166,
      "跟": 7167,
      "跡": 7168,
      "跤": 7169,
      "跨": 7170,
      "跩": 7171,
      "跪": 7172,
      "跬": 7173,
      "路": 7174,
      "跳": 7175,
      "践": 7176,
      "跶": 7177,
      "跷": 7178,
      "跺": 7179,
      "跻": 7180,
      "踉": 7181,
      "踊": 7182,
      "踌": 7183,
      "踏": 7184,
      "踐": 7185,
      "踝": 7186,
      "踞": 7187,
      "踟": 7188,
      "踡": 7189,
      "踢": 7190,
      "踩": 7191,
      "踪": 7192,
      "踫": 7193,
      "踮": 7194,
      "踯": 7195,
      "踰": 7196,
      "踱": 7197,
      "踵": 7198,
      "踹": 7199,
      "蹂": 7200,
      "蹄": 7201,
      "蹈": 7202,
      "蹉": 7203,
      "蹊": 7204,
      "蹋": 7205,
      "蹑": 7206,
      "蹒": 7207,
      "蹓": 7208,
      "蹙": 7209,
      "蹚": 7210,
      "蹟": 7211,
      "蹤": 7212,
      "蹦": 7213,
      "蹩": 7214,
      "蹬": 7215,
      "蹭": 7216,
      "蹰": 7217,
      "蹲": 7218,
      "蹴": 7219,
      "蹶": 7220,
      "蹺": 7221,
      "蹼": 7222,
      "蹿": 7223,
      "躁": 7224,
      "躅": 7225,
      "躇": 7226,
      "躉": 7227,
      "躍": 7228,
      "躏": 7229,
      "躓": 7230,
      "躪": 7231,
      "身": 7232,
      "躬": 7233,
      "躯": 7234,
      "躲": 7235,
      "躺": 7236,
      "軀": 7237,
      "車": 7238,
      "軋": 7239,
      "軌": 7240,
      "軍": 7241,
      "軒": 7242,
      "軗": 7243,
      "軟": 7244,
      "軸": 7245,
      "較": 7246,
      "載": 7247,
      "輔": 7248,
      "輕": 7249,
      "輛": 7250,
      "輝": 7251,
      "輟": 7252,
      "輩": 7253,
      "輪": 7254,
      "輯": 7255,
      "輸": 7256,
      "輻": 7257,
      "輾": 7258,
      "輿": 7259,
      "轄": 7260,
      "轉": 7261,
      "轍": 7262,
      "轎": 7263,
      "轟": 7264,
      "车": 7265,
      "轧": 7266,
      "轨": 7267,
      "轩": 7268,
      "轫": 7269,
      "转": 7270,
      "轭": 7271,
      "轮": 7272,
      "软": 7273,
      "轰": 7274,
      "轱": 7275,
      "轲": 7276,
      "轴": 7277,
      "轶": 7278,
      "轻": 7279,
      "载": 7280,
      "轾": 7281,
      "轿": 7282,
      "较": 7283,
      "辄": 7284,
      "辅": 7285,
      "辆": 7286,
      "辇": 7287,
      "辈": 7288,
      "辉": 7289,
      "辊": 7290,
      "辋": 7291,
      "辍": 7292,
      "辐": 7293,
      "辑": 7294,
      "输": 7295,
      "辕": 7296,
      "辖": 7297,
      "辗": 7298,
      "辘": 7299,
      "辙": 7300,
      "辛": 7301,
      "辜": 7302,
      "辞": 7303,
      "辟": 7304,
      "辣": 7305,
      "辦": 7306,
      "辨": 7307,
      "辩": 7308,
      "辫": 7309,
      "辭": 7310,
      "辮": 7311,
      "辯": 7312,
      "辰": 7313,
      "辱": 7314,
      "農": 7315,
      "边": 7316,
      "辽": 7317,
      "达": 7318,
      "迁": 7319,
      "迂": 7320,
      "迄": 7321,
      "迅": 7322,
      "过": 7323,
      "迈": 7324,
      "迎": 7325,
      "运": 7326,
      "近": 7327,
      "返": 7328,
      "迖": 7329,
      "还": 7330,
      "这": 7331,
      "进": 7332,
      "远": 7333,
      "违": 7334,
      "连": 7335,
      "迟": 7336,
      "迡": 7337,
      "迢": 7338,
      "迥": 7339,
      "迦": 7340,
      "迨": 7341,
      "迪": 7342,
      "迫": 7343,
      "迭": 7344,
      "述": 7345,
      "迳": 7346,
      "迴": 7347,
      "迷": 7348,
      "迸": 7349,
      "迹": 7350,
      "迺": 7351,
      "追": 7352,
      "退": 7353,
      "送": 7354,
      "适": 7355,
      "逃": 7356,
      "逄": 7357,
      "逅": 7358,
      "逆": 7359,
      "选": 7360,
      "逊": 7361,
      "逋": 7362,
      "逌": 7363,
      "逍": 7364,
      "透": 7365,
      "逐": 7366,
      "递": 7367,
      "途": 7368,
      "逗": 7369,
      "這": 7370,
      "通": 7371,
      "逛": 7372,
      "逝": 7373,
      "逞": 7374,
      "速": 7375,
      "造": 7376,
      "逡": 7377,
      "逢": 7378,
      "連": 7379,
      "逮": 7380,
      "週": 7381,
      "進": 7382,
      "逸": 7383,
      "逻": 7384,
      "逼": 7385,
      "逾": 7386,
      "遁": 7387,
      "遂": 7388,
      "遇": 7389,
      "遊": 7390,
      "運": 7391,
      "遍": 7392,
      "過": 7393,
      "遏": 7394,
      "遐": 7395,
      "遑": 7396,
      "遒": 7397,
      "道": 7398,
      "達": 7399,
      "違": 7400,
      "遗": 7401,
      "遙": 7402,
      "遛": 7403,
      "遜": 7404,
      "遞": 7405,
      "遠": 7406,
      "遢": 7407,
      "遣": 7408,
      "遥": 7409,
      "遨": 7410,
      "適": 7411,
      "遭": 7412,
      "遮": 7413,
      "遲": 7414,
      "遴": 7415,
      "遵": 7416,
      "遷": 7417,
      "選": 7418,
      "遺": 7419,
      "遼": 7420,
      "遽": 7421,
      "避": 7422,
      "邀": 7423,
      "邁": 7424,
      "邂": 7425,
      "邃": 7426,
      "還": 7427,
      "邈": 7428,
      "邊": 7429,
      "邋": 7430,
      "邏": 7431,
      "邑": 7432,
      "邓": 7433,
      "邝": 7434,
      "邟": 7435,
      "邢": 7436,
      "那": 7437,
      "邦": 7438,
      "邨": 7439,
      "邪": 7440,
      "邮": 7441,
      "邱": 7442,
      "邵": 7443,
      "邸": 7444,
      "邹": 7445,
      "邻": 7446,
      "邾": 7447,
      "郁": 7448,
      "郅": 7449,
      "郊": 7450,
      "郎": 7451,
      "郑": 7452,
      "郔": 7453,
      "郝": 7454,
      "郞": 7455,
      "郡": 7456,
      "部": 7457,
      "郪": 7458,
      "郭": 7459,
      "郴": 7460,
      "郵": 7461,
      "郸": 7462,
      "都": 7463,
      "鄂": 7464,
      "鄉": 7465,
      "鄔": 7466,
      "鄙": 7467,
      "鄢": 7468,
      "鄧": 7469,
      "鄭": 7470,
      "鄰": 7471,
      "酉": 7472,
      "酊": 7473,
      "酋": 7474,
      "酌": 7475,
      "配": 7476,
      "酐": 7477,
      "酒": 7478,
      "酕": 7479,
      "酖": 7480,
      "酗": 7481,
      "酚": 7482,
      "酝": 7483,
      "酣": 7484,
      "酥": 7485,
      "酩": 7486,
      "酪": 7487,
      "酬": 7488,
      "酮": 7489,
      "酯": 7490,
      "酰": 7491,
      "酱": 7492,
      "酵": 7493,
      "酶": 7494,
      "酷": 7495,
      "酸": 7496,
      "酿": 7497,
      "醃": 7498,
      "醇": 7499,
      "醉": 7500,
      "醋": 7501,
      "醍": 7502,
      "醐": 7503,
      "醒": 7504,
      "醚": 7505,
      "醛": 7506,
      "醜": 7507,
      "醫": 7508,
      "醬": 7509,
      "醮": 7510,
      "醯": 7511,
      "醱": 7512,
      "醴": 7513,
      "醺": 7514,
      "釀": 7515,
      "釁": 7516,
      "釆": 7517,
      "采": 7518,
      "釉": 7519,
      "释": 7520,
      "釋": 7521,
      "里": 7522,
      "重": 7523,
      "野": 7524,
      "量": 7525,
      "釐": 7526,
      "金": 7527,
      "釘": 7528,
      "釜": 7529,
      "針": 7530,
      "釣": 7531,
      "釦": 7532,
      "釬": 7533,
      "釭": 7534,
      "釱": 7535,
      "釵": 7536,
      "鈍": 7537,
      "鈔": 7538,
      "鈕": 7539,
      "鈣": 7540,
      "鈦": 7541,
      "鈴": 7542,
      "鈾": 7543,
      "鉅": 7544,
      "鉑": 7545,
      "鉖": 7546,
      "鉗": 7547,
      "鉛": 7548,
      "鉜": 7549,
      "鉤": 7550,
      "鉴": 7551,
      "鉶": 7552,
      "銀": 7553,
      "銅": 7554,
      "銘": 7555,
      "銜": 7556,
      "銡": 7557,
      "銫": 7558,
      "銬": 7559,
      "銱": 7560,
      "銳": 7561,
      "銶": 7562,
      "銷": 7563,
      "銹": 7564,
      "鋅": 7565,
      "鋒": 7566,
      "鋪": 7567,
      "鋸": 7568,
      "鋻": 7569,
      "鋼": 7570,
      "錄": 7571,
      "錘": 7572,
      "錢": 7573,
      "錦": 7574,
      "錨": 7575,
      "錫": 7576,
      "錯": 7577,
      "錶": 7578,
      "鍊": 7579,
      "鍋": 7580,
      "鍔": 7581,
      "鍛": 7582,
      "鍬": 7583,
      "鍰": 7584,
      "鍵": 7585,
      "鍾": 7586,
      "鎊": 7587,
      "鎔": 7588,
      "鎖": 7589,
      "鎗": 7590,
      "鎘": 7591,
      "鎚": 7592,
      "鎧": 7593,
      "鎮": 7594,
      "鎰": 7595,
      "鎴": 7596,
      "鏈": 7597,
      "鏍": 7598,
      "鏓": 7599,
      "鏖": 7600,
      "鏘": 7601,
      "鏝": 7602,
      "鏟": 7603,
      "鏡": 7604,
      "鏢": 7605,
      "鏽": 7606,
      "鐐": 7607,
      "鐘": 7608,
      "鐮": 7609,
      "鐲": 7610,
      "鐳": 7611,
      "鐵": 7612,
      "鑄": 7613,
      "鑊": 7614,
      "鑒": 7615,
      "鑣": 7616,
      "鑫": 7617,
      "鑰": 7618,
      "鑲": 7619,
      "鑽": 7620,
      "鑿": 7621,
      "针": 7622,
      "钉": 7623,
      "钊": 7624,
      "钋": 7625,
      "钍": 7626,
      "钎": 7627,
      "钐": 7628,
      "钓": 7629,
      "钙": 7630,
      "钚": 7631,
      "钛": 7632,
      "钝": 7633,
      "钞": 7634,
      "钟": 7635,
      "钠": 7636,
      "钡": 7637,
      "钢": 7638,
      "钥": 7639,
      "钦": 7640,
      "钧": 7641,
      "钨": 7642,
      "钩": 7643,
      "钮": 7644,
      "钯": 7645,
      "钱": 7646,
      "钳": 7647,
      "钴": 7648,
      "钵": 7649,
      "钶": 7650,
      "钸": 7651,
      "钹": 7652,
      "钻": 7653,
      "钼": 7654,
      "钽": 7655,
      "钾": 7656,
      "铀": 7657,
      "铁": 7658,
      "铂": 7659,
      "铃": 7660,
      "铅": 7661,
      "铆": 7662,
      "铈": 7663,
      "铉": 7664,
      "铋": 7665,
      "铌": 7666,
      "铍": 7667,
      "铎": 7668,
      "铏": 7669,
      "铐": 7670,
      "铕": 7671,
      "铛": 7672,
      "铜": 7673,
      "铝": 7674,
      "铟": 7675,
      "铠": 7676,
      "铢": 7677,
      "铤": 7678,
      "铪": 7679,
      "铬": 7680,
      "铭": 7681,
      "铮": 7682,
      "铯": 7683,
      "铰": 7684,
      "铱": 7685,
      "铲": 7686,
      "铳": 7687,
      "铵": 7688,
      "银": 7689,
      "铸": 7690,
      "铺": 7691,
      "链": 7692,
      "铿": 7693,
      "销": 7694,
      "锁": 7695,
      "锂": 7696,
      "锃": 7697,
      "锄": 7698,
      "锅": 7699,
      "锆": 7700,
      "锈": 7701,
      "锉": 7702,
      "锋": 7703,
      "锌": 7704,
      "锏": 7705,
      "锐": 7706,
      "锑": 7707,
      "锒": 7708,
      "错": 7709,
      "锚": 7710,
      "锡": 7711,
      "锢": 7712,
      "锣": 7713,
      "锤": 7714,
      "锥": 7715,
      "锦": 7716,
      "锭": 7717,
      "键": 7718,
      "锯": 7719,
      "锰": 7720,
      "锱": 7721,
      "锲": 7722,
      "锵": 7723,
      "锶": 7724,
      "锹": 7725,
      "锺": 7726,
      "锻": 7727,
      "镀": 7728,
      "镁": 7729,
      "镇": 7730,
      "镉": 7731,
      "镊": 7732,
      "镍": 7733,
      "镐": 7734,
      "镑": 7735,
      "镓": 7736,
      "镕": 7737,
      "镖": 7738,
      "镗": 7739,
      "镛": 7740,
      "镜": 7741,
      "镣": 7742,
      "镦": 7743,
      "镬": 7744,
      "镭": 7745,
      "镯": 7746,
      "镰": 7747,
      "镳": 7748,
      "镶": 7749,
      "長": 7750,
      "长": 7751,
      "門": 7752,
      "閃": 7753,
      "閉": 7754,
      "開": 7755,
      "閑": 7756,
      "閒": 7757,
      "間": 7758,
      "閕": 7759,
      "閘": 7760,
      "閟": 7761,
      "閣": 7762,
      "閥": 7763,
      "閨": 7764,
      "閩": 7765,
      "閱": 7766,
      "閿": 7767,
      "闆": 7768,
      "闇": 7769,
      "闊": 7770,
      "闌": 7771,
      "闕": 7772,
      "闖": 7773,
      "關": 7774,
      "闡": 7775,
      "闢": 7776,
      "门": 7777,
      "闩": 7778,
      "闪": 7779,
      "闭": 7780,
      "问": 7781,
      "闯": 7782,
      "闰": 7783,
      "闱": 7784,
      "闲": 7785,
      "间": 7786,
      "闵": 7787,
      "闷": 7788,
      "闸": 7789,
      "闹": 7790,
      "闺": 7791,
      "闻": 7792,
      "闽": 7793,
      "阀": 7794,
      "阁": 7795,
      "阂": 7796,
      "阄": 7797,
      "阅": 7798,
      "阈": 7799,
      "阉": 7800,
      "阎": 7801,
      "阐": 7802,
      "阑": 7803,
      "阔": 7804,
      "阖": 7805,
      "阙": 7806,
      "阜": 7807,
      "阞": 7808,
      "队": 7809,
      "阡": 7810,
      "阨": 7811,
      "阪": 7812,
      "阮": 7813,
      "阰": 7814,
      "阱": 7815,
      "防": 7816,
      "阳": 7817,
      "阴": 7818,
      "阵": 7819,
      "阶": 7820,
      "阻": 7821,
      "阿": 7822,
      "陀": 7823,
      "附": 7824,
      "际": 7825,
      "陆": 7826,
      "陈": 7827,
      "陋": 7828,
      "陌": 7829,
      "降": 7830,
      "陎": 7831,
      "限": 7832,
      "陑": 7833,
      "陓": 7834,
      "陔": 7835,
      "陕": 7836,
      "陛": 7837,
      "陡": 7838,
      "院": 7839,
      "陣": 7840,
      "除": 7841,
      "陨": 7842,
      "险": 7843,
      "陪": 7844,
      "陬": 7845,
      "陰": 7846,
      "陲": 7847,
      "陳": 7848,
      "陵": 7849,
      "陶": 7850,
      "陷": 7851,
      "陸": 7852,
      "陽": 7853,
      "隅": 7854,
      "隆": 7855,
      "隊": 7856,
      "隋": 7857,
      "階": 7858,
      "随": 7859,
      "隐": 7860,
      "隔": 7861,
      "隘": 7862,
      "隙": 7863,
      "際": 7864,
      "障": 7865,
      "隠": 7866,
      "隧": 7867,
      "隨": 7868,
      "險": 7869,
      "隱": 7870,
      "隴": 7871,
      "隶": 7872,
      "隸": 7873,
      "隻": 7874,
      "隼": 7875,
      "隽": 7876,
      "难": 7877,
      "雀": 7878,
      "雁": 7879,
      "雄": 7880,
      "雅": 7881,
      "集": 7882,
      "雇": 7883,
      "雉": 7884,
      "雌": 7885,
      "雍": 7886,
      "雏": 7887,
      "雕": 7888,
      "雖": 7889,
      "雙": 7890,
      "雛": 7891,
      "雜": 7892,
      "雞": 7893,
      "離": 7894,
      "難": 7895,
      "雨": 7896,
      "雪": 7897,
      "雯": 7898,
      "雲": 7899,
      "雳": 7900,
      "零": 7901,
      "雷": 7902,
      "雹": 7903,
      "電": 7904,
      "雾": 7905,
      "需": 7906,
      "霄": 7907,
      "霆": 7908,
      "震": 7909,
      "霉": 7910,
      "霍": 7911,
      "霎": 7912,
      "霏": 7913,
      "霓": 7914,
      "霖": 7915,
      "霜": 7916,
      "霞": 7917,
      "霧": 7918,
      "霫": 7919,
      "霰": 7920,
      "露": 7921,
      "霸": 7922,
      "霹": 7923,
      "霾": 7924,
      "靂": 7925,
      "靈": 7926,
      "青": 7927,
      "靓": 7928,
      "靖": 7929,
      "静": 7930,
      "靚": 7931,
      "靜": 7932,
      "非": 7933,
      "靠": 7934,
      "靡": 7935,
      "面": 7936,
      "革": 7937,
      "靳": 7938,
      "靴": 7939,
      "靶": 7940,
      "靼": 7941,
      "鞋": 7942,
      "鞍": 7943,
      "鞏": 7944,
      "鞑": 7945,
      "鞘": 7946,
      "鞠": 7947,
      "鞣": 7948,
      "鞭": 7949,
      "韁": 7950,
      "韃": 7951,
      "韋": 7952,
      "韌": 7953,
      "韓": 7954,
      "韜": 7955,
      "韦": 7956,
      "韧": 7957,
      "韩": 7958,
      "韭": 7959,
      "音": 7960,
      "韵": 7961,
      "韶": 7962,
      "韻": 7963,
      "響": 7964,
      "頁": 7965,
      "頂": 7966,
      "頃": 7967,
      "項": 7968,
      "順": 7969,
      "須": 7970,
      "頌": 7971,
      "頏": 7972,
      "預": 7973,
      "頑": 7974,
      "頒": 7975,
      "頓": 7976,
      "頗": 7977,
      "領": 7978,
      "頤": 7979,
      "頭": 7980,
      "頰": 7981,
      "頸": 7982,
      "頻": 7983,
      "顆": 7984,
      "題": 7985,
      "額": 7986,
      "顎": 7987,
      "顏": 7988,
      "顔": 7989,
      "願": 7990,
      "顛": 7991,
      "類": 7992,
      "顧": 7993,
      "顫": 7994,
      "顯": 7995,
      "顱": 7996,
      "页": 7997,
      "顶": 7998,
      "顷": 7999,
      "项": 8000,
      "顺": 8001,
      "须": 8002,
      "顽": 8003,
      "顾": 8004,
      "顿": 8005,
      "颁": 8006,
      "颂": 8007,
      "预": 8008,
      "颅": 8009,
      "领": 8010,
      "颇": 8011,
      "颈": 8012,
      "颊": 8013,
      "颌": 8014,
      "颏": 8015,
      "颐": 8016,
      "频": 8017,
      "颓": 8018,
      "颖": 8019,
      "颗": 8020,
      "题": 8021,
      "颚": 8022,
      "颜": 8023,
      "额": 8024,
      "颞": 8025,
      "颠": 8026,
      "颤": 8027,
      "颧": 8028,
      "風": 8029,
      "颶": 8030,
      "颼": 8031,
      "飄": 8032,
      "飆": 8033,
      "风": 8034,
      "飓": 8035,
      "飕": 8036,
      "飘": 8037,
      "飙": 8038,
      "飚": 8039,
      "飛": 8040,
      "飞": 8041,
      "食": 8042,
      "飢": 8043,
      "飧": 8044,
      "飨": 8045,
      "飯": 8046,
      "飲": 8047,
      "飽": 8048,
      "飾": 8049,
      "餃": 8050,
      "餅": 8051,
      "養": 8052,
      "餌": 8053,
      "餐": 8054,
      "餒": 8055,
      "餓": 8056,
      "餘": 8057,
      "餞": 8058,
      "餡": 8059,
      "館": 8060,
      "餮": 8061,
      "餵": 8062,
      "餿": 8063,
      "饉": 8064,
      "饋": 8065,
      "饑": 8066,
      "饒": 8067,
      "饕": 8068,
      "饞": 8069,
      "饥": 8070,
      "饨": 8071,
      "饪": 8072,
      "饭": 8073,
      "饮": 8074,
      "饯": 8075,
      "饰": 8076,
      "饱": 8077,
      "饲": 8078,
      "饵": 8079,
      "饶": 8080,
      "饷": 8081,
      "饺": 8082,
      "饼": 8083,
      "饿": 8084,
      "馀": 8085,
      "馁": 8086,
      "馄": 8087,
      "馅": 8088,
      "馆": 8089,
      "馈": 8090,
      "馊": 8091,
      "馋": 8092,
      "馍": 8093,
      "馏": 8094,
      "馐": 8095,
      "馑": 8096,
      "馒": 8097,
      "首": 8098,
      "香": 8099,
      "馥": 8100,
      "馨": 8101,
      "馬": 8102,
      "馭": 8103,
      "馮": 8104,
      "馱": 8105,
      "馳": 8106,
      "馴": 8107,
      "駁": 8108,
      "駐": 8109,
      "駕": 8110,
      "駛": 8111,
      "駝": 8112,
      "駡": 8113,
      "駭": 8114,
      "駱": 8115,
      "騁": 8116,
      "騎": 8117,
      "騙": 8118,
      "騰": 8119,
      "騷": 8120,
      "騾": 8121,
      "驅": 8122,
      "驕": 8123,
      "驗": 8124,
      "驚": 8125,
      "驟": 8126,
      "驢": 8127,
      "马": 8128,
      "驭": 8129,
      "驮": 8130,
      "驯": 8131,
      "驰": 8132,
      "驱": 8133,
      "驳": 8134,
      "驴": 8135,
      "驶": 8136,
      "驷": 8137,
      "驹": 8138,
      "驻": 8139,
      "驼": 8140,
      "驽": 8141,
      "驾": 8142,
      "驿": 8143,
      "骁": 8144,
      "骂": 8145,
      "骄": 8146,
      "骆": 8147,
      "骇": 8148,
      "骋": 8149,
      "验": 8150,
      "骏": 8151,
      "骑": 8152,
      "骗": 8153,
      "骚": 8154,
      "骛": 8155,
      "骜": 8156,
      "骠": 8157,
      "骡": 8158,
      "骤": 8159,
      "骨": 8160,
      "骯": 8161,
      "骰": 8162,
      "骷": 8163,
      "骸": 8164,
      "骼": 8165,
      "髂": 8166,
      "髅": 8167,
      "髋": 8168,
      "髏": 8169,
      "髒": 8170,
      "髓": 8171,
      "體": 8172,
      "高": 8173,
      "髡": 8174,
      "髦": 8175,
      "髭": 8176,
      "髮": 8177,
      "髻": 8178,
      "鬃": 8179,
      "鬆": 8180,
      "鬍": 8181,
      "鬓": 8182,
      "鬚": 8183,
      "鬣": 8184,
      "鬥": 8185,
      "鬧": 8186,
      "鬨": 8187,
      "鬱": 8188,
      "鬲": 8189,
      "鬼": 8190,
      "鬾": 8191,
      "魁": 8192,
      "魂": 8193,
      "魄": 8194,
      "魅": 8195,
      "魇": 8196,
      "魉": 8197,
      "魏": 8198,
      "魔": 8199,
      "魘": 8200,
      "魚": 8201,
      "魣": 8202,
      "魯": 8203,
      "魷": 8204,
      "鮑": 8205,
      "鮟": 8206,
      "鮨": 8207,
      "鮮": 8208,
      "鯉": 8209,
      "鯊": 8210,
      "鯨": 8211,
      "鯰": 8212,
      "鰥": 8213,
      "鰨": 8214,
      "鰭": 8215,
      "鰹": 8216,
      "鱇": 8217,
      "鱔": 8218,
      "鱷": 8219,
      "鱻": 8220,
      "鱼": 8221,
      "鱿": 8222,
      "鲀": 8223,
      "鲁": 8224,
      "鲈": 8225,
      "鲍": 8226,
      "鲐": 8227,
      "鲑": 8228,
      "鲔": 8229,
      "鲗": 8230,
      "鲛": 8231,
      "鲜": 8232,
      "鲡": 8233,
      "鲢": 8234,
      "鲣": 8235,
      "鲤": 8236,
      "鲥": 8237,
      "鲨": 8238,
      "鲩": 8239,
      "鲫": 8240,
      "鲭": 8241,
      "鲮": 8242,
      "鲱": 8243,
      "鲳": 8244,
      "鲵": 8245,
      "鲶": 8246,
      "鲷": 8247,
      "鲸": 8248,
      "鲹": 8249,
      "鲻": 8250,
      "鲽": 8251,
      "鲾": 8252,
      "鳃": 8253,
      "鳄": 8254,
      "鳅": 8255,
      "鳉": 8256,
      "鳌": 8257,
      "鳍": 8258,
      "鳎": 8259,
      "鳏": 8260,
      "鳐": 8261,
      "鳕": 8262,
      "鳖": 8263,
      "鳗": 8264,
      "鳞": 8265,
      "鳟": 8266,
      "鳥": 8267,
      "鳳": 8268,
      "鳴": 8269,
      "鴃": 8270,
      "鴇": 8271,
      "鴉": 8272,
      "鴒": 8273,
      "鴛": 8274,
      "鴨": 8275,
      "鴻": 8276,
      "鴿": 8277,
      "鵄": 8278,
      "鵑": 8279,
      "鵝": 8280,
      "鵡": 8281,
      "鵪": 8282,
      "鶉": 8283,
      "鶨": 8284,
      "鶪": 8285,
      "鶯": 8286,
      "鶴": 8287,
      "鶺": 8288,
      "鷄": 8289,
      "鷉": 8290,
      "鷗": 8291,
      "鷲": 8292,
      "鷹": 8293,
      "鷺": 8294,
      "鸊": 8295,
      "鸌": 8296,
      "鸚": 8297,
      "鸛": 8298,
      "鸟": 8299,
      "鸠": 8300,
      "鸡": 8301,
      "鸢": 8302,
      "鸣": 8303,
      "鸥": 8304,
      "鸦": 8305,
      "鸨": 8306,
      "鸫": 8307,
      "鸬": 8308,
      "鸭": 8309,
      "鸮": 8310,
      "鸯": 8311,
      "鸳": 8312,
      "鸵": 8313,
      "鸸": 8314,
      "鸽": 8315,
      "鸾": 8316,
      "鸿": 8317,
      "鹃": 8318,
      "鹅": 8319,
      "鹈": 8320,
      "鹉": 8321,
      "鹊": 8322,
      "鹋": 8323,
      "鹌": 8324,
      "鹏": 8325,
      "鹑": 8326,
      "鹓": 8327,
      "鹕": 8328,
      "鹗": 8329,
      "鹜": 8330,
      "鹞": 8331,
      "鹣": 8332,
      "鹤": 8333,
      "鹦": 8334,
      "鹩": 8335,
      "鹪": 8336,
      "鹫": 8337,
      "鹬": 8338,
      "鹰": 8339,
      "鹱": 8340,
      "鹳": 8341,
      "鹵": 8342,
      "鹹": 8343,
      "鹼": 8344,
      "鹽": 8345,
      "鹿": 8346,
      "麂": 8347,
      "麋": 8348,
      "麒": 8349,
      "麓": 8350,
      "麗": 8351,
      "麝": 8352,
      "麟": 8353,
      "麥": 8354,
      "麦": 8355,
      "麩": 8356,
      "麵": 8357,
      "麸": 8358,
      "麻": 8359,
      "麼": 8360,
      "麽": 8361,
      "麾": 8362,
      "黃": 8363,
      "黄": 8364,
      "黍": 8365,
      "黎": 8366,
      "黏": 8367,
      "黑": 8368,
      "黔": 8369,
      "默": 8370,
      "黛": 8371,
      "黜": 8372,
      "黝": 8373,
      "點": 8374,
      "黠": 8375,
      "黢": 8376,
      "黧": 8377,
      "黨": 8378,
      "黩": 8379,
      "黯": 8380,
      "鼎": 8381,
      "鼓": 8382,
      "鼠": 8383,
      "鼬": 8384,
      "鼴": 8385,
      "鼹": 8386,
      "鼻": 8387,
      "鼾": 8388,
      "齁": 8389,
      "齊": 8390,
      "齋": 8391,
      "齐": 8392,
      "齒": 8393,
      "齡": 8394,
      "齣": 8395,
      "齦": 8396,
      "齬": 8397,
      "齿": 8398,
      "龄": 8399,
      "龈": 8400,
      "龊": 8401,
      "龋": 8402,
      "龌": 8403,
      "龍": 8404,
      "龐": 8405,
      "龕": 8406,
      "龙": 8407,
      "龚": 8408,
      "龛": 8409,
      "龜": 8410,
      "龟": 8411,
      "ꌢ": 8412,
      "뇳": 8413,
      "딚": 8414,
      "루": 8415,
      "뱾": 8416,
      "쵽": 8417,
      "펳": 8418,
      "": 8419,
      "": 8420,
      "": 8421,
      "": 8422,
      "": 8423,
      "": 8424,
      "": 8425,
      "": 8426,
      "": 8427,
      "": 8428,
      "": 8429,
      "": 8430,
      "": 8431,
      "": 8432,
      "": 8433,
      "": 8434,
      "": 8435,
      "": 8436,
      "": 8437,
      "": 8438,
      "": 8439,
      "": 8440,
      "": 8441,
      "": 8442,
      "": 8443,
      "": 8444,
      "": 8445,
      "": 8446,
      "": 8447,
      "": 8448,
      "": 8449,
      "": 8450,
      "": 8451,
      "": 8452,
      "": 8453,
      "": 8454,
      "": 8455,
      "": 8456,
      "": 8457,
      "": 8458,
      "": 8459,
      "": 8460,
      "": 8461,
      "": 8462,
      "": 8463,
      "": 8464,
      "": 8465,
      "": 8466,
      "": 8467,
      "": 8468,
      "": 8469,
      "": 8470,
      "": 8471,
      "": 8472,
      "": 8473,
      "": 8474,
      "": 8475,
      "": 8476,
      "": 8477,
      "": 8478,
      "": 8479,
      "": 8480,
      "": 8481,
      "": 8482,
      "": 8483,
      "": 8484,
      "": 8485,
      "": 8486,
      "": 8487,
      "": 8488,
      "": 8489,
      "": 8490,
      "": 8491,
      "": 8492,
      "": 8493,
      "": 8494,
      "": 8495,
      "": 8496,
      "": 8497,
      "": 8498,
      "": 8499,
      "": 8500,
      "": 8501,
      "": 8502,
      "": 8503,
      "": 8504,
      "": 8505,
      "": 8506,
      "": 8507,
      "": 8508,
      "": 8509,
      "": 8510,
      "": 8511,
      "": 8512,
      "": 8513,
      "": 8514,
      "": 8515,
      "": 8516,
      "": 8517,
      "": 8518,
      "": 8519,
      "": 8520,
      "": 8521,
      "": 8522,
      "": 8523,
      "": 8524,
      "": 8525,
      "": 8526,
      "": 8527,
      "": 8528,
      "": 8529,
      "": 8530,
      "": 8531,
      "": 8532,
      "": 8533,
      "": 8534,
      "": 8535,
      "": 8536,
      "": 8537,
      "": 8538,
      "": 8539,
      "": 8540,
      "": 8541,
      "": 8542,
      "": 8543,
      "": 8544,
      "": 8545,
      "": 8546,
      "": 8547,
      "": 8548,
      "": 8549,
      "": 8550,
      "": 8551,
      "": 8552,
      "": 8553,
      "": 8554,
      "": 8555,
      "": 8556,
      "": 8557,
      "": 8558,
      "": 8559,
      "": 8560,
      "": 8561,
      "": 8562,
      "": 8563,
      "": 8564,
      "": 8565,
      "": 8566,
      "": 8567,
      "": 8568,
      "": 8569,
      "": 8570,
      "": 8571,
      "": 8572,
      "": 8573,
      "": 8574,
      "": 8575,
      "": 8576,
      "": 8577,
      "": 8578,
      "": 8579,
      "": 8580,
      "": 8581,
      "": 8582,
      "": 8583,
      "": 8584,
      "": 8585,
      "": 8586,
      "": 8587,
      "": 8588,
      "": 8589,
      "": 8590,
      "": 8591,
      "": 8592,
      "": 8593,
      "": 8594,
      "": 8595,
      "": 8596,
      "": 8597,
      "": 8598,
      "": 8599,
      "": 8600,
      "": 8601,
      "": 8602,
      "": 8603,
      "": 8604,
      "": 8605,
      "": 8606,
      "": 8607,
      "": 8608,
      "": 8609,
      "": 8610,
      "": 8611,
      "": 8612,
      "": 8613,
      "": 8614,
      "": 8615,
      "": 8616,
      "": 8617,
      "": 8618,
      "": 8619,
      "": 8620,
      "": 8621,
      "": 8622,
      "": 8623,
      "": 8624,
      "": 8625,
      "": 8626,
      "": 8627,
      "": 8628,
      "": 8629,
      "": 8630,
      "": 8631,
      "": 8632,
      "": 8633,
      "": 8634,
      "": 8635,
      "": 8636,
      "": 8637,
      "": 8638,
      "": 8639,
      "": 8640,
      "": 8641,
      "": 8642,
      "": 8643,
      "": 8644,
      "": 8645,
      "": 8646,
      "": 8647,
      "": 8648,
      "": 8649,
      "": 8650,
      "": 8651,
      "": 8652,
      "": 8653,
      "": 8654,
      "": 8655,
      "": 8656,
      "": 8657,
      "": 8658,
      "": 8659,
      "": 8660,
      "": 8661,
      "": 8662,
      "": 8663,
      "": 8664,
      "": 8665,
      "": 8666,
      "": 8667,
      "": 8668,
      "": 8669,
      "": 8670,
      "": 8671,
      "": 8672,
      "": 8673,
      "": 8674,
      "": 8675,
      "": 8676,
      "": 8677,
      "": 8678,
      "": 8679,
      "": 8680,
      "": 8681,
      "": 8682,
      "": 8683,
      "": 8684,
      "": 8685,
      "": 8686,
      "": 8687,
      "": 8688,
      "": 8689,
      "": 8690,
      "": 8691,
      "": 8692,
      "": 8693,
      "": 8694,
      "": 8695,
      "": 8696,
      "": 8697,
      "": 8698,
      "": 8699,
      "": 8700,
      "": 8701,
      "": 8702,
      "": 8703,
      "": 8704,
      "": 8705,
      "": 8706,
      "": 8707,
      "": 8708,
      "": 8709,
      "": 8710,
      "": 8711,
      "": 8712,
      "": 8713,
      "": 8714,
      "": 8715,
      "": 8716,
      "": 8717,
      "": 8718,
      "": 8719,
      "": 8720,
      "": 8721,
      "": 8722,
      "": 8723,
      "": 8724,
      "": 8725,
      "": 8726,
      "": 8727,
      "": 8728,
      "": 8729,
      "": 8730,
      "": 8731,
      "": 8732,
      "": 8733,
      "": 8734,
      "": 8735,
      "": 8736,
      "": 8737,
      "": 8738,
      "": 8739,
      "": 8740,
      "": 8741,
      "": 8742,
      "": 8743,
      "": 8744,
      "": 8745,
      "": 8746,
      "": 8747,
      "": 8748,
      "": 8749,
      "": 8750,
      "": 8751,
      "": 8752,
      "": 8753,
      "": 8754,
      "": 8755,
      "": 8756,
      "": 8757,
      "": 8758,
      "": 8759,
      "": 8760,
      "": 8761,
      "": 8762,
      "": 8763,
      "": 8764,
      "": 8765,
      "": 8766,
      "": 8767,
      "": 8768,
      "": 8769,
      "": 8770,
      "": 8771,
      "": 8772,
      "": 8773,
      "": 8774,
      "": 8775,
      "": 8776,
      "": 8777,
      "": 8778,
      "": 8779,
      "": 8780,
      "": 8781,
      "": 8782,
      "": 8783,
      "": 8784,
      "": 8785,
      "": 8786,
      "": 8787,
      "": 8788,
      "": 8789,
      "": 8790,
      "": 8791,
      "": 8792,
      "": 8793,
      "": 8794,
      "": 8795,
      "": 8796,
      "": 8797,
      "": 8798,
      "": 8799,
      "": 8800,
      "": 8801,
      "": 8802,
      "": 8803,
      "": 8804,
      "": 8805,
      "": 8806,
      "": 8807,
      "": 8808,
      "": 8809,
      "": 8810,
      "": 8811,
      "": 8812,
      "": 8813,
      "": 8814,
      "": 8815,
      "": 8816,
      "": 8817,
      "": 8818,
      "": 8819,
      "": 8820,
      "": 8821,
      "": 8822,
      "": 8823,
      "": 8824,
      "": 8825,
      "": 8826,
      "": 8827,
      "": 8828,
      "": 8829,
      "": 8830,
      "": 8831,
      "": 8832,
      "": 8833,
      "": 8834,
      "": 8835,
      "": 8836,
      "": 8837,
      "": 8838,
      "": 8839,
      "": 8840,
      "": 8841,
      "": 8842,
      "": 8843,
      "": 8844,
      "": 8845,
      "": 8846,
      "": 8847,
      "": 8848,
      "": 8849,
      "": 8850,
      "": 8851,
      "": 8852,
      "": 8853,
      "": 8854,
      "": 8855,
      "": 8856,
      "": 8857,
      "": 8858,
      "": 8859,
      "": 8860,
      "": 8861,
      "": 8862,
      "": 8863,
      "": 8864,
      "": 8865,
      "": 8866,
      "": 8867,
      "": 8868,
      "": 8869,
      "": 8870,
      "": 8871,
      "": 8872,
      "": 8873,
      "": 8874,
      "": 8875,
      "": 8876,
      "": 8877,
      "": 8878,
      "": 8879,
      "": 8880,
      "": 8881,
      "": 8882,
      "": 8883,
      "": 8884,
      "": 8885,
      "": 8886,
      "": 8887,
      "": 8888,
      "": 8889,
      "": 8890,
      "": 8891,
      "": 8892,
      "": 8893,
      "": 8894,
      "": 8895,
      "": 8896,
      "": 8897,
      "": 8898,
      "": 8899,
      "": 8900,
      "": 8901,
      "": 8902,
      "": 8903,
      "": 8904,
      "": 8905,
      "": 8906,
      "": 8907,
      "": 8908,
      "": 8909,
      "": 8910,
      "": 8911,
      "": 8912,
      "": 8913,
      "": 8914,
      "": 8915,
      "": 8916,
      "": 8917,
      "": 8918,
      "": 8919,
      "": 8920,
      "": 8921,
      "": 8922,
      "": 8923,
      "": 8924,
      "": 8925,
      "": 8926,
      "": 8927,
      "": 8928,
      "": 8929,
      "": 8930,
      "": 8931,
      "": 8932,
      "": 8933,
      "": 8934,
      "": 8935,
      "": 8936,
      "": 8937,
      "": 8938,
      "": 8939,
      "": 8940,
      "": 8941,
      "": 8942,
      "": 8943,
      "": 8944,
      "": 8945,
      "": 8946,
      "": 8947,
      "": 8948,
      "": 8949,
      "立": 8950,
      "行": 8951,
      "﵃": 8952,
      "﷓": 8953,
      "︰": 8954,
      "︱": 8955,
      "︳": 8956,
      "︶": 8957,
      "︸": 8958,
      "︹": 8959,
      "︺": 8960,
      "︽": 8961,
      "︾": 8962,
      "︿": 8963,
      "﹀": 8964,
      "﹁": 8965,
      "﹄": 8966,
      "﹉": 8967,
      "﹊": 8968,
      "﹋": 8969,
      "﹍": 8970,
      "﹎": 8971,
      "﹐": 8972,
      "﹑": 8973,
      "﹒": 8974,
      "﹔": 8975,
      "﹖": 8976,
      "﹗": 8977,
      "﹙": 8978,
      "﹚": 8979,
      "﹛": 8980,
      "﹜": 8981,
      "﹝": 8982,
      "﹞": 8983,
      "﹟": 8984,
      "﹠": 8985,
      "﹡": 8986,
      "﹣": 8987,
      "ﺀ": 8988,
      "ﺁ": 8989,
      "ﺃ": 8990,
      "ﺄ": 8991,
      "ﺅ": 8992,
      "ﺆ": 8993,
      "ﺇ": 8994,
      "ﺈ": 8995,
      "ﺊ": 8996,
      "ﺋ": 8997,
      "ﺌ": 8998,
      "ﺍ": 8999,
      "ﺎ": 9000,
      "ﺏ": 9001,
      "ﺐ": 9002,
      "ﺑ": 9003,
      "ﺒ": 9004,
      "ﺓ": 9005,
      "ﺔ": 9006,
      "ﺕ": 9007,
      "ﺖ": 9008,
      "ﺗ": 9009,
      "ﺘ": 9010,
      "ﺙ": 9011,
      "ﺚ": 9012,
      "ﺛ": 9013,
      "ﺜ": 9014,
      "ﺝ": 9015,
      "ﺟ": 9016,
      "ﺠ": 9017,
      "ﺡ": 9018,
      "ﺢ": 9019,
      "ﺣ": 9020,
      "ﺤ": 9021,
      "ﺧ": 9022,
      "ﺨ": 9023,
      "ﺩ": 9024,
      "ﺪ": 9025,
      "ﺫ": 9026,
      "ﺬ": 9027,
      "ﺭ": 9028,
      "ﺮ": 9029,
      "ﺯ": 9030,
      "ﺰ": 9031,
      "ﺱ": 9032,
      "ﺲ": 9033,
      "ﺳ": 9034,
      "ﺴ": 9035,
      "ﺶ": 9036,
      "ﺷ": 9037,
      "ﺸ": 9038,
      "ﺹ": 9039,
      "ﺺ": 9040,
      "ﺻ": 9041,
      "ﺼ": 9042,
      "ﺾ": 9043,
      "ﺿ": 9044,
      "ﻀ": 9045,
      "ﻂ": 9046,
      "ﻃ": 9047,
      "ﻄ": 9048,
      "ﻆ": 9049,
      "ﻇ": 9050,
      "ﻈ": 9051,
      "ﻉ": 9052,
      "ﻊ": 9053,
      "ﻋ": 9054,
      "ﻌ": 9055,
      "ﻏ": 9056,
      "ﻐ": 9057,
      "ﻑ": 9058,
      "ﻒ": 9059,
      "ﻓ": 9060,
      "ﻔ": 9061,
      "ﻕ": 9062,
      "ﻖ": 9063,
      "ﻗ": 9064,
      "ﻘ": 9065,
      "ﻙ": 9066,
      "ﻚ": 9067,
      "ﻛ": 9068,
      "ﻜ": 9069,
      "ﻝ": 9070,
      "ﻞ": 9071,
      "ﻟ": 9072,
      "ﻠ": 9073,
      "ﻡ": 9074,
      "ﻢ": 9075,
      "ﻣ": 9076,
      "ﻤ": 9077,
      "ﻥ": 9078,
      "ﻦ": 9079,
      "ﻧ": 9080,
      "ﻨ": 9081,
      "ﻩ": 9082,
      "ﻪ": 9083,
      "ﻫ": 9084,
      "ﻬ": 9085,
      "ﻭ": 9086,
      "ﻮ": 9087,
      "ﻯ": 9088,
      "ﻰ": 9089,
      "ﻱ": 9090,
      "ﻲ": 9091,
      "ﻳ": 9092,
      "ﻴ": 9093,
      "ﻵ": 9094,
      "ﻷ": 9095,
      "ﻹ": 9096,
      "ﻺ": 9097,
      "ﻻ": 9098,
      "ﻼ": 9099,
      "！": 9100,
      "＂": 9101,
      "＃": 9102,
      "＄": 9103,
      "％": 9104,
      "＆": 9105,
      "＇": 9106,
      "（": 9107,
      "）": 9108,
      "＊": 9109,
      "＋": 9110,
      "，": 9111,
      "－": 9112,
      "．": 9113,
      "／": 9114,
      "０": 9115,
      "１": 9116,
      "２": 9117,
      "３": 9118,
      "４": 9119,
      "５": 9120,
      "６": 9121,
      "７": 9122,
      "８": 9123,
      "９": 9124,
      "：": 9125,
      "；": 9126,
      "＜": 9127,
      "＝": 9128,
      "＞": 9129,
      "？": 9130,
      "＠": 9131,
      "Ａ": 9132,
      "Ｂ": 9133,
      "Ｃ": 9134,
      "Ｄ": 9135,
      "Ｅ": 9136,
      "Ｆ": 9137,
      "Ｈ": 9138,
      "Ｉ": 9139,
      "Ｊ": 9140,
      "Ｋ": 9141,
      "Ｍ": 9142,
      "Ｎ": 9143,
      "Ｏ": 9144,
      "Ｒ": 9145,
      "Ｓ": 9146,
      "Ｔ": 9147,
      "Ｙ": 9148,
      "［": 9149,
      "＼": 9150,
      "］": 9151,
      "＾": 9152,
      "＿": 9153,
      "｀": 9154,
      "ａ": 9155,
      "ｂ": 9156,
      "ｄ": 9157,
      "ｅ": 9158,
      "ｆ": 9159,
      "ｏ": 9160,
      "｛": 9161,
      "｝": 9162,
      "～": 9163,
      "｡": 9164,
      "｢": 9165,
      "｣": 9166,
      "､": 9167,
      "･": 9168,
      "￡": 9169,
      "￣": 9170,
      "￭": 9171,
      "￮": 9172,
      "𡃁": 9173,
      "񈡔": 9174,
      "񐨒": 9175,
      "񔲷": 9176,
      "򆁱": 9177,
      "򌭼": 9178,
      "򕟔": 9179,
      "򕟹": 9180,
      "򕟿": 9181,
      "򵥵": 9182,
      "򸼸": 9183,
      "򻡌": 9184,
      "򽩼": 9185,
      "򿪵": 9186,
      "򿪻": 9187,
      "󐡐": 9188,
      "󓚼": 9189,
      "󡣊": 9190,
      "󣬕": 9191,
      "󰦱": 9192,
      "󼯈": 9193,
      "󼯔": 9194,
      "􄿂": 9195,
      "00": 9196,
      "200": 9197,
      "国家": 9198,
      "委员": 9199,
      "会议": 9200,
      "委员会": 9201,
      "我们": 9202,
      "联合": 9203,
      "问题": 9204,
      "国际": 9205,
      "..": 9206,
      "工作": 9207,
      "联合国": 9208,
      "报告": 9209,
      "发展": 9210,
      "组织": 9211,
      "19": 9212,
      "一个": 9213,
      "关于": 9214,
      "政府": 9215,
      "提供": 9216,
      "方面": 9217,
      "以及": 9218,
      "这些": 9219,
      "决议": 9220,
      "社会": 9221,
      "其他": 9222,
      "他们": 9223,
      "行动": 9224,
      "代表": 9225,
      "特别": 9226,
      "情况": 9227,
      "通过": 9228,
      "执行": 9229,
      "安全": 9230,
      "包括": 9231,
      "有关": 9232,
      "机构": 9233,
      "进行": 9234,
      "方案": 9235,
      "秘书": 9236,
      "什么": 9237,
      "...": 9238,
      "没有": 9239,
      "所有": 9240,
      "公约": 9241,
      "人权": 9242,
      "10": 9243,
      "经济": 9244,
      "理事": 9245,
      "12": 9246,
      "妇女": 9247,
      "大会": 9248,
      "理事会": 9249,
      "199": 9250,
      "合作": 9251,
      "活动": 9252,
      "建议": 9253,
      "需要": 9254,
      "项目": 9255,
      "这一": 9256,
      "缔约": 9257,
      "人员": 9258,
      "规定": 9259,
      "决定": 9260,
      "可能": 9261,
      "根据": 9262,
      "和平": 9263,
      "可以": 9264,
      "an": 9265,
      "采取": 9266,
      "区域": 9267,
      "儿童": 9268,
      "提出": 9269,
      "必须": 9270,
      "主义": 9271,
      "er": 9272,
      "on": 9273,
      "in": 9274,
      "知道": 9275,
      "计划": 9276,
      "权利": 9277,
      "措施": 9278,
      "秘书长": 9279,
      "先生": 9280,
      "世界": 9281,
      "法律": 9282,
      "11": 9283,
      "重要": 9284,
      "成员": 9285,
      "号决议": 9286,
      "支持": 9287,
      "技术": 9288,
      "管理": 9289,
      "继续": 9290,
      "认为": 9291,
      "主席": 9292,
      "努力": 9293,
      "不是": 9294,
      "第1": 9295,
      "th": 9296,
      "届会议": 9297,
      "如果": 9298,
      "保护": 9299,
      "要求": 9300,
      "任何": 9301,
      "月2": 9302,
      "提交": 9303,
      "注意": 9304,
      "加强": 9305,
      "基金": 9306,
      "的人": 9307,
      "促进": 9308,
      "草案": 9309,
      "政策": 9310,
      "和国": 9311,
      "行为": 9312,
      "影响": 9313,
      "or": 9314,
      "资源": 9315,
      "我的": 9316,
      "的一": 9317,
      "系统": 9318,
      "缔约国": 9319,
      "共和国": 9320,
      "这个": 9321,
      "ar": 9322,
      "援助": 9323,
      "已经": 9324,
      "目标": 9325,
      "因为": 9326,
      "确保": 9327,
      "en": 9328,
      "文件": 9329,
      "这种": 9330,
      "美元": 9331,
      "at": 9332,
      "武器": 9333,
      "建立": 9334,
      "斯坦": 9335,
      "环境": 9336,
      "服务": 9337,
      "现在": 9338,
      "的报告": 9339,
      "能力": 9340,
      "作为": 9341,
      "审议": 9342,
      "部分": 9343,
      "举行": 9344,
      "各国": 9345,
      "非洲": 9346,
      "信息": 9347,
      "你的": 9348,
      "ou": 9349,
      "20": 9350,
      "教育": 9351,
      "协调": 9352,
      "作出": 9353,
      "月1": 9354,
      "al": 9355,
      "安全理事会": 9356,
      "全球": 9357,
      "政治": 9358,
      "解决": 9359,
      "因此": 9360,
      "审查": 9361,
      "实现": 9362,
      "5年": 9363,
      "考虑": 9364,
      "之间": 9365,
      "发言": 9366,
      "这是": 9367,
      "主要": 9368,
      "部门": 9369,
      "使用": 9370,
      "这样": 9371,
      "第二": 9372,
      "你们": 9373,
      "参与": 9374,
      "人民": 9375,
      "事务": 9376,
      "2001": 9377,
      "一些": 9378,
      "有效": 9379,
      "的工作": 9380,
      "得到": 9381,
      "关系": 9382,
      "研究": 9383,
      "的是": 9384,
      "地区": 9385,
      "讨论": 9386,
      "2002": 9387,
      "战略": 9388,
      "0年": 9389,
      "领域": 9390,
      "小组": 9391,
      "在这": 9392,
      "期间": 9393,
      "议程": 9394,
      "注意到": 9395,
      "第5": 9396,
      "es": 9397,
      "持续": 9398,
      "代表团": 9399,
      "其中": 9400,
      "）。": 9401,
      "特别是": 9402,
      "人的": 9403,
      "作用": 9404,
      "表示": 9405,
      "2004": 9406,
      "但是": 9407,
      "指出": 9408,
      "第2": 9409,
      "恐怖": 9410,
      "方面的": 9411,
      "开展": 9412,
      "预算": 9413,
      "冲突": 9414,
      "就是": 9415,
      "2003": 9416,
      "自己": 9417,
      "增加": 9418,
      "实施": 9419,
      "不能": 9420,
      "贸易": 9421,
      "30": 9422,
      "——": 9423,
      "条约": 9424,
      "程序": 9425,
      "2006": 9426,
      "第一": 9427,
      "7年": 9428,
      "15": 9429,
      "怎么": 9430,
      "必要": 9431,
      "它们": 9432,
      "意见": 9433,
      "获得": 9434,
      "发展中": 9435,
      "法院": 9436,
      "犯罪": 9437,
      "一步": 9438,
      "欧洲": 9439,
      "相关": 9440,
      "is": 9441,
      "强调": 9442,
      "尼亚": 9443,
      "能够": 9444,
      "的问题": 9445,
      "资料": 9446,
      "应该": 9447,
      "取得": 9448,
      "特派": 9449,
      "正在": 9450,
      "支助": 9451,
      "秘书处": 9452,
      "任务": 9453,
      "以便": 9454,
      "处理": 9455,
      "中的": 9456,
      "8年": 9457,
      "的情况": 9458,
      "进程": 9459,
      "而且": 9460,
      "特派团": 9461,
      "原则": 9462,
      "确定": 9463,
      "基础": 9464,
      "参加": 9465,
      "进一步": 9466,
      "美国": 9467,
      "的国家": 9468,
      "发展中国家": 9469,
      "希望": 9470,
      "开始": 9471,
      "问题的": 9472,
      "责任": 9473,
      "办法": 9474,
      "目前": 9475,
      "时间": 9476,
      "及其": 9477,
      "民主": 9478,
      "利亚": 9479,
      "一项": 9480,
      "共同": 9481,
      "调查": 9482,
      "行政": 9483,
      "中心": 9484,
      "9年": 9485,
      "联盟": 9486,
      "和其他": 9487,
      "我不": 9488,
      "发生": 9489,
      "专家": 9490,
      "2005年": 9491,
      "提高": 9492,
      "第三": 9493,
      "充分": 9494,
      "的各": 9495,
      "歧视": 9496,
      "it": 9497,
      "工作组": 9498,
      "巴勒": 9499,
      "机制": 9500,
      "说明": 9501,
      "巴勒斯坦": 9502,
      "方式": 9503,
      "由于": 9504,
      "暴力": 9505,
      "同时": 9506,
      "14": 9507,
      "附件": 9508,
      "伙伴": 9509,
      "13": 9510,
      "培训": 9511,
      "利用": 9512,
      "机会": 9513,
      "许多": 9514,
      "框架": 9515,
      "次会议": 9516,
      "部队": 9517,
      "滋病": 9518,
      "安理": 9519,
      "恐怖主义": 9520,
      "制定": 9521,
      "自由": 9522,
      "the": 9523,
      "以色": 9524,
      "以色列": 9525,
      "艾滋病": 9526,
      "会员": 9527,
      "办事": 9528,
      "标准": 9529,
      "制度": 9530,
      "欢迎": 9531,
      "第五": 9532,
      "家庭": 9533,
      "决议草案": 9534,
      "司法": 9535,
      "re": 9536,
      "文化": 9537,
      "2001年": 9538,
      "全面": 9539,
      "人口": 9540,
      "2002年": 9541,
      "安理会": 9542,
      "办事处": 9543,
      "维持": 9544,
      "会员国": 9545,
      "平等": 9546,
      "为了": 9547,
      "具体": 9548,
      "2000年": 9549,
      "评估": 9550,
      "适当": 9551,
      "范围": 9552,
      "减少": 9553,
      "第3": 9554,
      "新的": 9555,
      "阿拉": 9556,
      "地方": 9557,
      "难民": 9558,
      "协定": 9559,
      "可持续": 9560,
      "议定": 9561,
      "16": 9562,
      "数据": 9563,
      "建设": 9564,
      "最后": 9565,
      "2003年": 9566,
      "用于": 9567,
      "消除": 9568,
      "正式": 9569,
      "承诺": 9570,
      "缔约方": 9571,
      "义务": 9572,
      "按照": 9573,
      "条件": 9574,
      "是否": 9575,
      "高级": 9576,
      "应当": 9577,
      "人道": 9578,
      "生活": 9579,
      "进展": 9580,
      "咨询": 9581,
      "开发": 9582,
      "ion": 9583,
      "严重": 9584,
      "基本": 9585,
      "第4": 9586,
      "议定书": 9587,
      "18": 9588,
      "存在": 9589,
      "他的": 9590,
      "造成": 9591,
      "2004年": 9592,
      "阿拉伯": 9593,
      "as": 9594,
      "工作人员": 9595,
      "2006年": 9596,
      "方法": 9597,
      "公司": 9598,
      "不同": 9599,
      "认识": 9600,
      "鼓励": 9601,
      "el": 9602,
      ")。": 9603,
      "设立": 9604,
      "接受": 9605,
      "领土": 9606,
      "尤其": 9607,
      "成为": 9608,
      "规则": 9609,
      "ic": 9610,
      "负责": 9611,
      "25": 9612,
      "伊斯": 9613,
      "17": 9614,
      "协助": 9615,
      "不会": 9616,
      "结果": 9617,
      "拉克": 9618,
      "对于": 9619,
      "个人": 9620,
      "宣言": 9621,
      "日至": 9622,
      "到了": 9623,
      "此外": 9624,
      "的事": 9625,
      "ed": 9626,
      "国际社会": 9627,
      "资金": 9628,
      "伊斯兰": 9629,
      "那些": 9630,
      "做法": 9631,
      "2007年": 9632,
      "只是": 9633,
      "费用": 9634,
      "时候": 9635,
      "投资": 9636,
      "具有": 9637,
      "ing": 9638,
      "》，": 9639,
      "并且": 9640,
      "如何": 9641,
      "法庭": 9642,
      "to": 9643,
      "非常": 9644,
      "改革": 9645,
      "地位": 9646,
      "形式": 9647,
      "非政府": 9648,
      "伊拉克": 9649,
      "），": 9650,
      "武装": 9651,
      "人道主义": 9652,
      "产生": 9653,
      "安排": 9654,
      "重申": 9655,
      "预防": 9656,
      "之间的": 9657,
      "帮助": 9658,
      "大的": 9659,
      "部长": 9660,
      "比亚": 9661,
      "一种": 9662,
      "好的": 9663,
      "受到": 9664,
      "种族": 9665,
      "监测": 9666,
      "我想": 9667,
      "谈判": 9668,
      "of": 9669,
      "两个": 9670,
      "积极": 9671,
      "各种": 9672,
      "提出的": 9673,
      "之前": 9674,
      "dd": 9675,
      "国家的": 9676,
      "涉及": 9677,
      "一切": 9678,
      "还有": 9679,
      "国内": 9680,
      "第6": 9681,
      "非政府组织": 9682,
      "and": 9683,
      "实际": 9684,
      "告诉": 9685,
      "性别": 9686,
      "12月": 9687,
      "当局": 9688,
      "协商": 9689,
      "国的": 9690,
      "银行": 9691,
      "有关的": 9692,
      "之后": 9693,
      "om": 9694,
      "委员会的": 9695,
      "批准": 9696,
      "il": 9697,
      "公共": 9698,
      "履行": 9699,
      "一般": 9700,
      "一次": 9701,
      "来的": 9702,
      "23": 9703,
      "尽管": 9704,
      "独立": 9705,
      "生产": 9706,
      "优先": 9707,
      "我要": 9708,
      "我是": 9709,
      "挑战": 9710,
      "例如": 9711,
      "记录": 9712,
      "上的": 9713,
      "不要": 9714,
      "选举": 9715,
      "报告员": 9716,
      "Add": 9717,
      "ad": 9718,
      "临时": 9719,
      "一起": 9720,
      "性的": 9721,
      "24": 9722,
      "成果": 9723,
      "所以": 9724,
      "我们的": 9725,
      "完成": 9726,
      "他們": 9727,
      "最近": 9728,
      "议程项目": 9729,
      "31": 9730,
      "警察": 9731,
      "2008年": 9732,
      "举行的": 9733,
      "打击": 9734,
      "设施": 9735,
      "两年": 9736,
      "000": 9737,
      "结束": 9738,
      "控制": 9739,
      "利益": 9740,
      "非法": 9741,
      "立法": 9742,
      "集团": 9743,
      "领导": 9744,
      "金融": 9745,
      "一直": 9746,
      "军事": 9747,
      "在其": 9748,
      "财政": 9749,
      "监督": 9750,
      "刑事": 9751,
      "首脑": 9752,
      "呼吁": 9753,
      "市场": 9754,
      "关注": 9755,
      "仍然": 9756,
      "第十": 9757,
      "事项": 9758,
      "的权利": 9759,
      "关切": 9760,
      "印度": 9761,
      "禁止": 9762,
      "第四": 9763,
      "的国际": 9764,
      "在这方面": 9765,
      "一致": 9766,
      "规划": 9767,
      "卫生": 9768,
      "真主": 9769,
      "防止": 9770,
      "22": 9771,
      "状况": 9772,
      "更多": 9773,
      "分析": 9774,
      "会议的": 9775,
      "以下": 9776,
      "第六": 9777,
      "是在": 9778,
      "过去": 9779,
      "表明": 9780,
      "土著": 9781,
      "今天": 9782,
      "罗斯": 9783,
      "同意": 9784,
      "空间": 9785,
      "为什么": 9786,
      "变化": 9787,
      "稳定": 9788,
      "you": 9789,
      "裁军": 9790,
      "考虑到": 9791,
      "无法": 9792,
      "50": 9793,
      "准备": 9794,
      "目的": 9795,
      "联邦": 9796,
      "直接": 9797,
      "办公": 9798,
      "am": 9799,
      "26": 9800,
      "联系": 9801,
      "st": 9802,
      "发达": 9803,
      "专员": 9804,
      "限制": 9805,
      "真的": 9806,
      "规定的": 9807,
      "只有": 9808,
      "对话": 9809,
      "增长": 9810,
      "中国": 9811,
      "以来": 9812,
      "女士": 9813,
      "le": 9814,
      "保证": 9815,
      "成员国": 9816,
      "威胁": 9817,
      "局势": 9818,
      "了解": 9819,
      "内的": 9820,
      "成功": 9821,
      "”。": 9822,
      "发挥": 9823,
      "介绍": 9824,
      "公民": 9825,
      "ch": 9826,
      "维持和平": 9827,
      "健康": 9828,
      "执行情况": 9829,
      "这项": 9830,
      "收入": 9831,
      "俄罗斯": 9832,
      "一样": 9833,
      "第五十": 9834,
      "你是": 9835,
      "经费": 9836,
      "论坛": 9837,
      "现有": 9838,
      "受害": 9839,
      "感谢": 9840,
      "还是": 9841,
      "起来": 9842,
      "重新": 9843,
      "27": 9844,
      "专门": 9845,
      "21": 9846,
      "组织的": 9847,
      "特别报告员": 9848,
      "完全": 9849,
      "过程": 9850,
      "承认": 9851,
      "那么": 9852,
      "……": 9853,
      "某些": 9854,
      "外交": 9855,
      "的规定": 9856,
      "知识": 9857,
      "28": 9858,
      "条款": 9859,
      "科学": 9860,
      "违反": 9861,
      "案件": 9862,
      "保障": 9863,
      "社区": 9864,
      "198": 9865,
      "各项": 9866,
      "西亚": 9867,
      "遵守": 9868,
      "回顾": 9869,
      "40": 9870,
      "改善": 9871,
      "明确": 9872,
      "联合国系统": 9873,
      "和国际": 9874,
      "29": 9875,
      "办公室": 9876,
      "协议": 9877,
      "的一个": 9878,
      "1999年": 9879,
      "出现": 9880,
      "60": 9881,
      "6月": 9882,
      "通过的": 9883,
      "一份": 9884,
      "你們": 9885,
      "请求": 9886,
      "针对": 9887,
      "制订": 9888,
      "伙伴关系": 9889,
      "他们的": 9890,
      "总统": 9891,
      "可持续发展": 9892,
      "业务": 9893,
      "看到": 9894,
      "综合": 9895,
      "都是": 9896,
      "人们": 9897,
      "指导": 9898,
      "加入": 9899,
      "5日": 9900,
      "企业": 9901,
      "的重要": 9902,
      "ent": 9903,
      "这里": 9904,
      "广泛": 9905,
      "的所有": 9906,
      "星期": 9907,
      "核武器": 9908,
      "原因": 9909,
      "这么": 9910,
      "虽然": 9911,
      "孩子": 9912,
      "保留": 9913,
      "内容": 9914,
      "文书": 9915,
      "un": 9916,
      "千年": 9917,
      "反对": 9918,
      "也是": 9919,
      "人类": 9920,
      "观察": 9921,
      "纳入": 9922,
      "新闻": 9923,
      "尊重": 9924,
      "8日": 9925,
      "et": 9926,
      "阶段": 9927,
      "ww": 9928,
      "有人": 9929,
      "提供的": 9930,
      "者的": 9931,
      "符合": 9932,
      "采用": 9933,
      "整个": 9934,
      "是的": 9935,
      "东西": 9936,
      "适用": 9937,
      "的努力": 9938,
      "喜欢": 9939,
      "捐助": 9940,
      "采取的": 9941,
      "我国": 9942,
      "扩大": 9943,
      "的影响": 9944,
      "组成": 9945,
      "恢复": 9946,
      "或者": 9947,
      "刚果": 9948,
      "基金会": 9949,
      "准则": 9950,
      "因素": 9951,
      "两年期": 9952,
      "财务": 9953,
      "然而": 9954,
      "尤其是": 9955,
      "审计": 9956,
      "长期": 9957,
      "民族": 9958,
      "关键": 9959,
      "的活动": 9960,
      "所需": 9961,
      "3日": 9962,
      ")，": 9963,
      "上述": 9964,
      "下列": 9965,
      "宗教": 9966,
      "相信": 9967,
      "我們": 9968,
      "倡议": 9969,
      "4日": 9970,
      "一级": 9971,
      "阿富": 9972,
      "评价": 9973,
      "提供了": 9974,
      "经验": 9975,
      "55": 9976,
      "好了": 9977,
      "阿富汗": 9978,
      "ol": 9979,
      "选择": 9980,
      "不过": 9981,
      "结论": 9982,
      "推动": 9983,
      "索赔": 9984,
      "工作的": 9985,
      "侵犯": 9986,
      "程度": 9987,
      "多数": 9988,
      "首脑会议": 9989,
      "普遍": 9990,
      "占领": 9991,
      "37": 9992,
      "内部": 9993,
      "好吧": 9994,
      "保健": 9995,
      "和平与": 9996,
      "不可": 9997,
      "然后": 9998,
      "语发言": 9999,
      "法官": 10000,
      "提交人": 10001,
      "达成": 10002,
      "之一": 10003,
      "就业": 10004,
      "危机": 10005,
      "解释": 10006,
      "合同": 10007,
      "一下": 10008,
      "全国": 10009,
      "到的": 10010,
      "和社会": 10011,
      "统计": 10012,
      "日本": 10013,
      "ac": 10014,
      "管制": 10015,
      "ro": 10016,
      "觉得": 10017,
      "发达国家": 10018,
      "那个": 10019,
      "面临": 10020,
      "6日": 10021,
      "定的": 10022,
      "im": 10023,
      "ation": 10024,
      "群体": 10025,
      "扩散": 10026,
      "ec": 10027,
      "权力": 10028,
      "从而": 10029,
      "结构": 10030,
      "贡献": 10031,
      "导致": 10032,
      "ay": 10033,
      "确认": 10034,
      "艾滋病毒": 10035,
      "）：": 10036,
      "事实": 10037,
      "经常": 10038,
      "员额": 10039,
      "2000": 10040,
      "海洋": 10041,
      "助于": 10042,
      "ht": 10043,
      "运动": 10044,
      "活动的": 10045,
      "通知": 10046,
      "57": 10047,
      "7日": 10048,
      "he": 10049,
      "危险": 10050,
      "机构的": 10051,
      "朋友": 10052,
      "声明": 10053,
      "你知道": 10054,
      "自然": 10055,
      "债务": 10056,
      "同样": 10057,
      "计划署": 10058,
      "宪法": 10059,
      "手段": 10060,
      "定期": 10061,
      "土地": 10062,
      "风险": 10063,
      "自己的": 10064,
      "我知道": 10065,
      "令人": 10066,
      "的情况下": 10067,
      "80": 10068,
      "发现": 10069,
      "保持": 10070,
      "63": 10071,
      "贫穷": 10072,
      "ig": 10073,
      "签署": 10074,
      "感到": 10075,
      "的最": 10076,
      "给予": 10077,
      "谢谢": 10078,
      "重要的": 10079,
      "CN": 10080,
      "列入": 10081,
      "的各项": 10082,
      "题为": 10083,
      "更加": 10084,
      "59": 10085,
      "我会": 10086,
      "理由": 10087,
      "第7": 10088,
      "需求": 10089,
      "拥有": 10090,
      "情况下": 10091,
      "该国": 10092,
      "ev": 10093,
      "很多": 10094,
      "宪章": 10095,
      "有助于": 10096,
      "美洲": 10097,
      "当地": 10098,
      "旨在": 10099,
      "不断": 10100,
      "一定": 10101,
      "来自": 10102,
      "56": 10103,
      "的法律": 10104,
      "的信": 10105,
      "fs": 10106,
      "提议": 10107,
      "重大": 10108,
      "法国": 10109,
      "所述": 10110,
      "重点": 10111,
      "电话": 10112,
      "的能力": 10113,
      "如此": 10114,
      "多边": 10115,
      "资产": 10116,
      "编写": 10117,
      "外国": 10118,
      "所作": 10119,
      "提案": 10120,
      "登记": 10121,
      "改进": 10122,
      "生物": 10123,
      "的建议": 10124,
      "你在": 10125,
      "允许": 10126,
      "现象": 10127,
      "当然": 10128,
      "58": 10129,
      "62": 10130,
      "价值": 10131,
      "相互": 10132,
      "运输": 10133,
      "行动计划": 10134,
      "9月": 10135,
      "id": 10136,
      "材料": 10137,
      "紧急": 10138,
      "分配": 10139,
      "城市": 10140,
      "万美元": 10141,
      "证明": 10142,
      "给我": 10143,
      "规模": 10144,
      "实体": 10145,
      "来了": 10146,
      "事件": 10147,
      "认识到": 10148,
      "农业": 10149,
      "及社会": 10150,
      "残疾": 10151,
      "王国": 10152,
      "2005": 10153,
      "国际法": 10154,
      "苏丹": 10155,
      "号决定": 10156,
      "后续": 10157,
      "以前": 10158,
      "学校": 10159,
      "有些": 10160,
      "粮食": 10161,
      "气候": 10162,
      "赔偿": 10163,
      "年度": 10164,
      "sh": 10165,
      "出口": 10166,
      "你不": 10167,
      "将在": 10168,
      "进行的": 10169,
      ")、": 10170,
      "里亚": 10171,
      "欧洲联盟": 10172,
      "实质": 10173,
      "战争": 10174,
      "进行了": 10175,
      "十年": 10176,
      "应对": 10177,
      "，《": 10178,
      "敦促": 10179,
      "财产": 10180,
      "00美元": 10181,
      "所载": 10182,
      "常驻": 10183,
      "加拿": 10184,
      "构成": 10185,
      "次会议上": 10186,
      "贩运": 10187,
      "请秘书长": 10188,
      "各方": 10189,
      "电子": 10190,
      "并在": 10191,
      "个月": 10192,
      "为此": 10193,
      "民间": 10194,
      "纽约": 10195,
      "宣布": 10196,
      "行动纲": 10197,
      "的主要": 10198,
      "再次": 10199,
      "经济及社会": 10200,
      "做出": 10201,
      "加以": 10202,
      "是一个": 10203,
      "让我": 10204,
      "通过了": 10205,
      "申请": 10206,
      "33": 10207,
      "指标": 10208,
      "反映": 10209,
      "本国": 10210,
      "网络": 10211,
      "os": 10212,
      "的方式": 10213,
      "的时候": 10214,
      "发展目标": 10215,
      "离开": 10216,
      "来说": 10217,
      "高级专员": 10218,
      "加拿大": 10219,
      "”，": 10220,
      "宣传": 10221,
      "我在": 10222,
      "ow": 10223,
      "ve": 10224,
      "享有": 10225,
      "30日": 10226,
      "民主共和国": 10227,
      "今后": 10228,
      "那里": 10229,
      "最不": 10230,
      "和发展": 10231,
      "并不": 10232,
      "方案的": 10233,
      "创造": 10234,
      "缺乏": 10235,
      "拟订": 10236,
      "估计": 10237,
      "34": 10238,
      "全体": 10239,
      "巴嫩": 10240,
      "黎巴嫩": 10241,
      "下的": 10242,
      ")；": 10243,
      "改变": 10244,
      "落实": 10245,
      "不得": 10246,
      "马里": 10247,
      "访问": 10248,
      "维亚": 10249,
      "证据": 10250,
      "授权": 10251,
      "属于": 10252,
      "德国": 10253,
      "儿童基金会": 10254,
      "第二十": 10255,
      "各国政府": 10256,
      "你说": 10257,
      "10月": 10258,
      "经济及社会理事会": 10259,
      "境内": 10260,
      "II": 10261,
      "死亡": 10262,
      "专业": 10263,
      "对妇女": 10264,
      "FF": 10265,
      "议会": 10266,
      "那样": 10267,
      "若干": 10268,
      "找到": 10269,
      "能源": 10270,
      "实行": 10271,
      "平民": 10272,
      "下午": 10273,
      "）、": 10274,
      "进入": 10275,
      "索沃": 10276,
      "工具": 10277,
      "日内": 10278,
      "在这里": 10279,
      "补充": 10280,
      "成立": 10281,
      "来源": 10282,
      "科索沃": 10283,
      "贫困": 10284,
      "了一个": 10285,
      "政府间": 10286,
      "精神": 10287,
      "召开": 10288,
      "取得的": 10289,
      "总部": 10290,
      "必要的": 10291,
      "组织和": 10292,
      "不仅": 10293,
      "开发计划署": 10294,
      "密切": 10295,
      "非正式": 10296,
      "官员": 10297,
      "ab": 10298,
      "竞争": 10299,
      "女孩": 10300,
      "古巴": 10301,
      "一名": 10302,
      "承担": 10303,
      "7月": 10304,
      "发表": 10305,
      "筹备": 10306,
      "第六十": 10307,
      "少数": 10308,
      "阿尔": 10309,
      "）；": 10310,
      "支付": 10311,
      "日内瓦": 10312,
      "ur": 10313,
      "你要": 10314,
      "班牙": 10315,
      "。”": 10316,
      "西班牙": 10317,
      "伊朗": 10318,
      "35": 10319,
      "协会": 10320,
      "197": 10321,
      "也不": 10322,
      "与会": 10323,
      "困难": 10324,
      "主管": 10325,
      "修正": 10326,
      "我说": 10327,
      "的任何": 10328,
      "条例": 10329,
      "31日": 10330,
      "损失": 10331,
      "表决": 10332,
      "ter": 10333,
      "担任": 10334,
      "意思": 10335,
      "编制": 10336,
      "也许": 10337,
      "破坏": 10338,
      "移民": 10339,
      "的决定": 10340,
      "私营": 10341,
      "11月": 10342,
      "公平": 10343,
      "尚未": 10344,
      "那是": 10345,
      "另一": 10346,
      "步骤": 10347,
      "大学": 10348,
      "你想": 10349,
      "罪行": 10350,
      "水平": 10351,
      "统一": 10352,
      "邀请": 10353,
      "贸发": 10354,
      "2009年": 10355,
      "森林": 10356,
      "38": 10357,
      "她们": 10358,
      "维持和平行动": 10359,
      "39": 10360,
      "农村": 10361,
      "流离": 10362,
      "真正": 10363,
      "受害者": 10364,
      "和技术": 10365,
      "第9": 10366,
      "61": 10367,
      "失所": 10368,
      "毒品": 10369,
      "公开": 10370,
      "的目标": 10371,
      "来文": 10372,
      "举办": 10373,
      "辩论": 10374,
      "看看": 10375,
      "us": 10376,
      "帝汶": 10377,
      "传统": 10378,
      "性和": 10379,
      "青年": 10380,
      "1998年": 10381,
      "的其他": 10382,
      "流离失所": 10383,
      "交易": 10384,
      "44": 10385,
      "交流": 10386,
      "》（": 10387,
      "首先": 10388,
      "决策": 10389,
      "基于": 10390,
      "调整": 10391,
      "职能": 10392,
      "咨询委员会": 10393,
      "律师": 10394,
      "for": 10395,
      "除了": 10396,
      "收到": 10397,
      "身份": 10398,
      "第8": 10399,
      "采购": 10400,
      "本报告": 10401,
      "；(": 10402,
      "民间社会": 10403,
      "的作用": 10404,
      "》。": 10405,
      "大家": 10406,
      "赞赏": 10407,
      "检查": 10408,
      "满足": 10409,
      "的经济": 10410,
      "自愿": 10411,
      "的话": 10412,
      "了一": 10413,
      "申诉": 10414,
      "修订": 10415,
      "45": 10416,
      "劳动": 10417,
      "而言": 10418,
      "3月": 10419,
      "体制": 10420,
      "ir": 10421,
      "另外": 10422,
      "大量": 10423,
      "采取行动": 10424,
      "以英": 10425,
      "拟议": 10426,
      "透明": 10427,
      "过渡": 10428,
      "鉴于": 10429,
      "墨西": 10430,
      "未来": 10431,
      "欧盟": 10432,
      "6年": 10433,
      "工业": 10434,
      "转让": 10435,
      "墨西哥": 10436,
      "不起": 10437,
      "5月": 10438,
      "行动纲领": 10439,
      "ot": 10440,
      "的基础": 10441,
      "武装冲突": 10442,
      "联合王国": 10443,
      "亿美元": 10444,
      "商业": 10445,
      "47": 10446,
      "不扩散": 10447,
      "避免": 10448,
      "9日": 10449,
      "地注意到": 10450,
      "妇女和": 10451,
      "十分": 10452,
      "很好": 10453,
      "担保": 10454,
      "以英语发言": 10455,
      "案文": 10456,
      "设备": 10457,
      "观点": 10458,
      "东帝汶": 10459,
      "合法": 10460,
      "我就": 10461,
      "供应": 10462,
      "最高": 10463,
      "给你": 10464,
      "有效的": 10465,
      "予以": 10466,
      "其中包括": 10467,
      "愿意": 10468,
      "范围内": 10469,
      "答复": 10470,
      "出版": 10471,
      "ut": 10472,
      "这类": 10473,
      "化学": 10474,
      "的各种": 10475,
      "观察员": 10476,
      "损害": 10477,
      "达到": 10478,
      "人权委员会": 10479,
      "维护": 10480,
      "专题": 10481,
      "人数": 10482,
      "机构和": 10483,
      "）（": 10484,
      "我有": 10485,
      "特殊": 10486,
      "产品": 10487,
      "核心": 10488,
      "众国": 10489,
      "36": 10490,
      "力的": 10491,
      "他是": 10492,
      "4月": 10493,
      "通信": 10494,
      "刚果民主共和国": 10495,
      "亚洲": 10496,
      "大多数": 10497,
      "54": 10498,
      "任命": 10499,
      "甚至": 10500,
      "此种": 10501,
      "月1日": 10502,
      "从事": 10503,
      "医疗": 10504,
      "意义": 10505,
      "两性": 10506,
      "小组委员会": 10507,
      "支出": 10508,
      "高兴": 10509,
      "部署": 10510,
      "公正": 10511,
      "立即": 10512,
      "至少": 10513,
      "移徙": 10514,
      "明白": 10515,
      "依照": 10516,
      "和平与安全": 10517,
      "酷刑": 10518,
      "和保护": 10519,
      "巴西": 10520,
      "48": 10521,
      "人和": 10522,
      "超过": 10523,
      "32": 10524,
      "的不": 10525,
      "提出了": 10526,
      "有权": 10527,
      "传播": 10528,
      "寻求": 10529,
      "旺达": 10530,
      "质量": 10531,
      "的发展": 10532,
      "多样": 10533,
      "每个": 10534,
      "卢旺达": 10535,
      "了吗": 10536,
      "管辖": 10537,
      "政策和": 10538,
      "行使": 10539,
      "工程": 10540,
      "理解": 10541,
      "什麼": 10542,
      "才能": 10543,
      "详细": 10544,
      "遭受": 10545,
      "出席": 10546,
      "迅速": 10547,
      "好吗": 10548,
      "性质": 10549,
      "威特": 10550,
      "核准": 10551,
      "目的是": 10552,
      "与会者": 10553,
      "药物": 10554,
      "主任": 10555,
      "科威特": 10556,
      "最不发达国家": 10557,
      "报告的": 10558,
      "三个": 10559,
      "职业": 10560,
      "诉讼": 10561,
      "重视": 10562,
      "检察": 10563,
      "社会和": 10564,
      "审判": 10565,
      "不到": 10566,
      "历史": 10567,
      "适当的": 10568,
      "49": 10569,
      "显示": 10570,
      "de": 10571,
      "我也": 10572,
      "如下": 10573,
      "ah": 10574,
      "你有": 10575,
      "不知道": 10576,
      "的主": 10577,
      "劳工": 10578,
      "住房": 10579,
      "的行为": 10580,
      "灾害": 10581,
      "反应": 10582,
      "收集": 10583,
      "有利": 10584,
      "所涉": 10585,
      "生效": 10586,
      "拘留": 10587,
      "67": 10588,
      "名单": 10589,
      "男女": 10590,
      "有必要": 10591,
      "她的": 10592,
      "能力建设": 10593,
      "地点": 10594,
      "过程中": 10595,
      "一点": 10596,
      "机关": 10597,
      "没事": 10598,
      "加勒": 10599,
      "塞尔": 10600,
      "数量": 10601,
      "适用于": 10602,
      "秘书长关于": 10603,
      "li": 10604,
      "团体": 10605,
      "ag": 10606,
      "千年发展目标": 10607,
      "__": 10608,
      "清楚": 10609,
      "委员会在": 10610,
      "报告中": 10611,
      "国民": 10612,
      "2008": 10613,
      "ord": 10614,
      "妈妈": 10615,
      "的任务": 10616,
      "提到": 10617,
      "当事": 10618,
      "每年": 10619,
      "的信息": 10620,
      "12月2": 10621,
      "大利": 10622,
      "此类": 10623,
      "顾问": 10624,
      "上午": 10625,
      "计算": 10626,
      "清单": 10627,
      "第12": 10628,
      "2007": 10629,
      "生命": 10630,
      "运作": 10631,
      "会议上": 10632,
      "根本": 10633,
      "土耳": 10634,
      "实质性": 10635,
      "土耳其": 10636,
      "澳大": 10637,
      "货币": 10638,
      "训练": 10639,
      "澳大利亚": 10640,
      "人力": 10641,
      "人权事务": 10642,
      "气候变化": 10643,
      "加勒比": 10644,
      "叙利亚": 10645,
      "力量": 10646,
      "最终": 10647,
      "org": 10648,
      "me": 10649,
      "将其": 10650,
      "意大利": 10651,
      "概念": 10652,
      "贸发会议": 10653,
      "尔兰": 10654,
      "4年": 10655,
      "我很": 10656,
      "合理": 10657,
      "爱尔兰": 10658,
      "资助": 10659,
      "俄罗斯联邦": 10660,
      "南非": 10661,
      "塞拉": 10662,
      "对其": 10663,
      "停止": 10664,
      "委会": 10665,
      "讲习": 10666,
      "内亚": 10667,
      "，“": 10668,
      "的资料": 10669,
      "ak": 10670,
      "障碍": 10671,
      "罗马": 10672,
      "几内亚": 10673,
      "斯洛": 10674,
      "儿童权利": 10675,
      "后续行动": 10676,
      "立场": 10677,
      "国际公约": 10678,
      "打算": 10679,
      "的重要性": 10680,
      "CC": 10681,
      "这样做": 10682,
      "依据": 10683,
      "致力": 10684,
      "42": 10685,
      "all": 10686,
      "巴基": 10687,
      "磋商": 10688,
      "造成的": 10689,
      "和联合国": 10690,
      "居民": 10691,
      "捐款": 10692,
      "本身": 10693,
      "原子": 10694,
      "巴基斯坦": 10695,
      "拒绝": 10696,
      "私营部门": 10697,
      "干事": 10698,
      "这一点": 10699,
      "而不是": 10700,
      "爸爸": 10701,
      "在国家": 10702,
      "效率": 10703,
      "腐败": 10704,
      "预期": 10705,
      "我还": 10706,
      "这样的": 10707,
      "货物": 10708,
      "基础设施": 10709,
      "定义": 10710,
      "唯一": 10711,
      "尼西亚": 10712,
      "类似": 10713,
      "筹资": 10714,
      "后果": 10715,
      "拉夫": 10716,
      "起诉": 10717,
      "be": 10718,
      "更好": 10719,
      "In": 10720,
      "引起": 10721,
      "有可能": 10722,
      "马拉": 10723,
      "上诉": 10724,
      "保险": 10725,
      "77": 10726,
      "抱歉": 10727,
      "之外": 10728,
      "的一部分": 10729,
      "其它": 10730,
      "特别代表": 10731,
      "46": 10732,
      "我不知道": 10733,
      "www": 10734,
      "媒体": 10735,
      "讲习班": 10736,
      "出的": 10737,
      "世纪": 10738,
      "1997年": 10739,
      "尼日": 10740,
      "至关": 10741,
      "双方": 10742,
      "ere": 10743,
      "ul": 10744,
      "在此": 10745,
      "制裁": 10746,
      "的行动": 10747,
      "分子": 10748,
      "系列": 10749,
      "任择": 10750,
      "人权和": 10751,
      "来越": 10752,
      "优先事项": 10753,
      "克斯坦": 10754,
      "高级别": 10755,
      "领导人": 10756,
      "两性平等": 10757,
      "索马里": 10758,
      "出来": 10759,
      "指控": 10760,
      "的执行情况": 10761,
      "增强": 10762,
      "重建": 10763,
      "双边": 10764,
      "通报": 10765,
      "越来越": 10766,
      "以确保": 10767,
      "女性": 10768,
      "加拉": 10769,
      "8月": 10770,
      "CO": 10771,
      "在该": 10772,
      "待遇": 10773,
      "全部": 10774,
      "只要": 10775,
      "51": 10776,
      "不足": 10777,
      "复杂": 10778,
      "他说": 10779,
      "提交的": 10780,
      "个国家": 10781,
      "在联合国": 10782,
      "意味": 10783,
      "比例": 10784,
      "第10": 10785,
      "利昂": 10786,
      "的一些": 10787,
      "1月": 10788,
      "分发": 10789,
      "任择议定书": 10790,
      "足够": 10791,
      "方案和": 10792,
      "数字": 10793,
      "及时": 10794,
      "大规模": 10795,
      "趋势": 10796,
      "中东": 10797,
      "ha": 10798,
      "你好": 10799,
      "就会": 10800,
      "公众": 10801,
      "意识": 10802,
      "有一": 10803,
      "在哪": 10804,
      "缔约方会议": 10805,
      "地区的": 10806,
      "塞拉利昂": 10807,
      "70": 10808,
      "埃及": 10809,
      "单位": 10810,
      "心理": 10811,
      "的要求": 10812,
      "你会": 10813,
      "以为": 10814,
      "行为的": 10815,
      "肯定": 10816,
      "无论": 10817,
      "um": 10818,
      "修改": 10819,
      "原子能": 10820,
      "领域的": 10821,
      "似乎": 10822,
      "致力于": 10823,
      "学生": 10824,
      "荷兰": 10825,
      "地雷": 10826,
      "审议了": 10827,
      "100": 10828,
      "有限": 10829,
      "妈的": 10830,
      "持久": 10831,
      "对不起": 10832,
      "以后": 10833,
      "担心": 10834,
      "职责": 10835,
      "日期": 10836,
      "fn": 10837,
      "的新": 10838,
      "第七": 10839,
      "专家组": 10840,
      "吁请": 10841,
      "福利": 10842,
      "分别": 10843,
      "享受": 10844,
      "走了": 10845,
      "视为": 10846,
      "随后": 10847,
      "全球化": 10848,
      "通常": 10849,
      "妇女的": 10850,
      "正如": 10851,
      "出了": 10852,
      "成本": 10853,
      "3年": 10854,
      "斯拉夫": 10855,
      "过来": 10856,
      "决议草案A": 10857,
      "种族歧视": 10858,
      "儿童的": 10859,
      "意味着": 10860,
      "切实": 10861,
      "更多的": 10862,
      "日在": 10863,
      "真是": 10864,
      "与发展": 10865,
      "利坚": 10866,
      "攻击": 10867,
      "权的": 10868,
      "美利坚": 10869,
      "飞机": 10870,
      "在内的": 10871,
      "出去": 10872,
      "仲裁": 10873,
      "形式的": 10874,
      "国际组织": 10875,
      "有所": 10876,
      "增进": 10877,
      "提及": 10878,
      "oc": 10879,
      "ri": 10880,
      "向大会": 10881,
      "一年": 10882,
      "南斯拉夫": 10883,
      "判决": 10884,
      "90": 10885,
      "美利坚合": 10886,
      "太平": 10887,
      "满意": 10888,
      "等等": 10889,
      "伤害": 10890,
      "大使": 10891,
      "》、": 10892,
      "和执行": 10893,
      "建设和平": 10894,
      "fsc": 10895,
      "hat": 10896,
      "当时": 10897,
      "的项目": 10898,
      "印度尼西亚": 10899,
      "2月": 10900,
      "他在": 10901,
      "日益": 10902,
      "第一次": 10903,
      "做的": 10904,
      "以上": 10905,
      "是我": 10906,
      "的代表": 10907,
      "下来": 10908,
      "西兰": 10909,
      "的安全": 10910,
      "太平洋": 10911,
      "事规则": 10912,
      "即使": 10913,
      "投票": 10914,
      "的一项": 10915,
      "的原则": 10916,
      "设计": 10917,
      "43": 10918,
      "--": 10919,
      "制止": 10920,
      "明显": 10921,
      "1999": 10922,
      "作了": 10923,
      "几乎": 10924,
      "的措施": 10925,
      "信息和": 10926,
      "表现": 10927,
      "克兰": 10928,
      "新西兰": 10929,
      "2年": 10930,
      "瑞士": 10931,
      "的机会": 10932,
      "官方": 10933,
      "的合作": 10934,
      "技术援助": 10935,
      "相当": 10936,
      "背景": 10937,
      "土著人民": 10938,
      "便利": 10939,
      "特设": 10940,
      "的政治": 10941,
      "种族主义": 10942,
      "医生": 10943,
      "所作的": 10944,
      "价格": 10945,
      "国家和": 10946,
      "维也": 10947,
      "这次": 10948,
      "委员会主席": 10949,
      "团结": 10950,
      "赞扬": 10951,
      "第15": 10952,
      "维也纳": 10953,
      "%。": 10954,
      "主持": 10955,
      "小时": 10956,
      "数额": 10957,
      "几个": 10958,
      "就像": 10959,
      "od": 10960,
      "爱的": 10961,
      "号文件": 10962,
      "各级": 10963,
      "美利坚合众国": 10964,
      "拉丁": 10965,
      "国际合作": 10966,
      "模式": 10967,
      "常驻联合国": 10968,
      "容忍": 10969,
      "是啊": 10970,
      "研讨": 10971,
      "物质": 10972,
      "哥伦": 10973,
      "比较": 10974,
      "有效地": 10975,
      "回来": 10976,
      "情报": 10977,
      "月15日": 10978,
      "所列": 10979,
      "是什么": 10980,
      "联合国宪章": 10981,
      "下降": 10982,
      "你看": 10983,
      "人口基金": 10984,
      "殖民": 10985,
      "阁下": 10986,
      "的时间": 10987,
      "上文": 10988,
      "应在": 10989,
      "我们在": 10990,
      "特别会议": 10991,
      "布隆": 10992,
      "各自": 10993,
      "感觉": 10994,
      "哥伦比亚": 10995,
      "评论": 10996,
      "酌情": 10997,
      "行政和": 10998,
      "和黑": 10999,
      "11月2": 11000,
      "虐待": 11001,
      "非洲联盟": 11002,
      "以外": 11003,
      "》(": 11004,
      "死了": 11005,
      "布隆迪": 11006,
      "利比": 11007,
      "看法": 11008,
      "阿根": 11009,
      "特别是在": 11010,
      "中央": 11011,
      "大约": 11012,
      "阿根廷": 11013,
      "将会": 11014,
      "补救": 11015,
      "记得": 11016,
      "41": 11017,
      "em": 11018,
      "同上": 11019,
      "商定": 11020,
      "权利和": 11021,
      "人在": 11022,
      "信任": 11023,
      "指南": 11024,
      "op": 11025,
      "有一个": 11026,
      "相关的": 11027,
      "实际上": 11028,
      "利比里亚": 11029,
      "体系": 11030,
      "事实上": 11031,
      "袭击": 11032,
      "规划署": 11033,
      "aH": 11034,
      "九届会议": 11035,
      "提请": 11036,
      "救济": 11037,
      "跨国": 11038,
      "研讨会": 11039,
      "方案预算": 11040,
      "1996年": 11041,
      "区域和": 11042,
      "举措": 11043,
      "对此": 11044,
      "这个问题": 11045,
      "与联合国": 11046,
      "群岛": 11047,
      "告诉我": 11048,
      "委员会建议": 11049,
      "bord": 11050,
      "使其": 11051,
      "它的": 11052,
      "将继续": 11053,
      "遗憾": 11054,
      "Al": 11055,
      "你能": 11056,
      "196": 11057,
      "检察官": 11058,
      "职位": 11059,
      "第四十": 11060,
      "shad": 11061,
      "不应": 11062,
      "查明": 11063,
      "治疗": 11064,
      "反恐": 11065,
      "我们认为": 11066,
      "预计": 11067,
      "的一切": 11068,
      "者和": 11069,
      "问题国际": 11070,
      "拉丁美洲": 11071,
      "名字": 11072,
      "可能会": 11073,
      "1995年": 11074,
      "主题": 11075,
      "所有国家": 11076,
      "ov": 11077,
      "消费": 11078,
      "一届会议": 11079,
      "和经济": 11080,
      "语言": 11081,
      "that": 11082,
      "7月2": 11083,
      "事情": 11084,
      "和解": 11085,
      "多少": 11086,
      "作出的": 11087,
      "外地": 11088,
      "集中": 11089,
      "人力资源": 11090,
      "和建议": 11091,
      "以及在": 11092,
      "起草": 11093,
      "载于": 11094,
      "就此": 11095,
      "当前": 11096,
      "ight": 11097,
      "会议室": 11098,
      "An": 11099,
      "用的": 11100,
      "第11": 11101,
      "时期": 11102,
      "的支持": 11103,
      "art": 11104,
      "ell": 11105,
      "的政策": 11106,
      "委员会还": 11107,
      "一般性": 11108,
      "建立一个": 11109,
      "6月2": 11110,
      "克罗": 11111,
      "处于": 11112,
      "去了": 11113,
      "除非": 11114,
      "：“": 11115,
      "命令": 11116,
      "课程": 11117,
      "的地方": 11118,
      "0日": 11119,
      "第三十": 11120,
      "pp": 11121,
      "上帝": 11122,
      "岛屿": 11123,
      "爆炸": 11124,
      "另一个": 11125,
      "第1款": 11126,
      "1年": 11127,
      "最佳": 11128,
      "我们必须": 11129,
      "1990年": 11130,
      "53": 11131,
      "未能": 11132,
      "共同体": 11133,
      "妇女地位": 11134,
      "不可能": 11135,
      "债权": 11136,
      "取得了": 11137,
      "疾病": 11138,
      "瑞典": 11139,
      "印发": 11140,
      "容易": 11141,
      "达尔": 11142,
      "接触": 11143,
      "脆弱": 11144,
      "父母": 11145,
      "ce": 11146,
      "制造": 11147,
      "年龄": 11148,
      "的意见": 11149,
      "挪威": 11150,
      "男子": 11151,
      "科特": 11152,
      "国籍": 11153,
      "带来": 11154,
      "许可": 11155,
      "武器和": 11156,
      "我国代表团": 11157,
      "总体": 11158,
      "第17": 11159,
      "你怎么": 11160,
      "波斯": 11161,
      "工作队": 11162,
      "争取": 11163,
      "账户": 11164,
      "降低": 11165,
      "政府和": 11166,
      "回家": 11167,
      "怎样": 11168,
      "10年": 11169,
      "学习": 11170,
      "网站": 11171,
      "ra": 11172,
      "我们要": 11173,
      "我们还": 11174,
      "有的": 11175,
      "这就是": 11176,
      "6月30日": 11177,
      "截至": 11178,
      "2日": 11179,
      "AC": 11180,
      "全世界": 11181,
      "想要": 11182,
      "边界": 11183,
      "不受": 11184,
      "埃塞": 11185,
      "各个": 11186,
      "平衡": 11187,
      "巴勒斯坦人民": 11188,
      "集体": 11189,
      "同一": 11190,
      "我现在": 11191,
      "12日": 11192,
      "显然": 11193,
      "指示": 11194,
      "原子能机构": 11195,
      "次级": 11196,
      "俄比亚": 11197,
      "项目的": 11198,
      "法治": 11199,
      "赞成": 11200,
      "ie": 11201,
      "你可以": 11202,
      "附件一": 11203,
      "埃塞俄比亚": 11204,
      "监狱": 11205,
      "决心": 11206,
      "更正": 11207,
      "为止": 11208,
      "乌克兰": 11209,
      "适应": 11210,
      "介绍了": 11211,
      "You": 11212,
      "你还": 11213,
      "正常": 11214,
      "裁决": 11215,
      "父亲": 11216,
      "教育和": 11217,
      "确实": 11218,
      "维和": 11219,
      "外交部长": 11220,
      "联络": 11221,
      "特别委员会": 11222,
      "临时议程": 11223,
      "私人": 11224,
      "规范": 11225,
      "在一起": 11226,
      "ia": 11227,
      "经济和社会": 11228,
      "ill": 11229,
      "女人": 11230,
      "流动": 11231,
      "000美元": 11232,
      "阿尔及": 11233,
      "少年": 11234,
      "本组织": 11235,
      "尼斯": 11236,
      "框架内": 11237,
      "经过": 11238,
      "资格": 11239,
      "路斯": 11240,
      "商品": 11241,
      "有什么": 11242,
      "兴趣": 11243,
      "ne": 11244,
      "塞浦": 11245,
      "塞浦路斯": 11246,
      "52": 11247,
      "的结果": 11248,
      "ers": 11249,
      "尼日利亚": 11250,
      "我只是": 11251,
      "派遣": 11252,
      "出版物": 11253,
      "只能": 11254,
      "应用": 11255,
      "或其他": 11256,
      "普通": 11257,
      "比利": 11258,
      "严格": 11259,
      "摩洛": 11260,
      "男人": 11261,
      "开放": 11262,
      "以期": 11263,
      "依然": 11264,
      "主权": 11265,
      "是个": 11266,
      "11日": 11267,
      "八届会议": 11268,
      "第16": 11269,
      "的儿童": 11270,
      "人道主义法": 11271,
      "在这一": 11272,
      "我可以": 11273,
      "拉圭": 11274,
      "世界银行": 11275,
      "剥夺": 11276,
      "相同": 11277,
      "往往": 11278,
      "污染": 11279,
      "候选": 11280,
      "延长": 11281,
      "谴责": 11282,
      "解决办法": 11283,
      "ub": 11284,
      "富尔": 11285,
      "的做法": 11286,
      "海地": 11287,
      "示范": 11288,
      "而是": 11289,
      "研究所": 11290,
      "se": 11291,
      "破产": 11292,
      "常设": 11293,
      "多年": 11294,
      "赞同": 11295,
      "政府的": 11296,
      "现实": 11297,
      "与其他": 11298,
      "执行局": 11299,
      "的有关": 11300,
      "系统的": 11301,
      "和平进程": 11302,
      "不再": 11303,
      "采取措施": 11304,
      "波斯尼亚": 11305,
      "消除对妇女": 11306,
      "摩洛哥": 11307,
      "Ch": 11308,
      "完整": 11309,
      "书面": 11310,
      "启动": 11311,
      "人权事务高级专员": 11312,
      "法令": 11313,
      "月1日至": 11314,
      "9月2": 11315,
      "迪瓦": 11316,
      "地亚": 11317,
      "年轻": 11318,
      "第18": 11319,
      "转移": 11320,
      "达尔富尔": 11321,
      "在于": 11322,
      "的义务": 11323,
      "中所": 11324,
      "方针": 11325,
      "1994年": 11326,
      "怎么样": 11327,
      "科特迪瓦": 11328,
      "1shad": 11329,
      "今年": 11330,
      "bord1shad": 11331,
      "服务的": 11332,
      "至关重要": 11333,
      "巴布": 11334,
      "让我们": 11335,
      "协调员": 11336,
      "预防犯罪": 11337,
      "The": 11338,
      "初步": 11339,
      "杀了": 11340,
      "很大": 11341,
      "共识": 11342,
      "取得的进展": 11343,
      "外层": 11344,
      "更好地": 11345,
      "快点": 11346,
      "ust": 11347,
      "发展的": 11348,
      "化的": 11349,
      "资本": 11350,
      "举行了": 11351,
      "4月2": 11352,
      "着重": 11353,
      "外层空间": 11354,
      "沙特": 11355,
      "行动的": 11356,
      "我觉得": 11357,
      "特定": 11358,
      "菲律": 11359,
      "不错": 11360,
      "对该": 11361,
      "菲律宾": 11362,
      "侵害": 11363,
      "产生的": 11364,
      "号和": 11365,
      "母亲": 11366,
      "并将": 11367,
      "的联合国": 11368,
      "19日": 11369,
      "12月31日": 11370,
      "形成": 11371,
      "这一问题": 11372,
      "毛里": 11373,
      "ess": 11374,
      "附属": 11375,
      "orr": 11376,
      "月14日": 11377,
      "你就": 11378,
      "排放": 11379,
      "的执行": 11380,
      "及其他": 11381,
      "补编": 11382,
      "技术合作": 11383,
      "期限": 11384,
      "逮捕": 11385,
      "强制": 11386,
      "途径": 11387,
      "订正": 11388,
      "随着": 11389,
      "工人": 11390,
      "大部分": 11391,
      "执法": 11392,
      "都有": 11393,
      "放在": 11394,
      "we": 11395,
      "平均": 11396,
      "核查": 11397,
      "采取了": 11398,
      "最大": 11399,
      "包括在": 11400,
      "行的": 11401,
      "解除": 11402,
      "人员的": 11403,
      "%，": 11404,
      "智利": 11405,
      "惩罚": 11406,
      "额外": 11407,
      "te": 11408,
      "不同的": 11409,
      "斗争": 11410,
      "更为": 11411,
      "高度": 11412,
      "做了": 11413,
      "居住": 11414,
      "效力": 11415,
      "乌干": 11416,
      "在本": 11417,
      "约束": 11418,
      "发展援助": 11419,
      "文化权利": 11420,
      "乌干达": 11421,
      "不用": 11422,
      "永远": 11423,
      "10月2": 11424,
      "儿子": 11425,
      "语文": 11426,
      "载有": 11427,
      "返回": 11428,
      "见A": 11429,
      "第14": 11430,
      "如果你": 11431,
      "约翰": 11432,
      "为基础": 11433,
      "组成部分": 11434,
      "发出": 11435,
      "尽可能": 11436,
      "替代": 11437,
      "来吧": 11438,
      "阿尔及利亚": 11439,
      "和管理": 11440,
      "展开": 11441,
      "不好": 11442,
      "争端": 11443,
      "部门的": 11444,
      "值得": 11445,
      "分钟": 11446,
      "工发": 11447,
      "ist": 11448,
      "取消": 11449,
      "兄弟": 11450,
      "诸如": 11451,
      "不利": 11452,
      "不管": 11453,
      "剥削": 11454,
      "管理和": 11455,
      "cH": 11456,
      "信托": 11457,
      "面前": 11458,
      "10日": 11459,
      "第55": 11460,
      "机构间": 11461,
      "基地": 11462,
      "ES": 11463,
      "各地": 11464,
      "在国际": 11465,
      "所有的": 11466,
      "发展中国家的": 11467,
      "一位": 11468,
      "他妈的": 11469,
      "月18日": 11470,
      "缅甸": 11471,
      "刑事司法": 11472,
      "com": 11473,
      "哪些": 11474,
      "石油": 11475,
      "的资源": 11476,
      "est": 11477,
      "可能性": 11478,
      "有组织": 11479,
      "未经": 11480,
      "发了": 11481,
      "被告": 11482,
      "ant": 11483,
      "在那": 11484,
      "第13": 11485,
      "伊斯兰会议": 11486,
[...]
