{
  "version": "1.0",
  "truncation": null,
  "padding": null,
  "added_tokens": [
    {
      "id": 0,
      "content": "[UNK]",
      "single_word": false,
      "lstrip": false,
      "rstrip": false,
      "normalized": false,
      "special": true
    },
    {
      "id": 1,
      "content": "[PAD]",
      "single_word": false,
      "lstrip": false,
      "rstrip": false,
      "normalized": false,
      "special": true
    },
    {
      "id": 2,
      "content": "[SOS]",
      "single_word": false,
      "lstrip": false,
      "rstrip": false,
      "normalized": false,
      "special": true
    },
    {
      "id": 3,
      "content": "[EOS]",
      "single_word": false,
      "lstrip": false,
      "rstrip": false,
      "normalized": false,
      "special": true
    }
  ],
  "normalizer": null,
  "pre_tokenizer": {
    "type": "Whitespace"
  },
  "post_processor": null,
  "decoder": null,
  "model": {
    "type": "BPE",
    "dropout": null,
    "unk_token": "[UNK]",
    "continuing_subword_prefix": null,
    "end_of_word_suffix": null,
    "fuse_unk": false,
    "byte_fallback": false,
    "ignore_merges": false,
    "vocab": {
      "[UNK]": 0,
      "[PAD]": 1,
      "[SOS]": 2,
      "[EOS]": 3,
      "!": 4,
      "\"": 5,
      "#": 6,
      "$": 7,
      "%": 8,
      "&": 9,
      "'": 10,
      "(": 11,
      ")": 12,
      "*": 13,
      "+": 14,
      ",": 15,
      "-": 16,
      ".": 17,
      "/": 18,
      "0": 19,
      "1": 20,
      "2": 21,
      "3": 22,
      "4": 23,
      "5": 24,
      "6": 25,
      "7": 26,
      "8": 27,
      "9": 28,
      ":": 29,
      ";": 30,
      "<": 31,
      "=": 32,
      ">": 33,
      "?": 34,
      "@": 35,
      "A": 36,
      "B": 37,
      "C": 38,
      "D": 39,
      "E": 40,
      "F": 41,
      "G": 42,
      "H": 43,
      "I": 44,
      "J": 45,
      "K": 46,
      "L": 47,
      "M": 48,
      "N": 49,
      "O": 50,
      "P": 51,
      "Q": 52,
      "R": 53,
      "S": 54,
      "T": 55,
      "U": 56,
      "V": 57,
      "W": 58,
      "X": 59,
      "Y": 60,
      "Z": 61,
      "[": 62,
      "\\": 63,
      "]": 64,
      "^": 65,
      "_": 66,
      "`": 67,
      "a": 68,
      "b": 69,
      "c": 70,
      "d": 71,
      "e": 72,
      "f": 73,
      "g": 74,
      "h": 75,
      "i": 76,
      "j": 77,
      "k": 78,
      "l": 79,
      "m": 80,
      "n": 81,
      "o": 82,
      "p": 83,
      "q": 84,
      "r": 85,
      "s": 86,
      "t": 87,
      "u": 88,
      "v": 89,
      "w": 90,
      "x": 91,
      "y": 92,
      "z": 93,
      "{": 94,
      "}": 95,
      "~": 96,
      "": 97,
      "": 98,
      "": 99,
      "": 100,
      "": 101,
      "": 102,
      "¡": 103,
      "¢": 104,
      "£": 105,
      "¤": 106,
      "¥": 107,
      "¦": 108,
      "§": 109,
      "¨": 110,
      "©": 111,
      "ª": 112,
      "«": 113,
      "¬": 114,
      "­": 115,
      "®": 116,
      "¯": 117,
      "°": 118,
      "±": 119,
      "²": 120,
      "³": 121,
      "´": 122,
      "µ": 123,
      "¶": 124,
      "·": 125,
      "¸": 126,
      "¹": 127,
      "º": 128,
      "»": 129,
      "¼": 130,
      "½": 131,
      "¾": 132,
      "¿": 133,
      "À": 134,
      "Á": 135,
      "Â": 136,
      "Ã": 137,
      "Ä": 138,
      "Å": 139,
      "Æ": 140,
      "Ç": 141,
      "È": 142,
      "É": 143,
      "Ì": 144,
      "Í": 145,
      "Î": 146,
      "Ï": 147,
      "Ð": 148,
      "Ñ": 149,
      "Ò": 150,
      "Ó": 151,
      "Ô": 152,
      "Õ": 153,
      "Ö": 154,
      "×": 155,
      "Ø": 156,
      "Ú": 157,
      "Ü": 158,
      "ß": 159,
      "à": 160,
      "á": 161,
      "â": 162,
      "ã": 163,
      "ä": 164,
      "å": 165,
      "æ": 166,
      "ç": 167,
      "è": 168,
      "é": 169,
      "ê": 170,
      "ë": 171,
      "ì": 172,
      "í": 173,
      "î": 174,
      "ï": 175,
      "ð": 176,
      "ñ": 177,
      "ò": 178,
      "ó": 179,
      "ô": 180,
      "õ": 181,
      "ö": 182,
      "÷": 183,
      "ø": 184,
      "ù": 185,
      "ú": 186,
      "û": 187,
      "ü": 188,
      "ý": 189,
      "þ": 190,
      "ÿ": 191,
      "ā": 192,
      "ă": 193,
      "ą": 194,
      "Ć": 195,
      "ć": 196,
      "Č": 197,
      "č": 198,
      "ď": 199,
      "Đ": 200,
      "đ": 201,
      "Ē": 202,
      "ē": 203,
      "ĕ": 204,
      "ė": 205,
      "ě": 206,
      "ğ": 207,
      "ģ": 208,
      "ī": 209,
      "İ": 210,
      "ı": 211,
      "ķ": 212,
      "ļ": 213,
      "ľ": 214,
      "ł": 215,
      "ń": 216,
      "ň": 217,
      "ō": 218,
      "ŏ": 219,
      "ő": 220,
      "œ": 221,
      "ř": 222,
      "ś": 223,
      "Ş": 224,
      "ş": 225,
      "Š": 226,
      "š": 227,
      "ţ": 228,
      "ū": 229,
      "ų": 230,
      "ź": 231,
      "ż": 232,
      "Ž": 233,
      "ž": 234,
      "ƒ": 235,
      "ǎ": 236,
      "ǿ": 237,
      "ˊ": 238,
      "˚": 239,
      "́": 240,
      "΄": 241,
      "Α": 242,
      "Β": 243,
      "Ε": 244,
      "Η": 245,
      "Ι": 246,
      "Κ": 247,
      "Ν": 248,
      "Ο": 249,
      "Σ": 250,
      "Τ": 251,
      "Υ": 252,
      "ί": 253,
      "α": 254,
      "β": 255,
      "γ": 256,
      "θ": 257,
      "μ": 258,
      "ν": 259,
      "ο": 260,
      "π": 261,
      "ό": 262,
      "А": 263,
      "В": 264,
      "З": 265,
      "И": 266,
      "К": 267,
      "М": 268,
      "Н": 269,
      "П": 270,
      "С": 271,
      "Т": 272,
      "а": 273,
      "б": 274,
      "в": 275,
      "г": 276,
      "д": 277,
      "е": 278,
      "ж": 279,
      "з": 280,
      "и": 281,
      "й": 282,
      "к": 283,
      "л": 284,
      "м": 285,
      "н": 286,
      "о": 287,
      "п": 288,
      "р": 289,
      "с": 290,
      "т": 291,
      "у": 292,
      "ц": 293,
      "ч": 294,
      "ш": 295,
      "ь": 296,
      "ю": 297,
      "ї": 298,
      "ו": 299,
      "،": 300,
      "ا": 301,
      "ت": 302,
      "ج": 303,
      "ل": 304,
      "ه": 305,
      "ُ": 306,
      "ڤ": 307,
      "ँ": 308,
      "ं": 309,
      "अ": 310,
      "आ": 311,
      "इ": 312,
      "ई": 313,
      "उ": 314,
      "ऊ": 315,
      "ऋ": 316,
      "ए": 317,
      "ऐ": 318,
      "ओ": 319,
      "औ": 320,
      "क": 321,
      "ख": 322,
      "ग": 323,
      "घ": 324,
      "च": 325,
      "छ": 326,
      "ज": 327,
      "झ": 328,
      "ञ": 329,
      "ट": 330,
      "ठ": 331,
      "ड": 332,
      "ढ": 333,
      "ण": 334,
      "त": 335,
      "थ": 336,
      "द": 337,
      "ध": 338,
      "न": 339,
      "प": 340,
      "फ": 341,
      "ब": 342,
      "भ": 343,
      "म": 344,
      "य": 345,
      "र": 346,
      "ल": 347,
      "व": 348,
      "श": 349,
      "ष": 350,
      "स": 351,
      "ह": 352,
      "़": 353,
      "ा": 354,
      "ि": 355,
      "ी": 356,
      "ु": 357,
      "ू": 358,
      "ृ": 359,
      "े": 360,
      "ै": 361,
      "ॉ": 362,
      "ो": 363,
      "ौ": 364,
      "्": 365,
      "।": 366,
      "ဪ": 367,
      "ါ": 368,
      "Ⴗ": 369,
      "Ⴞ": 370,
      "​": 371,
      "‍": 372,
      "‎": 373,
      "‒": 374,
      "–": 375,
      "—": 376,
      "―": 377,
      "‘": 378,
      "’": 379,
      "“": 380,
      "”": 381,
      "„": 382,
      "†": 383,
      "•": 384,
      "…": 385,
      "‰": 386,
      "′": 387,
      "※": 388,
      "⁄": 389,
      "⁪": 390,
      "₤": 391,
      "€": 392,
      "™": 393,
      "→": 394,
      "∑": 395,
      "−": 396,
      "∗": 397,
      "∼": 398,
      "≤": 399,
      "≥": 400,
      "②": 401,
      "─": 402,
      "■": 403,
      "□": 404,
      "▪": 405,
      "►": 406,
      "◊": 407,
      "○": 408,
      "●": 409,
      "◦": 410,
      "♦": 411,
      "♪": 412,
      "♫": 413,
      "♬": 414,
      "、": 415,
      "。": 416,
      "《": 417,
      "》": 418,
      "【": 419,
      "】": 420,
      "・": 421,
      "一": 422,
      "上": 423,
      "业": 424,
      "严": 425,
      "中": 426,
      "为": 427,
      "也": 428,
      "了": 429,
      "产": 430,
      "人": 431,
      "他": 432,
      "以": 433,
      "们": 434,
      "任": 435,
      "传": 436,
      "余": 437,
      "使": 438,
      "入": 439,
      "军": 440,
      "农": 441,
      "别": 442,
      "剩": 443,
      "力": 444,
      "加": 445,
      "务": 446,
      "动": 447,
      "劳": 448,
      "化": 449,
      "口": 450,
      "向": 451,
      "和": 452,
      "响": 453,
      "因": 454,
      "国": 455,
      "城": 456,
      "增": 457,
      "够": 458,
      "大": 459,
      "奖": 460,
      "学": 461,
      "家": 462,
      "对": 463,
      "将": 464,
      "小": 465,
      "峻": 466,
      "市": 467,
      "年": 468,
      "引": 469,
      "影": 470,
      "必": 471,
      "性": 472,
      "成": 473,
      "技": 474,
      "抵": 475,
      "效": 476,
      "料": 477,
      "无": 478,
      "日": 479,
      "是": 480,
      "更": 481,
      "最": 482,
      "术": 483,
      "机": 484,
      "村": 485,
      "束": 486,
      "械": 487,
      "次": 488,
      "步": 489,
      "法": 490,
      "消": 491,
      "涌": 492,
      "渐": 493,
      "燃": 494,
      "现": 495,
      "生": 496,
      "用": 497,
      "男": 498,
      "的": 499,
      "短": 500,
      "石": 501,
      "科": 502,
      "紧": 503,
      "约": 504,
      "纷": 505,
      "组": 506,
      "统": 507,
      "缺": 508,
      "职": 509,
      "荣": 510,
      "获": 511,
      "萊": 512,
      "许": 513,
      "足": 514,
      "轻": 515,
      "过": 516,
      "这": 517,
      "进": 518,
      "迫": 519,
      "通": 520,
      "问": 521,
      "集": 522,
      "须": 523,
      "题": 524,
      "高": 525,
      "": 526,
      "": 527,
      "": 528,
      "": 529,
      "": 530,
      "": 531,
      "": 532,
      "": 533,
      "": 534,
      "": 535,
      "": 536,
      "": 537,
      "": 538,
      "": 539,
      "": 540,
      "": 541,
      "": 542,
      "": 543,
      "ﬁ": 544,
      "ﬂ": 545,
      "（": 546,
      "）": 547,
      "，": 548,
      "：": 549,
      "＜": 550,
      "＞": 551,
      "［": 552,
      "�": 553,
      "th": 554,
      "on": 555,
      "in": 556,
      "the": 557,
      "an": 558,
      "re": 559,
      "at": 560,
      "en": 561,
      "er": 562,
      "ion": 563,
      "or": 564,
      "of": 565,
      "al": 566,
      "es": 567,
      "it": 568,
      "ed": 569,
      "ou": 570,
      "and": 571,
      "is": 572,
      "to": 573,
      "ing": 574,
      "ar": 575,
      "ent": 576,
      "ation": 577,
      "ic": 578,
      "as": 579,
      "om": 580,
      "ec": 581,
      "st": 582,
      "le": 583,
      "ve": 584,
      "ro": 585,
      "for": 586,
      "ac": 587,
      "he": 588,
      "ment": 589,
      "il": 590,
      "de": 591,
      "res": 592,
      "se": 593,
      "be": 594,
      "im": 595,
      "pro": 596,
      "ol": 597,
      "con": 598,
      "su": 599,
      "ra": 600,
      "ter": 601,
      "that": 602,
      "ce": 603,
      "ly": 604,
      "ig": 605,
      "tion": 606,
      "lo": 607,
      "me": 608,
      "ad": 609,
      "un": 610,
      "ur": 611,
      "ies": 612,
      "ts": 613,
      "no": 614,
      "The": 615,
      "te": 616,
      "id": 617,
      "ver": 618,
      "you": 619,
      "com": 620,
      "tr": 621,
      "ab": 622,
      "ir": 623,
      "ith": 624,
      "ations": 625,
      "we": 626,
      "ag": 627,
      "ate": 628,
      "ul": 629,
      "ch": 630,
      "with": 631,
      "00": 632,
      "oun": 633,
      "per": 634,
      "ld": 635,
      "ity": 636,
      "are": 637,
      "por": 638,
      "wh": 639,
      "ess": 640,
      "et": 641,
      "igh": 642,
      "par": 643,
      "ex": 644,
      "by": 645,
      "ive": 646,
      "ay": 647,
      "ial": 648,
      "all": 649,
      "ap": 650,
      "mb": 651,
      "if": 652,
      "iv": 653,
      "200": 654,
      "po": 655,
      "port": 656,
      "man": 657,
      "ational": 658,
      "sh": 659,
      "ect": 660,
      "end": 661,
      "ain": 662,
      "ther": 663,
      "so": 664,
      "qu": 665,
      "In": 666,
      "ha": 667,
      "us": 668,
      "go": 669,
      "pr": 670,
      "fr": 671,
      "pl": 672,
      "ke": 673,
      "ould": 674,
      "ill": 675,
      "ut": 676,
      "iz": 677,
      "Un": 678,
      "our": 679,
      "est": 680,
      "am": 681,
      "its": 682,
      "national": 683,
      "Com": 684,
      "ne": 685,
      "uc": 686,
      "ll": 687,
      "op": 688,
      "was": 689,
      "ren": 690,
      "ff": 691,
      "tic": 692,
      "not": 693,
      "ited": 694,
      "mo": 695,
      "..": 696,
      "ary": 697,
      "mit": 698,
      "ud": 699,
      "ie": 700,
      "St": 701,
      "inc": 702,
      "wor": 703,
      "der": 704,
      "ant": 705,
      "ib": 706,
      "pe": 707,
      "out": 708,
      "ance": 709,
      "od": 710,
      "ution": 711,
      "mber": 712,
      "United": 713,
      "ust": 714,
      "do": 715,
      "have": 716,
      "lop": 717,
      "velop": 718,
      "em": 719,
      "co": 720,
      "coun": 721,
      "ist": 722,
      "eral": 723,
      "inter": 724,
      "this": 725,
      "ia": 726,
      "from": 727,
      "sion": 728,
      "act": 729,
      "ated": 730,
      "red": 731,
      "ple": 732,
      "ma": 733,
      "el": 734,
      "form": 735,
      "ates": 736,
      "reg": 737,
      "ard": 738,
      "Nations": 739,
      "prov": 740,
      "Con": 741,
      "ight": 742,
      "Th": 743,
      "ge": 744,
      "pres": 745,
      "up": 746,
      "ments": 747,
      "one": 748,
      "has": 749,
      "work": 750,
      "eneral": 751,
      "ich": 752,
      "dis": 753,
      "develop": 754,
      "ities": 755,
      "Re": 756,
      "pre": 757,
      "over": 758,
      "fe": 759,
      "sp": 760,
      "comm": 761,
      "able": 762,
      "rou": 763,
      "Sec": 764,
      "ta": 765,
      "which": 766,
      "their": 767,
      "ip": 768,
      "ace": 769,
      "cr": 770,
      "part": 771,
      "gra": 772,
      "gh": 773,
      "tee": 774,
      "now": 775,
      "will": 776,
      "countr": 777,
      "ide": 778,
      "ted": 779,
      "pos": 780,
      "ice": 781,
      "bl": 782,
      "ish": 783,
      "other": 784,
      "cont": 785,
      "19": 786,
      "ind": 787,
      "General": 788,
      "ical": 789,
      "mittee": 790,
      "vent": 791,
      "As": 792,
      "ass": 793,
      "ure": 794,
      "uman": 795,
      "It": 796,
      "la": 797,
      "ission": 798,
      "ition": 799,
      "ers": 800,
      "ans": 801,
      "ow": 802,
      "ous": 803,
      "under": 804,
      "ret": 805,
      "Committee": 806,
      "king": 807,
      "um": 808,
      "States": 809,
      "ights": 810,
      "sec": 811,
      "We": 812,
      "You": 813,
      "Wh": 814,
      "international": 815,
      "str": 816,
      "ome": 817,
      "olution": 818,
      "gan": 819,
      "been": 820,
      "fo": 821,
      "ach": 822,
      "ord": 823,
      "ear": 824,
      "incl": 825,
      "Coun": 826,
      "ision": 827,
      "ence": 828,
      "had": 829,
      "anc": 830,
      "age": 831,
      "ons": 832,
      "No": 833,
      "here": 834,
      "...": 835,
      "enc": 836,
      "low": 837,
      "min": 838,
      "gram": 839,
      "cil": 840,
      "plement": 841,
      "report": 842,
      "ganiz": 843,
      "also": 844,
      "ser": 845,
      "ild": 846,
      "would": 847,
      "should": 848,
      "pu": 849,
      "sub": 850,
      "leg": 851,
      "An": 852,
      "li": 853,
      "ty": 854,
      "ong": 855,
      "resolution": 856,
      "ative": 857,
      "oper": 858,
      "cess": 859,
      "sup": 860,
      "He": 861,
      "can": 862,
      "Council": 863,
      "mission": 864,
      "were": 865,
      "present": 866,
      "pol": 867,
      "ian": 868,
      "resp": 869,
      "sa": 870,
      "ign": 871,
      "urity": 872,
      "cons": 873,
      "ime": 874,
      "tra": 875,
      "UN": 876,
      "there": 877,
      "rel": 878,
      "reat": 879,
      "De": 880,
      "ful": 881,
      "au": 882,
      "dec": 883,
      "my": 884,
      "requ": 885,
      "partic": 886,
      "ult": 887,
      "gu": 888,
      "blic": 889,
      "rec": 890,
      "vention": 891,
      "ree": 892,
      "human": 893,
      "nment": 894,
      "fin": 895,
      "get": 896,
      "feren": 897,
      "know": 898,
      "ph": 899,
      "Pro": 900,
      "countries": 901,
      "ress": 902,
      "conc": 903,
      "ession": 904,
      "omen": 905,
      "includ": 906,
      "ep": 907,
      "ase": 908,
      "your": 909,
      "development": 910,
      "implement": 911,
      "public": 912,
      "ast": 913,
      "any": 914,
      "ech": 915,
      "need": 916,
      "oc": 917,
      "they": 918,
      "ecial": 919,
      "ose": 920,
      "rights": 921,
      "off": 922,
      "ific": 923,
      "inform": 924,
      "Secret": 925,
      "ob": 926,
      "program": 927,
      "meet": 928,
      "),": 929,
      "vie": 930,
      "add": 931,
      "Gover": 932,
      "Ch": 933,
      "view": 934,
      "ack": 935,
      "tions": 936,
      "ual": 937,
      "support": 938,
      "duc": 939,
      "ine": 940,
      "ident": 941,
      "ok": 942,
      "ning": 943,
      "ures": 944,
      "199": 945,
      "gr": 946,
      "soc": 947,
      "sy": 948,
      "some": 949,
      "ms": 950,
      "more": 951,
      "organiz": 952,
      "Inter": 953,
      "very": 954,
      "them": 955,
      "int": 956,
      "ven": 957,
      "just": 958,
      "session": 959,
      "right": 960,
      "such": 961,
      "roup": 962,
      "ular": 963,
      "thing": 964,
      "ility": 965,
      "ors": 966,
      "ces": 967,
      "und": 968,
      "pers": 969,
      "semb": 970,
      "ue": 971,
      "who": 972,
      "ef": 973,
      "inv": 974,
      "sembly": 975,
      "way": 976,
      "ating": 977,
      "rough": 978,
      "ting": 979,
      "bet": 980,
      "region": 981,
      "don": 982,
      "fore": 983,
      "ory": 984,
      "abl": 985,
      "Assembly": 986,
      "including": 987,
      "ied": 988,
      "ound": 989,
      "aff": 990,
      "Commission": 991,
      "vi": 992,
      "again": 993,
      "women": 994,
      "stem": 995,
      "year": 996,
      "stit": 997,
      "contin": 998,
      "imin": 999,
      "serv": 1000,
      "ft": 1001,
      "issu": 1002,
      "but": 1003,
      "dra": 1004,
      "eff": 1005,
      "like": 1006,
      "meeting": 1007,
      "what": 1008,
      ").": 1009,
      "cent": 1010,
      "omic": 1011,
      "Ad": 1012,
      "law": 1013,
      "about": 1014,
      "ective": 1015,
      "State": 1016,
      "fl": 1017,
      "med": 1018,
      "Dec": 1019,
      "those": 1020,
      "ection": 1021,
      "Secretary": 1022,
      "bo": 1023,
      "see": 1024,
      "new": 1025,
      "ives": 1026,
      "What": 1027,
      "system": 1028,
      "bas": 1029,
      "av": 1030,
      "ference": 1031,
      "member": 1032,
      "his": 1033,
      "vel": 1034,
      "information": 1035,
      "ember": 1036,
      "into": 1037,
      "time": 1038,
      "ens": 1039,
      "main": 1040,
      "Convention": 1041,
      "made": 1042,
      "ond": 1043,
      "And": 1044,
      "ablish": 1045,
      "contr": 1046,
      "concer": 1047,
      "Mr": 1048,
      "operation": 1049,
      "use": 1050,
      "activ": 1051,
      "econ": 1052,
      "through": 1053,
      "Par": 1054,
      "mar": 1055,
      "ople": 1056,
      "gy": 1057,
      "lear": 1058,
      "mon": 1059,
      "well": 1060,
      "comp": 1061,
      "ict": 1062,
      "cus": 1063,
      "child": 1064,
      "establish": 1065,
      "ari": 1066,
      "commun": 1067,
      "commend": 1068,
      "ah": 1069,
      "ally": 1070,
      "10": 1071,
      "implementation": 1072,
      "International": 1073,
      "ire": 1074,
      "lar": 1075,
      "tw": 1076,
      "peace": 1077,
      "Is": 1078,
      "exp": 1079,
      "Ac": 1080,
      "sure": 1081,
      "ible": 1082,
      "come": 1083,
      "Government": 1084,
      "na": 1085,
      "ices": 1086,
      "than": 1087,
      "provid": 1088,
      "trans": 1089,
      "ollow": 1090,
      "echn": 1091,
      "ile": 1092,
      "against": 1093,
      "sel": 1094,
      "col": 1095,
      "inte": 1096,
      "particular": 1097,
      "This": 1098,
      "pri": 1099,
      "got": 1100,
      "istr": 1101,
      "ak": 1102,
      "ticle": 1103,
      "gover": 1104,
      "take": 1105,
      "recommend": 1106,
      "fir": 1107,
      "her": 1108,
      "prom": 1109,
      "ject": 1110,
      "appro": 1111,
      "ween": 1112,
      "level": 1113,
      "ider": 1114,
      "sit": 1115,
      "ru": 1116,
      "vis": 1117,
      "Sp": 1118,
      "peri": 1119,
      "him": 1120,
      "agra": 1121,
      "import": 1122,
      "ink": 1123,
      "effor": 1124,
      "agraph": 1125,
      "adop": 1126,
      "Wor": 1127,
      "assist": 1128,
      "could": 1129,
      "stand": 1130,
      "meas": 1131,
      "ges": 1132,
      "between": 1133,
      "land": 1134,
      "activities": 1135,
      "ry": 1136,
      "ner": 1137,
      "bal": 1138,
      "order": 1139,
      "tain": 1140,
      "day": 1141,
      "di": 1142,
      "Security": 1143,
      "people": 1144,
      "For": 1145,
      "mat": 1146,
      "may": 1147,
      "fric": 1148,
      "des": 1149,
      "air": 1150,
      "Afric": 1151,
      "ism": 1152,
      "cap": 1153,
      "did": 1154,
      "follow": 1155,
      "ources": 1156,
      "acc": 1157,
      "Republic": 1158,
      "stitution": 1159,
      "security": 1160,
      "terr": 1161,
      "process": 1162,
      "reas": 1163,
      "financ": 1164,
      "paragraph": 1165,
      "these": 1166,
      "represent": 1167,
      "ange": 1168,
      "That": 1169,
      "ise": 1170,
      "set": 1171,
      "country": 1172,
      "polic": 1173,
      "regard": 1174,
      "ann": 1175,
      "draft": 1176,
      "consider": 1177,
      "techn": 1178,
      "urther": 1179,
      "ural": 1180,
      "att": 1181,
      "only": 1182,
      "itical": 1183,
      "decision": 1184,
      "aw": 1185,
      "ail": 1186,
      "Develop": 1187,
      "ilit": 1188,
      "olo": 1189,
      "bu": 1190,
      "ough": 1191,
      "loc": 1192,
      "ship": 1193,
      "alth": 1194,
      "efforts": 1195,
      "organizations": 1196,
      "Co": 1197,
      "thor": 1198,
      "measures": 1199,
      "where": 1200,
      "prot": 1201,
      "uation": 1202,
      "als": 1203,
      "cooperation": 1204,
      "two": 1205,
      "nu": 1206,
      "ects": 1207,
      "ks": 1208,
      "ters": 1209,
      "Off": 1210,
      "ized": 1211,
      "Ar": 1212,
      "ext": 1213,
      "rest": 1214,
      "Ex": 1215,
      "tak": 1216,
      "call": 1217,
      "Or": 1218,
      "programme": 1219,
      "concern": 1220,
      "provision": 1221,
      "ected": 1222,
      "regional": 1223,
      "ency": 1224,
      "sc": 1225,
      "uring": 1226,
      "mer": 1227,
      "af": 1228,
      "15": 1229,
      "vers": 1230,
      "Conference": 1231,
      "economic": 1232,
      "then": 1233,
      "when": 1234,
      "cu": 1235,
      "must": 1236,
      "20": 1237,
      "led": 1238,
      "ev": 1239,
      "viol": 1240,
      "soci": 1241,
      "cur": 1242,
      "bec": 1243,
      "fac": 1244,
      "first": 1245,
      "want": 1246,
      "particip": 1247,
      "ced": 1248,
      "ble": 1249,
      "rele": 1250,
      "wn": 1251,
      "promo": 1252,
      "tal": 1253,
      "ization": 1254,
      "contrib": 1255,
      "crimin": 1256,
      "ards": 1257,
      "Al": 1258,
      "good": 1259,
      "equ": 1260,
      "fund": 1261,
      "number": 1262,
      "resources": 1263,
      "All": 1264,
      "high": 1265,
      "most": 1266,
      "ques": 1267,
      "non": 1268,
      "children": 1269,
      "address": 1270,
      "vant": 1271,
      "ho": 1272,
      "Development": 1273,
      "pur": 1274,
      "old": 1275,
      "itor": 1276,
      "vir": 1277,
      "make": 1278,
      "resident": 1279,
      "Human": 1280,
      "ability": 1281,
      "group": 1282,
      "propos": 1283,
      "agement": 1284,
      "enda": 1285,
      "shall": 1286,
      "ix": 1287,
      "dep": 1288,
      "12": 1289,
      "Rights": 1290,
      "arr": 1291,
      "government": 1292,
      "bod": 1293,
      "ordin": 1294,
      "II": 1295,
      "vo": 1296,
      "assistance": 1297,
      "ute": 1298,
      "person": 1299,
      "ys": 1300,
      "taken": 1301,
      "2005": 1302,
      "sur": 1303,
      "2001": 1304,
      "But": 1305,
      "cl": 1306,
      "iti": 1307,
      "ivil": 1308,
      "financial": 1309,
      "Ne": 1310,
      "dif": 1311,
      "author": 1312,
      "emp": 1313,
      "ause": 1314,
      "years": 1315,
      "lobal": 1316,
      "commit": 1317,
      "Group": 1318,
      "she": 1319,
      "accord": 1320,
      "further": 1321,
      "plic": 1322,
      "br": 1323,
      "Bo": 1324,
      "provide": 1325,
      "ports": 1326,
      "mes": 1327,
      "bel": 1328,
      "period": 1329,
      "ium": 1330,
      "members": 1331,
      "special": 1332,
      "onment": 1333,
      "educ": 1334,
      "pt": 1335,
      "article": 1336,
      "plan": 1337,
      "issues": 1338,
      "ten": 1339,
      "reng": 1340,
      "app": 1341,
      "respons": 1342,
      "uro": 1343,
      "Special": 1344,
      "Le": 1345,
      "back": 1346,
      "2002": 1347,
      "action": 1348,
      "ang": 1349,
      "ince": 1350,
      "2000": 1351,
      "social": 1352,
      "state": 1353,
      "sign": 1354,
      "ensure": 1355,
      "world": 1356,
      "many": 1357,
      "President": 1358,
      "ieve": 1359,
      "being": 1360,
      "ving": 1361,
      "going": 1362,
      "effective": 1363,
      "continu": 1364,
      "ient": 1365,
      "ples": 1366,
      "ite": 1367,
      "item": 1368,
      "poss": 1369,
      "press": 1370,
      "They": 1371,
      "loy": 1372,
      "mand": 1373,
      "Min": 1374,
      "At": 1375,
      "2004": 1376,
      "Ag": 1377,
      "lif": 1378,
      "dition": 1379,
      "docu": 1380,
      "review": 1381,
      "build": 1382,
      "accoun": 1383,
      "ining": 1384,
      "legal": 1385,
      "developing": 1386,
      "ref": 1387,
      "There": 1388,
      "hel": 1389,
      "vironment": 1390,
      "read": 1391,
      "icial": 1392,
      "ank": 1393,
      "said": 1394,
      "ved": 1395,
      "ub": 1396,
      "2003": 1397,
      "atives": 1398,
      "think": 1399,
      "streng": 1400,
      "relevant": 1401,
      "tle": 1402,
      "within": 1403,
      "ina": 1404,
      "rect": 1405,
      "place": 1406,
      "13": 1407,
      "ss": 1408,
      "ants": 1409,
      "actic": 1410,
      "gress": 1411,
      "udget": 1412,
      "Euro": 1413,
      "2006": 1414,
      "row": 1415,
      "rent": 1416,
      "request": 1417,
      "struc": 1418,
      "ious": 1419,
      "ily": 1420,
      "ety": 1421,
      "To": 1422,
      "Oh": 1423,
      "Part": 1424,
      "Organiz": 1425,
      "iven": 1426,
      "produc": 1427,
      "programmes": 1428,
      "self": 1429,
      "Europe": 1430,
      "political": 1431,
      "reed": 1432,
      "December": 1433,
      "keep": 1434,
      "adopted": 1435,
      "Office": 1436,
      "Tr": 1437,
      "ore": 1438,
      "services": 1439,
      "11": 1440,
      "let": 1441,
      "ministr": 1442,
      "institution": 1443,
      "how": 1444,
      "confl": 1445,
      "Member": 1446,
      "So": 1447,
      "provided": 1448,
      "strate": 1449,
      "party": 1450,
      "before": 1451,
      "say": 1452,
      "consu": 1453,
      "Pe": 1454,
      "Mar": 1455,
      "illion": 1456,
      "spec": 1457,
      "deleg": 1458,
      "capac": 1459,
      "En": 1460,
      "related": 1461,
      "every": 1462,
      "jo": 1463,
      "after": 1464,
      "imp": 1465,
      "ariat": 1466,
      "addition": 1467,
      "ude": 1468,
      "civil": 1469,
      "terror": 1470,
      "less": 1471,
      "ention": 1472,
      "ness": 1473,
      "practic": 1474,
      "community": 1475,
      "held": 1476,
      "tex": 1477,
      "areas": 1478,
      "Go": 1479,
      "situation": 1480,
      "ality": 1481,
      "respect": 1482,
      "health": 1483,
      "ater": 1484,
      "cour": 1485,
      "important": 1486,
      "atic": 1487,
      "agree": 1488,
      "Program": 1489,
      "continue": 1490,
      "parties": 1491,
      "fact": 1492,
      "nec": 1493,
      "uch": 1494,
      "cho": 1495,
      "based": 1496,
      "ibility": 1497,
      "Cha": 1498,
      "cas": 1499,
      "access": 1500,
      "sect": 1501,
      "14": 1502,
      "ines": 1503,
      "ize": 1504,
      "pa": 1505,
      "uclear": 1506,
      "ulation": 1507,
      "long": 1508,
      "staff": 1509,
      "invest": 1510,
      "treat": 1511,
      "30": 1512,
      "during": 1513,
      "reco": 1514,
      "ort": 1515,
      "oura": 1516,
      "Pr": 1517,
      "great": 1518,
      "IC": 1519,
      "ings": 1520,
      "dom": 1521,
      "Se": 1522,
      "management": 1523,
      "2007": 1524,
      "fra": 1525,
      "among": 1526,
      "both": 1527,
      "put": 1528,
      "global": 1529,
      "enn": 1530,
      "down": 1531,
      "Pal": 1532,
      "budget": 1533,
      "used": 1534,
      "necess": 1535,
      "lt": 1536,
      "help": 1537,
      "Programme": 1538,
      "integr": 1539,
      "ender": 1540,
      "Rec": 1541,
      "policy": 1542,
      "ared": 1543,
      "urn": 1544,
      "lead": 1545,
      "text": 1546,
      "inci": 1547,
      "rol": 1548,
      "agenda": 1549,
      "eah": 1550,
      "persons": 1551,
      "ral": 1552,
      "appropri": 1553,
      "gn": 1554,
      "clo": 1555,
      "proble": 1556,
      "tern": 1557,
      "submit": 1558,
      "accordance": 1559,
      "protection": 1560,
      "Organization": 1561,
      "ilities": 1562,
      "ban": 1563,
      "erv": 1564,
      "increas": 1565,
      "Africa": 1566,
      "18": 1567,
      "force": 1568,
      "education": 1569,
      "progress": 1570,
      "role": 1571,
      "discus": 1572,
      "arian": 1573,
      "On": 1574,
      "ired": 1575,
      "ister": 1576,
      "remain": 1577,
      "same": 1578,
      "ffic": 1579,
      "men": 1580,
      "Palest": 1581,
      "account": 1582,
      "following": 1583,
      "building": 1584,
      "ification": 1585,
      "mocr": 1586,
      "depend": 1587,
      "ield": 1588,
      "16": 1589,
      "own": 1590,
      "cor": 1591,
      "World": 1592,
      "working": 1593,
      "rece": 1594,
      "capacity": 1595,
      "une": 1596,
      "wever": 1597,
      "del": 1598,
      "contain": 1599,
      "exam": 1600,
      "val": 1601,
      "She": 1602,
      "current": 1603,
      "ID": 1604,
      "If": 1605,
      "ave": 1606,
      "Soc": 1607,
      "general": 1608,
      "does": 1609,
      "ief": 1610,
      "possible": 1611,
      "full": 1612,
      "prior": 1613,
      "change": 1614,
      "ird": 1615,
      "ims": 1616,
      "fam": 1617,
      "stain": 1618,
      "ified": 1619,
      "mework": 1620,
      "cre": 1621,
      "May": 1622,
      "environment": 1623,
      "coordin": 1624,
      "established": 1625,
      "require": 1626,
      "recommendations": 1627,
      "ade": 1628,
      "rit": 1629,
      "17": 1630,
      "stat": 1631,
      "three": 1632,
      "ential": 1633,
      "appropriate": 1634,
      "2008": 1635,
      "ked": 1636,
      "Econ": 1637,
      "assess": 1638,
      "without": 1639,
      "jud": 1640,
      "proced": 1641,
      "ber": 1642,
      "Amer": 1643,
      "second": 1644,
      "ify": 1645,
      "Gu": 1646,
      "rael": 1647,
      "Israel": 1648,
      "ug": 1649,
      "bi": 1650,
      "wel": 1651,
      "million": 1652,
      "cla": 1653,
      "Americ": 1654,
      "sustain": 1655,
      "conflict": 1656,
      "training": 1657,
      "Parties": 1658,
      "cost": 1659,
      "weap": 1660,
      "governmental": 1661,
      "25": 1662,
      "since": 1663,
      "case": 1664,
      "necessary": 1665,
      "unc": 1666,
      "post": 1667,
      "look": 1668,
      "indic": 1669,
      "ca": 1670,
      "Economic": 1671,
      "itarian": 1672,
      "reports": 1673,
      "initi": 1674,
      "princi": 1675,
      "coll": 1676,
      "eration": 1677,
      "care": 1678,
      "top": 1679,
      "express": 1680,
      "art": 1681,
      "ivers": 1682,
      "document": 1683,
      "ese": 1684,
      "New": 1685,
      "nuclear": 1686,
      "echan": 1687,
      "consult": 1688,
      "My": 1689,
      "avail": 1690,
      "even": 1691,
      "Chair": 1692,
      "real": 1693,
      "Well": 1694,
      "kill": 1695,
      "uly": 1696,
      "ended": 1697,
      "ensive": 1698,
      "invol": 1699,
      "hal": 1700,
      "olog": 1701,
      "rab": 1702,
      ");": 1703,
      "interest": 1704,
      "comple": 1705,
      "six": 1706,
      "eng": 1707,
      "car": 1708,
      "gon": 1709,
      "because": 1710,
      "upon": 1711,
      "obl": 1712,
      "head": 1713,
      "outh": 1714,
      "African": 1715,
      "find": 1716,
      "while": 1717,
      "Social": 1718,
      "lan": 1719,
      "iss": 1720,
      "ove": 1721,
      "give": 1722,
      "Yeah": 1723,
      "ben": 1724,
      "oblig": 1725,
      "les": 1726,
      "wa": 1727,
      "istic": 1728,
      "ennium": 1729,
      "How": 1730,
      "jor": 1731,
      "June": 1732,
      "Fr": 1733,
      "esp": 1734,
      "laration": 1735,
      "icult": 1736,
      "life": 1737,
      "technical": 1738,
      "concl": 1739,
      "wer": 1740,
      "exist": 1741,
      "bro": 1742,
      "ances": 1743,
      "ology": 1744,
      "iving": 1745,
      "gonna": 1746,
      "imate": 1747,
      "employ": 1748,
      "crimination": 1749,
      "gender": 1750,
      "mun": 1751,
      "cer": 1752,
      "violence": 1753,
      "each": 1754,
      "pop": 1755,
      "ules": 1756,
      "mechan": 1757,
      "provisions": 1758,
      "rease": 1759,
      "airs": 1760,
      "Pol": 1761,
      "Let": 1762,
      "isl": 1763,
      "enh": 1764,
      "European": 1765,
      "ready": 1766,
      "applic": 1767,
      "though": 1768,
      "dat": 1769,
      "basis": 1770,
      "recogn": 1771,
      "ot": 1772,
      "still": 1773,
      "unt": 1774,
      "last": 1775,
      "approach": 1776,
      "priv": 1777,
      "deb": 1778,
      "consideration": 1779,
      "ves": 1780,
      "encies": 1781,
      "issue": 1782,
      "Do": 1783,
      "termin": 1784,
      "compl": 1785,
      "Arab": 1786,
      "vari": 1787,
      "field": 1788,
      "imes": 1789,
      "CO": 1790,
      "ris": 1791,
      "institutions": 1792,
      "framework": 1793,
      "Fin": 1794,
      "tocol": 1795,
      "pay": 1796,
      "position": 1797,
      "Per": 1798,
      "Palestin": 1799,
      "too": 1800,
      "needs": 1801,
      "contribution": 1802,
      "trade": 1803,
      "Add": 1804,
      "irl": 1805,
      "major": 1806,
      "nor": 1807,
      "prove": 1808,
      "23": 1809,
      "ged": 1810,
      "ick": 1811,
      "ages": 1812,
      "lit": 1813,
      "much": 1814,
      "body": 1815,
      "keeping": 1816,
      "mor": 1817,
      "encoura": 1818,
      "nments": 1819,
      "acts": 1820,
      "istan": 1821,
      "fully": 1822,
      "Dis": 1823,
      "hand": 1824,
      "exper": 1825,
      "Board": 1826,
      "tell": 1827,
      "ivid": 1828,
      "sol": 1829,
      "ateral": 1830,
      "question": 1831,
      "note": 1832,
      "Cent": 1833,
      "milit": 1834,
      "condition": 1835,
      "stud": 1836,
      "groups": 1837,
      "war": 1838,
      "delegation": 1839,
      "fer": 1840,
      "Working": 1841,
      "Just": 1842,
      "iation": 1843,
      "Oc": 1844,
      "key": 1845,
      "four": 1846,
      "importance": 1847,
      "July": 1848,
      "gen": 1849,
      "Cour": 1850,
      "point": 1851,
      "aren": 1852,
      "partment": 1853,
      "ways": 1854,
      "ived": 1855,
      "ilateral": 1856,
      "spe": 1857,
      "000": 1858,
      "suc": 1859,
      "Fund": 1860,
      "include": 1861,
      "ope": 1862,
      "list": 1863,
      "benef": 1864,
      "clear": 1865,
      "ale": 1866,
      "play": 1867,
      "girl": 1868,
      "concerned": 1869,
      "Ira": 1870,
      "Me": 1871,
      "National": 1872,
      "humanitarian": 1873,
      "Iraq": 1874,
      "Reg": 1875,
      "adv": 1876,
      "resolutions": 1877,
      "control": 1878,
      "lim": 1879,
      "half": 1880,
      "available": 1881,
      "sector": 1882,
      "annex": 1883,
      "cept": 1884,
      "tem": 1885,
      "legisl": 1886,
      "light": 1887,
      "ital": 1888,
      "char": 1889,
      "1999": 1890,
      "nat": 1891,
      "usion": 1892,
      "meetings": 1893,
      "26": 1894,
      "increase": 1895,
      "ake": 1896,
      "uture": 1897,
      "allen": 1898,
      "portun": 1899,
      "pover": 1900,
      "policies": 1901,
      "Law": 1902,
      "grow": 1903,
      "cult": 1904,
      "reduc": 1905,
      "specific": 1906,
      "24": 1907,
      "conduc": 1908,
      "Court": 1909,
      "mult": 1910,
      "differen": 1911,
      "Ho": 1912,
      "cases": 1913,
      "South": 1914,
      "arma": 1915,
      "understand": 1916,
      "hold": 1917,
      "poverty": 1918,
      "Don": 1919,
      "recent": 1920,
      "Can": 1921,
      "Union": 1922,
      "particularly": 1923,
      "reach": 1924,
      "ined": 1925,
      "taking": 1926,
      "chool": 1927,
      "means": 1928,
      "idered": 1929,
      "TA": 1930,
      "happ": 1931,
      "area": 1932,
      "considered": 1933,
      "Cr": 1934,
      "uge": 1935,
      "para": 1936,
      "achieve": 1937,
      "Action": 1938,
      "Sep": 1939,
      "ceed": 1940,
      "uck": 1941,
      "wish": 1942,
      "focus": 1943,
      "line": 1944,
      "mall": 1945,
      "result": 1946,
      "never": 1947,
      "Af": 1948,
      "local": 1949,
      "erc": 1950,
      "tember": 1951,
      "better": 1952,
      "iness": 1953,
      "ividual": 1954,
      "jects": 1955,
      "September": 1956,
      "continued": 1957,
      "sequ": 1958,
      "future": 1959,
      "manent": 1960,
      "Article": 1961,
      "weapons": 1962,
      "noted": 1963,
      "improve": 1964,
      "appe": 1965,
      "terrorism": 1966,
      "ided": 1967,
      "ecut": 1968,
      "Palestinian": 1969,
      "allow": 1970,
      "acy": 1971,
      "pris": 1972,
      "IV": 1973,
      "strateg": 1974,
      "Secretariat": 1975,
      "cup": 1976,
      "official": 1977,
      "proposed": 1978,
      "tow": 1979,
      "armament": 1980,
      "opportun": 1981,
      "mean": 1982,
      "atory": 1983,
      "struct": 1984,
      "communic": 1985,
      "comb": 1986,
      "Declaration": 1987,
      "monitor": 1988,
      "prevent": 1989,
      "fif": 1990,
      "Women": 1991,
      "strengthen": 1992,
      "mark": 1993,
      "given": 1994,
      "amoun": 1995,
      "promote": 1996,
      "society": 1997,
      "22": 1998,
      "subst": 1999,
      "teur": 2000,
      "trib": 2001,
      "ross": 2002,
      "individual": 2003,
      "ences": 2004,
      "Come": 2005,
      "stru": 2006,
      "Ind": 2007,
      "Res": 2008,
      "Hey": 2009,
      "porteur": 2010,
      "data": 2011,
      "submitted": 2012,
      "nership": 2013,
      "High": 2014,
      "term": 2015,
      "preh": 2016,
      "Tra": 2017,
      "Protocol": 2018,
      "eria": 2019,
      "open": 2020,
      "participation": 2021,
      "Nove": 2022,
      "November": 2023,
      "”.": 2024,
      "mocratic": 2025,
      "Sub": 2026,
      "Sup": 2027,
      "func": 2028,
      "net": 2029,
      "--": 2030,
      "military": 2031,
      "administr": 2032,
      "Governments": 2033,
      "determin": 2034,
      "With": 2035,
      "Report": 2036,
      "challen": 2037,
      "month": 2038,
      "pose": 2039,
      "developed": 2040,
      "truc": 2041,
      "idence": 2042,
      "Ter": 2043,
      "bodies": 2044,
      "project": 2045,
      "really": 2046,
      "tober": 2047,
      "vol": 2048,
      "October": 2049,
      "ption": 2050,
      "igr": 2051,
      "might": 2052,
      "ents": 2053,
      "agencies": 2054,
      "har": 2055,
      "Represent": 2056,
      "pursu": 2057,
      "abor": 2058,
      "something": 2059,
      "izing": 2060,
      "proved": 2061,
      "Rap": 2062,
      "little": 2063,
      "reform": 2064,
      "various": 2065,
      "Yes": 2066,
      "plac": 2067,
      "instru": 2068,
      "school": 2069,
      "prehensive": 2070,
      "Mo": 2071,
      "required": 2072,
      "Act": 2073,
      "representative": 2074,
      "Aff": 2075,
      "rug": 2076,
      "comes": 2077,
      "discussion": 2078,
      "ins": 2079,
      "step": 2080,
      "Department": 2081,
      "nel": 2082,
      "fa": 2083,
      "making": 2084,
      "sustainable": 2085,
      "El": 2086,
      "Ok": 2087,
      "attention": 2088,
      "found": 2089,
      "proper": 2090,
      "ath": 2091,
      "context": 2092,
      "water": 2093,
      "ouse": 2094,
      "God": 2095,
      "facilit": 2096,
      "ES": 2097,
      "agreed": 2098,
      "levels": 2099,
      "Mission": 2100,
      "ists": 2101,
      "resul": 2102,
      "Rapporteur": 2103,
      "whe": 2104,
      "DP": 2105,
      "roduc": 2106,
      "success": 2107,
      "didn": 2108,
      "different": 2109,
      "Serv": 2110,
      "dr": 2111,
      "ier": 2112,
      "21": 2113,
      "27": 2114,
      "called": 2115,
      "oney": 2116,
      "Nor": 2117,
      "power": 2118,
      "bus": 2119,
      "60": 2120,
      "Why": 2121,
      "free": 2122,
      "igen": 2123,
      "towards": 2124,
      "ecutive": 2125,
      "contained": 2126,
      "subject": 2127,
      "bit": 2128,
      "third": 2129,
      "igenous": 2130,
      "28": 2131,
      "IN": 2132,
      "requested": 2133,
      "move": 2134,
      "sex": 2135,
      "above": 2136,
      "Jo": 2137,
      "Lo": 2138,
      "50": 2139,
      "Jan": 2140,
      "amb": 2141,
      "ators": 2142,
      "nal": 2143,
      "ask": 2144,
      "ides": 2145,
      "ator": 2146,
      "vict": 2147,
      "econom": 2148,
      "coming": 2149,
      "active": 2150,
      "family": 2151,
      "signific": 2152,
      "iend": 2153,
      "rules": 2154,
      "private": 2155,
      "actions": 2156,
      "direct": 2157,
      "representatives": 2158,
      "conditions": 2159,
      "operations": 2160,
      "discrimination": 2161,
      "tar": 2162,
      "Im": 2163,
      "statement": 2164,
      "Peace": 2165,
      "impact": 2166,
      "lines": 2167,
      "deal": 2168,
      "mater": 2169,
      "prec": 2170,
      "sum": 2171,
      "whether": 2172,
      "However": 2173,
      "secret": 2174,
      "31": 2175,
      "additional": 2176,
      "effect": 2177,
      "establishment": 2178,
      "ever": 2179,
      "already": 2180,
      "gether": 2181,
      "Affairs": 2182,
      "prepar": 2183,
      "another": 2184,
      "Apr": 2185,
      "ward": 2186,
      "believe": 2187,
      "April": 2188,
      "March": 2189,
      "far": 2190,
      "Okay": 2191,
      "Pre": 2192,
      "visory": 2193,
      "concerning": 2194,
      "organization": 2195,
      "negot": 2196,
      "defin": 2197,
      "earch": 2198,
      "estic": 2199,
      "compet": 2200,
      "entit": 2201,
      "small": 2202,
      "org": 2203,
      "authorities": 2204,
      "prep": 2205,
      "See": 2206,
      "requirements": 2207,
      "uss": 2208,
      "Di": 2209,
      "relating": 2210,
      "knowled": 2211,
      "posed": 2212,
      "aim": 2213,
      "show": 2214,
      "kind": 2215,
      "mandate": 2216,
      "vious": 2217,
      "ulations": 2218,
      "experi": 2219,
      "gue": 2220,
      "ource": 2221,
      "55": 2222,
      "affir": 2223,
      "population": 2224,
      "anal": 2225,
      "thening": 2226,
      "ying": 2227,
      "space": 2228,
      "ically": 2229,
      "name": 2230,
      "pen": 2231,
      "occup": 2232,
      "responsibility": 2233,
      "Mon": 2234,
      "sent": 2235,
      "Not": 2236,
      "ww": 2237,
      "itive": 2238,
      "expressed": 2239,
      "elec": 2240,
      "itation": 2241,
      "police": 2242,
      "ually": 2243,
      "Char": 2244,
      "Minister": 2245,
      "achie": 2246,
      "Sh": 2247,
      "serious": 2248,
      "refl": 2249,
      "together": 2250,
      "friend": 2251,
      "ground": 2252,
      "Man": 2253,
      "Be": 2254,
      "ran": 2255,
      "Fed": 2256,
      "done": 2257,
      "orry": 2258,
      "29": 2259,
      "significant": 2260,
      "addressed": 2261,
      "China": 2262,
      "”,": 2263,
      "best": 2264,
      "certain": 2265,
      "wait": 2266,
      "status": 2267,
      "ustr": 2268,
      "especial": 2269,
      "took": 2270,
      "armed": 2271,
      "Who": 2272,
      "Representative": 2273,
      "especially": 2274,
      "systems": 2275,
      "therefore": 2276,
      "agreement": 2277,
      "rule": 2278,
      "arms": 2279,
      "ues": 2280,
      "doing": 2281,
      "ging": 2282,
      "East": 2283,
      "istry": 2284,
      "comprehensive": 2285,
      "threat": 2286,
      "Chairman": 2287,
      "Ann": 2288,
      "def": 2289,
      "cir": 2290,
      "regular": 2291,
      "sen": 2292,
      "entitled": 2293,
      "az": 2294,
      "den": 2295,
      "record": 2296,
      "decided": 2297,
      "198": 2298,
      "claim": 2299,
      "close": 2300,
      "igned": 2301,
      "iate": 2302,
      "projects": 2303,
      "gent": 2304,
      "traffic": 2305,
      "total": 2306,
      "Where": 2307,
      "principles": 2308,
      "love": 2309,
      "cred": 2310,
      "veral": 2311,
      "IS": 2312,
      "lands": 2313,
      "matter": 2314,
      "Now": 2315,
      "Mal": 2316,
      "These": 2317,
      "poin": 2318,
      "ste": 2319,
      "word": 2320,
      "course": 2321,
      "oples": 2322,
      "America": 2323,
      "justice": 2324,
      "date": 2325,
      "uary": 2326,
      "bring": 2327,
      "ched": 2328,
      "UNC": 2329,
      "quate": 2330,
      "isms": 2331,
      "mind": 2332,
      "why": 2333,
      "obligations": 2334,
      "ians": 2335,
      "IDS": 2336,
      "prof": 2337,
      "aud": 2338,
      "problems": 2339,
      "business": 2340,
      "cy": 2341,
      "dated": 2342,
      "next": 2343,
      "independ": 2344,
      "emer": 2345,
      "monitoring": 2346,
      "technology": 2347,
      "coordination": 2348,
      "hol": 2349,
      "migr": 2350,
      "problem": 2351,
      "reedom": 2352,
      "substant": 2353,
      "uce": 2354,
      "ialo": 2355,
      "domestic": 2356,
      "January": 2357,
      "mental": 2358,
      "US": 2359,
      "Pan": 2360,
      "Sum": 2361,
      "diff": 2362,
      "five": 2363,
      "example": 2364,
      "food": 2365,
      "included": 2366,
      "asp": 2367,
      "57": 2368,
      "won": 2369,
      "criminal": 2370,
      "home": 2371,
      "AIDS": 2372,
      "object": 2373,
      "circ": 2374,
      "pot": 2375,
      "Ms": 2376,
      "Treat": 2377,
      "proceed": 2378,
      "gl": 2379,
      "ests": 2380,
      "existing": 2381,
      "terms": 2382,
      "increased": 2383,
      "strong": 2384,
      "ele": 2385,
      "alia": 2386,
      "hear": 2387,
      "gin": 2388,
      "Sy": 2389,
      "peacekeeping": 2390,
      "carr": 2391,
      "Executive": 2392,
      "lack": 2393,
      "40": 2394,
      "ri": 2395,
      "Fe": 2396,
      "sto": 2397,
      "ialogue": 2398,
      "personnel": 2399,
      "Russ": 2400,
      "Vi": 2401,
      "onse": 2402,
      "received": 2403,
      "relations": 2404,
      "ending": 2405,
      "commitment": 2406,
      "mechanisms": 2407,
      "results": 2408,
      "ai": 2409,
      "refuge": 2410,
      "One": 2411,
      "os": 2412,
      "explo": 2413,
      "wide": 2414,
      "procedures": 2415,
      "Child": 2416,
      "aware": 2417,
      "practices": 2418,
      "sed": 2419,
      "cal": 2420,
      "alling": 2421,
      "standards": 2422,
      "legislation": 2423,
      "around": 2424,
      "strengthening": 2425,
      "behalf": 2426,
      "refer": 2427,
      "funds": 2428,
      "reporting": 2429,
      "eval": 2430,
      "When": 2431,
      "amount": 2432,
      "guide": 2433,
      "large": 2434,
      "wit": 2435,
      "conf": 2436,
      "investig": 2437,
      "rat": 2438,
      "least": 2439,
      "Some": 2440,
      "today": 2441,
      "material": 2442,
      "ton": 2443,
      "vision": 2444,
      "thod": 2445,
      "):": 2446,
      "contributions": 2447,
      "aged": 2448,
      "indigenous": 2449,
      "adoption": 2450,
      "bab": 2451,
      "regarding": 2452,
      "Direct": 2453,
      "2009": 2454,
      "PA": 2455,
      "Aug": 2456,
      "ological": 2457,
      "HIV": 2458,
      "sing": 2459,
      "negoti": 2460,
      "stitute": 2461,
      "risk": 2462,
      "ming": 2463,
      "miss": 2464,
      "return": 2465,
      "event": 2466,
      "employment": 2467,
      "Democratic": 2468,
      "money": 2469,
      "costs": 2470,
      "tail": 2471,
      "August": 2472,
      "away": 2473,
      "respond": 2474,
      "secretariat": 2475,
      "Inform": 2476,
      "aster": 2477,
      "consultations": 2478,
      "associ": 2479,
      "service": 2480,
      "disarmament": 2481,
      "58": 2482,
      "sim": 2483,
      "due": 2484,
      "decisions": 2485,
      "rais": 2486,
      "common": 2487,
      ".\"": 2488,
      "Ma": 2489,
      "yet": 2490,
      "King": 2491,
      "providing": 2492,
      "Permanent": 2493,
      "Car": 2494,
      "56": 2495,
      "ler": 2496,
      "CR": 2497,
      "freedom": 2498,
      "sug": 2499,
      "wee": 2500,
      "ancing": 2501,
      "EF": 2502,
      "oman": 2503,
      "growth": 2504,
      "Are": 2505,
      "CN": 2506,
      "previous": 2507,
      "59": 2508,
      "bur": 2509,
      "protect": 2510,
      "Afgh": 2511,
      "His": 2512,
      "mal": 2513,
      "increasing": 2514,
      "past": 2515,
      "response": 2516,
      "Administr": 2517,
      "Ministry": 2518,
      "emphas": 2519,
      "ream": 2520,
      "contract": 2521,
      "placed": 2522,
      "ici": 2523,
      "pat": 2524,
      "introduc": 2525,
      "bru": 2526,
      "ering": 2527,
      "CC": 2528,
      "reported": 2529,
      "prevention": 2530,
      "assessment": 2531,
      "feel": 2532,
      "ador": 2533,
      "maintain": 2534,
      "raz": 2535,
      "dam": 2536,
      "quar": 2537,
      "challenges": 2538,
      "che": 2539,
      "fil": 2540,
      "joint": 2541,
      "Gen": 2542,
      "Ro": 2543,
      "ior": 2544,
      "house": 2545,
      "jur": 2546,
      "night": 2547,
      "expert": 2548,
      "abour": 2549,
      "Afghan": 2550,
      "missions": 2551,
      "illennium": 2552,
      "peoples": 2553,
      "dialogue": 2554,
      "cam": 2555,
      "ck": 2556,
      "wr": 2557,
      "difficult": 2558,
      "ON": 2559,
      "Jap": 2560,
      ".,": 2561,
      "1998": 2562,
      "eas": 2563,
      "become": 2564,
      "happen": 2565,
      "method": 2566,
      "Bel": 2567,
      "needed": 2568,
      "drug": 2569,
      "iter": 2570,
      "Japan": 2571,
      "ars": 2572,
      "initiatives": 2573,
      "ivision": 2574,
      "apprec": 2575,
      "mod": 2576,
      "unal": 2577,
      "Li": 2578,
      "adequate": 2579,
      "gest": 2580,
      "quality": 2581,
      "arrange": 2582,
      "igin": 2583,
      "conn": 2584,
      "Col": 2585,
      "priority": 2586,
      "bruary": 2587,
      "essential": 2588,
      "raft": 2589,
      "cultural": 2590,
      "February": 2591,
      "ER": 2592,
      "ada": 2593,
      "ners": 2594,
      "mob": 2595,
      "market": 2596,
      "vote": 2597,
      "Allah": 2598,
      "always": 2599,
      "environmental": 2600,
      "semin": 2601,
      "knowledge": 2602,
      "Trib": 2603,
      "Director": 2604,
      "integration": 2605,
      "ger": 2606,
      "partnership": 2607,
      "provides": 2608,
      "room": 2609,
      "transfer": 2610,
      "ither": 2611,
      "Good": 2612,
      "AN": 2613,
      "Advisory": 2614,
      "victims": 2615,
      "relig": 2616,
      "broad": 2617,
      "several": 2618,
      "prim": 2619,
      "estim": 2620,
      "forms": 2621,
      "Other": 2622,
      "consist": 2623,
      "observ": 2624,
      "Plan": 2625,
      "documents": 2626,
      "mention": 2627,
      "lease": 2628,
      "While": 2629,
      "cris": 2630,
      "link": 2631,
      "research": 2632,
      "analys": 2633,
      "reason": 2634,
      "crime": 2635,
      "girls": 2636,
      "strategy": 2637,
      "Commissioner": 2638,
      "safe": 2639,
      "matters": 2640,
      "Look": 2641,
      "promotion": 2642,
      "application": 2643,
      "agreements": 2644,
      "income": 2645,
      "obj": 2646,
      "ours": 2647,
      "Ger": 2648,
      "section": 2649,
      "Millennium": 2650,
      "leave": 2651,
      "idd": 2652,
      "cover": 2653,
      "shop": 2654,
      "iance": 2655,
      "requests": 2656,
      "biennium": 2657,
      "UNDP": 2658,
      "things": 2659,
      "trafficking": 2660,
      "rac": 2661,
      "contribut": 2662,
      "ii": 2663,
      "Agenda": 2664,
      "practice": 2665,
      "foreign": 2666,
      "io": 2667,
      "convention": 2668,
      "AC": 2669,
      "whole": 2670,
      "forces": 2671,
      "ently": 2672,
      "fight": 2673,
      "erb": 2674,
      "okay": 2675,
      "aring": 2676,
      "chan": 2677,
      "Get": 2678,
      "bre": 2679,
      "thought": 2680,
      "selves": 2681,
      "63": 2682,
      "exerc": 2683,
      "ateg": 2684,
      "debt": 2685,
      "uel": 2686,
      "Str": 2687,
      "rup": 2688,
      "lam": 2689,
      "anda": 2690,
      "rain": 2691,
      "ame": 2692,
      "treatment": 2693,
      "property": 2694,
      "instruments": 2695,
      "potential": 2696,
      "prepared": 2697,
      "aran": 2698,
      "final": 2699,
      "enhance": 2700,
      "graph": 2701,
      "hope": 2702,
      "having": 2703,
      "however": 2704,
      "run": 2705,
      "others": 2706,
      "host": 2707,
      "committed": 2708,
      "Charter": 2709,
      "hib": 2710,
      "Treaty": 2711,
      "Summit": 2712,
      "rate": 2713,
      "Tur": 2714,
      "recommended": 2715,
      "istics": 2716,
      "ener": 2717,
      "struction": 2718,
      "Bank": 2719,
      "turn": 2720,
      "Kingdom": 2721,
      "equality": 2722,
      "reduction": 2723,
      "DC": 2724,
      "purpose": 2725,
      "uh": 2726,
      "Ap": 2727,
      "speak": 2728,
      "Panel": 2729,
      "draw": 2730,
      "Stat": 2731,
      "fifty": 2732,
      "thern": 2733,
      "conclusion": 2734,
      "until": 2735,
      "product": 2736,
      "ork": 2737,
      "Under": 2738,
      "ulated": 2739,
      "responsible": 2740,
      "ago": 2741,
      "Agree": 2742,
      "treaty": 2743,
      "cle": 2744,
      "sorry": 2745,
      "detail": 2746,
      "anything": 2747,
      "Ass": 2748,
      "living": 2749,
      "atch": 2750,
      "tradition": 2751,
      "ensu": 2752,
      "statements": 2753,
      "Annex": 2754,
      "Terr": 2755,
      "cit": 2756,
      "iveness": 2757,
      "ished": 2758,
      "fav": 2759,
      "live": 2760,
      "ash": 2761,
      "seven": 2762,
      "Cor": 2763,
      "fail": 2764,
      "ene": 2765,
      "Congo": 2766,
      "procedure": 2767,
      "uses": 2768,
      "days": 2769,
      "greater": 2770,
      "organized": 2771,
      "Please": 2772,
      "few": 2773,
      "met": 2774,
      "objectives": 2775,
      "months": 2776,
      "investment": 2777,
      "cannot": 2778,
      "office": 2779,
      "iction": 2780,
      "Russian": 2781,
      "Ab": 2782,
      "laws": 2783,
      "ured": 2784,
      "talk": 2785,
      "pret": 2786,
      "aking": 2787,
      "AT": 2788,
      "Fif": 2789,
      "Acc": 2790,
      "lot": 2791,
      "promoting": 2792,
      "York": 2793,
      "ture": 2794,
      "inst": 2795,
      "Service": 2796,
      "rap": 2797,
      "settle": 2798,
      "III": 2799,
      "Trans": 2800,
      "early": 2801,
      "Further": 2802,
      "partners": 2803,
      "univers": 2804,
      "deed": 2805,
      "61": 2806,
      "Your": 2807,
      "forward": 2808,
      "loss": 2809,
      "thus": 2810,
      "forman": 2811,
      "proposals": 2812,
      "function": 2813,
      "face": 2814,
      "aimed": 2815,
      "ticles": 2816,
      "Meet": 2817,
      "star": 2818,
      "equip": 2819,
      "steps": 2820,
      "belie": 2821,
      "stop": 2822,
      "understanding": 2823,
      "solution": 2824,
      "affected": 2825,
      "administrative": 2826,
      "death": 2827,
      "attack": 2828,
      "suring": 2829,
      "youn": 2830,
      "sets": 2831,
      "involved": 2832,
      "mediate": 2833,
      "eva": 2834,
      "funding": 2835,
      "Pu": 2836,
      "abilities": 2837,
      "rought": 2838,
      "left": 2839,
      "planning": 2840,
      "job": 2841,
      "stress": 2842,
      "funda": 2843,
      "Information": 2844,
      "dist": 2845,
      "elimin": 2846,
      "Tribunal": 2847,
      "annual": 2848,
      "ics": 2849,
      "respective": 2850,
      "lia": 2851,
      "Israeli": 2852,
      "chap": 2853,
      "dol": 2854,
      "strategies": 2855,
      "langu": 2856,
      "principle": 2857,
      "formance": 2858,
      "please": 2859,
      "mother": 2860,
      "son": 2861,
      "natural": 2862,
      "uations": 2863,
      "energy": 2864,
      "anced": 2865,
      ".”": 2866,
      "ana": 2867,
      "opportunity": 2868,
      "grad": 2869,
      "implementing": 2870,
      "equal": 2871,
      "conclud": 2872,
      "letter": 2873,
      "pursuant": 2874,
      "deli": 2875,
      "Geneva": 2876,
      "told": 2877,
      "Coven": 2878,
      "emb": 2879,
      "ya": 2880,
      "EC": 2881,
      "recon": 2882,
      "team": 2883,
      "govern": 2884,
      "Trade": 2885,
      "approved": 2886,
      "operational": 2887,
      "vere": 2888,
      "GO": 2889,
      "IT": 2890,
      "outs": 2891,
      "contribute": 2892,
      "facilitate": 2893,
      "Commun": 2894,
      "quarters": 2895,
      "Asia": 2896,
      "kes": 2897,
      "violations": 2898,
      "Em": 2899,
      "production": 2900,
      "issued": 2901,
      "bad": 2902,
      "Global": 2903,
      "using": 2904,
      "short": 2905,
      "Central": 2906,
      "omb": 2907,
      "goals": 2908,
      "62": 2909,
      "Islam": 2910,
      "fficient": 2911,
      "alls": 2912,
      "origin": 2913,
      "hon": 2914,
      "proposal": 2915,
      "exchange": 2916,
      "ders": 2917,
      "expected": 2918,
      "phas": 2919,
      "plans": 2920,
      "questions": 2921,
      "Head": 2922,
      "enty": 2923,
      "pass": 2924,
      "Leban": 2925,
      "More": 2926,
      "multilateral": 2927,
      "often": 2928,
      "ilar": 2929,
      "fundamental": 2930,
      "itories": 2931,
      "Recalling": 2932,
      "icit": 2933,
      "nothing": 2934,
      "Implement": 2935,
      "By": 2936,
      "counter": 2937,
      "ico": 2938,
      "deploy": 2939,
      "Bur": 2940,
      "study": 2941,
      "Division": 2942,
      "ling": 2943,
      "ilization": 2944,
      "Agreement": 2945,
      "Accord": 2946,
      "experts": 2947,
      "IL": 2948,
      "Afghanistan": 2949,
      "Techn": 2950,
      "54": 2951,
      "performance": 2952,
      "supported": 2953,
      "gal": 2954,
      "Thank": 2955,
      "irst": 2956,
      "sexual": 2957,
      "identify": 2958,
      "hard": 2959,
      "wrong": 2960,
      "accept": 2961,
      "ension": 2962,
      "vised": 2963,
      "carry": 2964,
      "table": 2965,
      "aspects": 2966,
      "communication": 2967,
      "Covenant": 2968,
      "ulner": 2969,
      "ICEF": 2970,
      "People": 2971,
      "nature": 2972,
      "design": 2973,
      "enter": 2974,
      "Forum": 2975,
      "Her": 2976,
      "iminal": 2977,
      "combat": 2978,
      "poses": 2979,
      "big": 2980,
      "que": 2981,
      "recommendation": 2982,
      "TAD": 2983,
      "utes": 2984,
      "offic": 2985,
      "agr": 2986,
      "crisis": 2987,
      "immediate": 2988,
      "basic": 2989,
      "American": 2990,
      "UNCTAD": 2991,
      "Sud": 2992,
      "dead": 2993,
      "demand": 2994,
      "ferences": 2995,
      "reme": 2996,
      "target": 2997,
      "arrangements": 2998,
      "enforce": 2999,
      "yes": 3000,
      "infr": 3001,
      "young": 3002,
      "nam": 3003,
      "conduct": 3004,
      "notes": 3005,
      "Criminal": 3006,
      "__": 3007,
      "once": 3008,
      "seen": 3009,
      "transport": 3010,
      "former": 3011,
      "liferation": 3012,
      "Hel": 3013,
      "AS": 3014,
      "Coordin": 3015,
      "Federation": 3016,
      "undertaken": 3017,
      "ply": 3018,
      "gets": 3019,
      "complete": 3020,
      "begin": 3021,
      "sufficient": 3022,
      "try": 3023,
      "gency": 3024,
      "197": 3025,
      "Environment": 3026,
      "vulner": 3027,
      "enjo": 3028,
      "communities": 3029,
      "lat": 3030,
      "Cub": 3031,
      "financing": 3032,
      "itory": 3033,
      "sla": 3034,
      "equipment": 3035,
      "carried": 3036,
      "enable": 3037,
      "First": 3038,
      "Centre": 3039,
      "awareness": 3040,
      "ensuring": 3041,
      "Cooperation": 3042,
      "claims": 3043,
      "Ko": 3044,
      "Cont": 3045,
      "hip": 3046,
      "tran": 3047,
      "opportunities": 3048,
      "Prot": 3049,
      "collabor": 3050,
      "standing": 3051,
      "came": 3052,
      "positive": 3053,
      "limited": 3054,
      "Canada": 3055,
      "TH": 3056,
      "ience": 3057,
      "stay": 3058,
      "Did": 3059,
      "Oper": 3060,
      "Sudan": 3061,
      "pun": 3062,
      "izes": 3063,
      "ologies": 3064,
      "Meeting": 3065,
      "offices": 3066,
      "negotiations": 3067,
      "rop": 3068,
      "1997": 3069,
      "eth": 3070,
      "strategic": 3071,
      "mary": 3072,
      "icts": 3073,
      "cell": 3074,
      "remains": 3075,
      "analysis": 3076,
      "ires": 3077,
      "ased": 3078,
      "guaran": 3079,
      "det": 3080,
      "delegations": 3081,
      "posts": 3082,
      "distrib": 3083,
      "stated": 3084,
      "cooper": 3085,
      "Implementation": 3086,
      "Agency": 3087,
      "ones": 3088,
      "views": 3089,
      "hab": 3090,
      "mechanism": 3091,
      "aid": 3092,
      "mic": 3093,
      "separ": 3094,
      "guidelines": 3095,
      "economy": 3096,
      "currently": 3097,
      "reserv": 3098,
      "grant": 3099,
      "poor": 3100,
      "commitments": 3101,
      "soon": 3102,
      "iddle": 3103,
      "Lat": 3104,
      "ali": 3105,
      "France": 3106,
      "rural": 3107,
      "According": 3108,
      "dollar": 3109,
      "gener": 3110,
      "recognized": 3111,
      "mom": 3112,
      "astruc": 3113,
      "kid": 3114,
      "referred": 3115,
      "itself": 3116,
      "Non": 3117,
      "consequ": 3118,
      "Then": 3119,
      "Kore": 3120,
      "concerns": 3121,
      "experience": 3122,
      "evidence": 3123,
      "border": 3124,
      "fire": 3125,
      "participate": 3126,
      "connection": 3127,
      "road": 3128,
      "descr": 3129,
      "authority": 3130,
      "committee": 3131,
      "share": 3132,
      "iber": 3133,
      "UNICEF": 3134,
      "citiz": 3135,
      "ica": 3136,
      "territory": 3137,
      "49": 3138,
      "manner": 3139,
      "mis": 3140,
      "sparen": 3141,
      "changes": 3142,
      "mentioned": 3143,
      "Region": 3144,
      "ibilities": 3145,
      "ned": 3146,
      "Crime": 3147,
      "ama": 3148,
      "cep": 3149,
      "implemented": 3150,
      "33": 3151,
      "suff": 3152,
      "articles": 3153,
      "seem": 3154,
      "Review": 3155,
      "Second": 3156,
      "side": 3157,
      "ped": 3158,
      "paragraphs": 3159,
      "father": 3160,
      "terrorist": 3161,
      "below": 3162,
      "48": 3163,
      "independent": 3164,
      "OS": 3165,
      "refugees": 3166,
      "Iran": 3167,
      "thank": 3168,
      "endit": 3169,
      "laun": 3170,
      "Ge": 3171,
      "ik": 3172,
      "wo": 3173,
      "ientific": 3174,
      "iting": 3175,
      "court": 3176,
      "Mex": 3177,
      "brought": 3178,
      "alleg": 3179,
      "dut": 3180,
      "evaluation": 3181,
      "spo": 3182,
      "circum": 3183,
      "Pers": 3184,
      "writ": 3185,
      "proving": 3186,
      "India": 3187,
      "EP": 3188,
      "Fore": 3189,
      "Tim": 3190,
      "AR": 3191,
      "value": 3192,
      "asked": 3193,
      "exercise": 3194,
      "lad": 3195,
      "Braz": 3196,
      "Wel": 3197,
      "late": 3198,
      "items": 3199,
      "overall": 3200,
      "inion": 3201,
      "benefits": 3202,
      "processes": 3203,
      "compliance": 3204,
      "ination": 3205,
      "During": 3206,
      "identified": 3207,
      "custo": 3208,
      "Ob": 3209,
      "cru": 3210,
      "infrastruc": 3211,
      "stances": 3212,
      "workers": 3213,
      "Brazil": 3214,
      "reference": 3215,
      "achieved": 3216,
      "fuc": 3217,
      "individuals": 3218,
      "arch": 3219,
      "outcome": 3220,
      "apply": 3221,
      "oking": 3222,
      "conference": 3223,
      "famil": 3224,
      "mass": 3225,
      "climate": 3226,
      "enough": 3227,
      "informed": 3228,
      "themselves": 3229,
      "Ku": 3230,
      "electr": 3231,
      "tees": 3232,
      "everything": 3233,
      "appl": 3234,
      "HR": 3235,
      "pression": 3236,
      "officials": 3237,
      "judicial": 3238,
      "Justice": 3239,
      "transparen": 3240,
      "AL": 3241,
      "Som": 3242,
      "Here": 3243,
      "guy": 3244,
      "substantive": 3245,
      "via": 3246,
      "effort": 3247,
      "quests": 3248,
      "brief": 3249,
      "network": 3250,
      "ze": 3251,
      "bor": 3252,
      "ays": 3253,
      "untary": 3254,
      "functions": 3255,
      "according": 3256,
      "pointed": 3257,
      "sat": 3258,
      "ecting": 3259,
      "Requests": 3260,
      "calls": 3261,
      "Islamic": 3262,
      "agricult": 3263,
      "CE": 3264,
      "Great": 3265,
      "PR": 3266,
      "facilities": 3267,
      "primary": 3268,
      "37": 3269,
      "assets": 3270,
      "Also": 3271,
      "qual": 3272,
      "100": 3273,
      "Constitution": 3274,
      "recommends": 3275,
      "enjoy": 3276,
      "Party": 3277,
      "Br": 3278,
      "book": 3279,
      "workshop": 3280,
      "hist": 3281,
      "mical": 3282,
      "ication": 3283,
      "45": 3284,
      "fish": 3285,
      "regions": 3286,
      "alloc": 3287,
      "imum": 3288,
      "Protection": 3289,
      "inking": 3290,
      "informal": 3291,
      "crimes": 3292,
      "roll": 3293,
      "Germany": 3294,
      "ector": 3295,
      "Since": 3296,
      "rather": 3297,
      "governance": 3298,
      "whose": 3299,
      "site": 3300,
      "effectively": 3301,
      "integrated": 3302,
      "Foreign": 3303,
      "mine": 3304,
      "provisional": 3305,
      "truction": 3306,
      "objective": 3307,
      "stream": 3308,
      "presented": 3309,
      "appoint": 3310,
      "47": 3311,
      "paid": 3312,
      "dest": 3313,
      "nic": 3314,
      "expl": 3315,
      "orture": 3316,
      "Te": 3317,
      "olid": 3318,
      "else": 3319,
      "juris": 3320,
      "Assist": 3321,
      "outside": 3322,
      "ert": 3323,
      "debate": 3324,
      "wed": 3325,
      "aries": 3326,
      "complain": 3327,
      "suggest": 3328,
      "Lord": 3329,
      "expendit": 3330,
      "Sc": 3331,
      "Civil": 3332,
      "saf": 3333,
      "later": 3334,
      "demon": 3335,
      "cop": 3336,
      "preparation": 3337,
      "ife": 3338,
      "mend": 3339,
      "categ": 3340,
      "transition": 3341,
      "killed": 3342,
      "susp": 3343,
      "Public": 3344,
      "ania": 3345,
      "situations": 3346,
      "institutional": 3347,
      "commission": 3348,
      "urement": 3349,
      "benefit": 3350,
      "ensus": 3351,
      "heard": 3352,
      "fourth": 3353,
      "either": 3354,
      "critical": 3355,
      "aut": 3356,
      "leader": 3357,
      "flow": 3358,
      "fuck": 3359,
      "wanted": 3360,
      "Management": 3361,
      "Educ": 3362,
      "tered": 3363,
      "ongoing": 3364,
      "opinion": 3365,
      "purposes": 3366,
      "www": 3367,
      "tries": 3368,
      "Univers": 3369,
      "ont": 3370,
      "initiative": 3371,
      "secut": 3372,
      "ung": 3373,
      "deep": 3374,
      "1996": 3375,
      "urban": 3376,
      "entities": 3377,
      "week": 3378,
      "involve": 3379,
      "aly": 3380,
      "tool": 3381,
      "Mexico": 3382,
      "safety": 3383,
      "fine": 3384,
      "Korea": 3385,
      "appreciation": 3386,
      "infrastructure": 3387,
      "mut": 3388,
      "incor": 3389,
      "subs": 3390,
      "circumstances": 3391,
      "sessions": 3392,
      "NGO": 3393,
      "enforcement": 3394,
      "Yu": 3395,
      "AM": 3396,
      "rench": 3397,
      "reduce": 3398,
      "trust": 3399,
      "kets": 3400,
      "labour": 3401,
      "proceedings": 3402,
      "onic": 3403,
      "anger": 3404,
      "ruption": 3405,
      "minor": 3406,
      "UNM": 3407,
      "start": 3408,
      "Any": 3409,
      "Cuba": 3410,
      "Health": 3411,
      "excl": 3412,
      "ham": 3413,
      "Koso": 3414,
      "words": 3415,
      "option": 3416,
      "guys": 3417,
      "effectiveness": 3418,
      "resol": 3419,
      "compens": 3420,
      "conven": 3421,
      "paren": 3422,
      "Ph": 3423,
      "goods": 3424,
      "profession": 3425,
      "cause": 3426,
      "tor": 3427,
      "avo": 3428,
      "altern": 3429,
      "stability": 3430,
      "Bar": 3431,
      "Our": 3432,
      "Sal": 3433,
      "guid": 3434,
      "obser": 3435,
      "doesn": 3436,
      "liament": 3437,
      "Such": 3438,
      "acqu": 3439,
      "capital": 3440,
      "restr": 3441,
      "range": 3442,
      "encourage": 3443,
      "35": 3444,
      "Mor": 3445,
      "welcome": 3446,
      "reaffir": 3447,
      "resource": 3448,
      "Right": 3449,
      "holders": 3450,
      "fucking": 3451,
      "Section": 3452,
      "elements": 3453,
      "DA": 3454,
      "Of": 3455,
      "throughout": 3456,
      "Children": 3457,
      "ably": 3458,
      "1995": 3459,
      "relationship": 3460,
      "internal": 3461,
      "indicated": 3462,
      "effects": 3463,
      "higher": 3464,
      "verse": 3465,
      "amend": 3466,
      "Institute": 3467,
      "Fo": 3468,
      "ses": 3469,
      "bean": 3470,
      "prohib": 3471,
      "incorpor": 3472,
      "ites": 3473,
      "hours": 3474,
      "Kosovo": 3475,
      "compan": 3476,
      "ery": 3477,
      "developments": 3478,
      "twenty": 3479,
      "plications": 3480,
      "portion": 3481,
      "obligation": 3482,
      "Inv": 3483,
      "sir": 3484,
      "woman": 3485,
      "ishment": 3486,
      "seek": 3487,
      "Every": 3488,
      "credit": 3489,
      "TO": 3490,
      "Brit": 3491,
      "wise": 3492,
      "shit": 3493,
      "prison": 3494,
      "Aust": 3495,
      "stake": 3496,
      "communications": 3497,
      "extent": 3498,
      "administration": 3499,
      "itial": 3500,
      "direc": 3501,
      "satis": 3502,
      "obtain": 3503,
      "fair": 3504,
      "hous": 3505,
      "vered": 3506,
      "Regional": 3507,
      "democr": 3508,
      "Countries": 3509,
      "conducted": 3510,
      "media": 3511,
      "Ha": 3512,
      "bey": 3513,
      "revised": 3514,
      "interests": 3515,
      "dy": 3516,
      "bid": 3517,
      "Force": 3518,
      "Dar": 3519,
      "Carib": 3520,
      "ule": 3521,
      "trial": 3522,
      "Caribbean": 3523,
      "responsibilities": 3524,
      "Unit": 3525,
      "create": 3526,
      "Rel": 3527,
      "conflicts": 3528,
      "priorities": 3529,
      "intergovernmental": 3530,
      "sources": 3531,
      "forest": 3532,
      "continues": 3533,
      "Guine": 3534,
      "activity": 3535,
      "Austral": 3536,
      "39": 3537,
      "times": 3538,
      "UNF": 3539,
      "civilian": 3540,
      "West": 3541,
      "enary": 3542,
      "Political": 3543,
      "inno": 3544,
      "dollars": 3545,
      "chang": 3546,
      "Pac": 3547,
      "sectors": 3548,
      "teen": 3549,
      "44": 3550,
      "families": 3551,
      "core": 3552,
      "leaders": 3553,
      "Bec": 3554,
      "Code": 3555,
      "similar": 3556,
      "scope": 3557,
      "jurisd": 3558,
      "curement": 3559,
      "proliferation": 3560,
      "ought": 3561,
      "dou": 3562,
      "rates": 3563,
      "Nig": 3564,
      "destruction": 3565,
      "sal": 3566,
      "subsequ": 3567,
      "infl": 3568,
      "boy": 3569,
      "compon": 3570,
      "reland": 3571,
      "improving": 3572,
      "rend": 3573,
      "Ireland": 3574,
      "continuing": 3575,
      "67": 3576,
      "invited": 3577,
      "zer": 3578,
      "38": 3579,
      "looking": 3580,
      "expand": 3581,
      "determination": 3582,
      "omin": 3583,
      "typ": 3584,
      "Pak": 3585,
      "fifth": 3586,
      "comed": 3587,
      "central": 3588,
      "EN": 3589,
      "Guinea": 3590,
      "fill": 3591,
      "Lib": 3592,
      "forced": 3593,
      "gun": 3594,
      "went": 3595,
      "Pacific": 3596,
      "34": 3597,
      "parts": 3598,
      "Syr": 3599,
      "wan": 3600,
      "technologies": 3601,
      "Cy": 3602,
      "Draft": 3603,
      "ustain": 3604,
      "Sustain": 3605,
      "aps": 3606,
      "French": 3607,
      "flo": 3608,
      "round": 3609,
      "web": 3610,
      "Support": 3611,
      "consolid": 3612,
      "Doc": 3613,
      "ered": 3614,
      "ulate": 3615,
      "achieving": 3616,
      "cross": 3617,
      "itable": 3618,
      "acter": 3619,
      "1990": 3620,
      "reached": 3621,
      "discussions": 3622,
      "Cap": 3623,
      "phys": 3624,
      "elections": 3625,
      "mitted": 3626,
      "balance": 3627,
      "Pakistan": 3628,
      "migration": 3629,
      "ising": 3630,
      "tro": 3631,
      "ternal": 3632,
      "ieth": 3633,
      "lives": 3634,
      "aving": 3635,
      "introduced": 3636,
      "alone": 3637,
      "recru": 3638,
      "test": 3639,
      "welcomed": 3640,
      "tempor": 3641,
      "fig": 3642,
      "permanent": 3643,
      "UNO": 3644,
      "Six": 3645,
      "peaceful": 3646,
      "ipal": 3647,
      "officers": 3648,
      "participants": 3649,
      "initial": 3650,
      "break": 3651,
      "teach": 3652,
      "along": 3653,
      "Third": 3654,
      "firm": 3655,
      "Joh": 3656,
      "urgent": 3657,
      "sho": 3658,
      "anti": 3659,
      "mess": 3660,
      "vey": 3661,
      "happened": 3662,
      "paign": 3663,
      "conv": 3664,
      "ather": 3665,
      "Those": 3666,
      "occur": 3667,
      "Lebanon": 3668,
      "reiter": 3669,
      "arily": 3670,
      "regime": 3671,
      "indicators": 3672,
      "known": 3673,
      "medical": 3674,
      "paper": 3675,
      "Discrimination": 3676,
      "ethnic": 3677,
      "comments": 3678,
      "Au": 3679,
      "sn": 3680,
      "points": 3681,
      "regulations": 3682,
      "associated": 3683,
      "specialized": 3684,
      "ierra": 3685,
      "sanc": 3686,
      "gosla": 3687,
      "Yugosla": 3688,
      "gain": 3689,
      "acting": 3690,
      "Sierra": 3691,
      "Rw": 3692,
      "advance": 3693,
      "treaties": 3694,
      "remo": 3695,
      "forth": 3696,
      "near": 3697,
      "multi": 3698,
      "voluntary": 3699,
      "ories": 3700,
      "saw": 3701,
      "fem": 3702,
      "avoid": 3703,
      "bilateral": 3704,
      "scale": 3705,
      "class": 3706,
      "Services": 3707,
      "Sustainable": 3708,
      "ature": 3709,
      "creation": 3710,
      "lost": 3711,
      "augh": 3712,
      "true": 3713,
      "grat": 3714,
      "standard": 3715,
      "Timor": 3716,
      "consensus": 3717,
      "ye": 3718,
      "dissemin": 3719,
      "sk": 3720,
      "covered": 3721,
      "Leone": 3722,
      "ibed": 3723,
      "UNEP": 3724,
      "centres": 3725,
      "universal": 3726,
      "created": 3727,
      "travel": 3728,
      "53": 3729,
      "visit": 3730,
      "Because": 3731,
      "establishing": 3732,
      "displaced": 3733,
      "51": 3734,
      "mbass": 3735,
      "actors": 3736,
      "religious": 3737,
      "tt": 3738,
      "witness": 3739,
      "abuse": 3740,
      "73": 3741,
      "isters": 3742,
      "settlement": 3743,
      "collaboration": 3744,
      "arbit": 3745,
      "guidance": 3746,
      "Middle": 3747,
      "spoke": 3748,
      "successful": 3749,
      "Four": 3750,
      "signed": 3751,
      "eigh": 3752,
      "fulfil": 3753,
      "Exper": 3754,
      "illegal": 3755,
      "Official": 3756,
      "ij": 3757,
      "illicit": 3758,
      "remember": 3759,
      "enna": 3760,
      "adopt": 3761,
      "delivery": 3762,
      "46": 3763,
      "Egy": 3764,
      "chec": 3765,
      "ptional": 3766,
      "tenance": 3767,
      "ustrial": 3768,
      "IA": 3769,
      "character": 3770,
      "Egypt": 3771,
      "serve": 3772,
      "productive": 3773,
      "addressing": 3774,
      "extra": 3775,
      "Disarmament": 3776,
      "EA": 3777,
      "sound": 3778,
      "instrument": 3779,
      "dones": 3780,
      "erad": 3781,
      "stage": 3782,
      "economies": 3783,
      "Prevention": 3784,
      "methods": 3785,
      "trying": 3786,
      "Indones": 3787,
      "idea": 3788,
      "UNH": 3789,
      "estimated": 3790,
      "Follow": 3791,
      "uted": 3792,
      "Latin": 3793,
      "oto": 3794,
      "band": 3795,
      "weapon": 3796,
      "troop": 3797,
      "lex": 3798,
      "nin": 3799,
      "Administrative": 3800,
      "encouraged": 3801,
      "After": 3802,
      "vulnerable": 3803,
      "hur": 3804,
      "makes": 3805,
      "plom": 3806,
      "Slo": 3807,
      "states": 3808,
      "advant": 3809,
      "actually": 3810,
      "UNHCR": 3811,
      "ster": 3812,
      "hell": 3813,
      "iary": 3814,
      "almost": 3815,
      "entire": 3816,
      "plenary": 3817,
      "surance": 3818,
      "Kuwait": 3819,
      "export": 3820,
      "iciency": 3821,
      "follows": 3822,
      "longer": 3823,
      "consistent": 3824,
      "crit": 3825,
      "getting": 3826,
      "usive": 3827,
      "concluded": 3828,
      "morning": 3829,
      "Am": 3830,
      "alk": 3831,
      "someone": 3832,
      "cut": 3833,
      "Maybe": 3834,
      "front": 3835,
      "tax": 3836,
      "Author": 3837,
      "includes": 3838,
      "1994": 3839,
      "consequences": 3840,
      "cand": 3841,
      "campaign": 3842,
      "legislative": 3843,
      "imately": 3844,
      "directly": 3845,
      "sens": 3846,
      "vereign": 3847,
      "ait": 3848,
      "practical": 3849,
      "Australia": 3850,
      "perform": 3851,
      "relation": 3852,
      "talking": 3853,
      "OK": 3854,
      "du": 3855,
      "beyond": 3856,
      "leadership": 3857,
      "36": 3858,
      "events": 3859,
      "agg": 3860,
      "civilians": 3861,
      "achievement": 3862,
      "Eth": 3863,
      "sixth": 3864,
      "goal": 3865,
      "supporting": 3866,
      "materials": 3867,
      "Elimin": 3868,
      "explain": 3869,
      "stead": 3870,
      "EU": 3871,
      "implications": 3872,
      "jurisdiction": 3873,
      "single": 3874,
      "structure": 3875,
      "billion": 3876,
      "gol": 3877,
      "trend": 3878,
      "raised": 3879,
      "tel": 3880,
      "akes": 3881,
      "Prom": 3882,
      "challenge": 3883,
      "citizens": 3884,
      "ciliation": 3885,
      "IF": 3886,
      "improved": 3887,
      "emergency": 3888,
      "Italy": 3889,
      "OU": 3890,
      "takes": 3891,
      "Vienna": 3892,
      "brother": 3893,
      "seventh": 3894,
      "hop": 3895,
      "ised": 3896,
      "const": 3897,
      "supply": 3898,
      "Governing": 3899,
      "recently": 3900,
      "maintenance": 3901,
      "ique": 3902,
      "useful": 3903,
      "distribution": 3904,
      "appeal": 3905,
      "win": 3906,
      "Chief": 3907,
      "dered": 3908,
      "adjust": 3909,
      "spir": 3910,
      "pread": 3911,
      "ane": 3912,
      "ictions": 3913,
      "zone": 3914,
      "ece": 3915,
      "presence": 3916,
      "minister": 3917,
      "Have": 3918,
      "IM": 3919,
      "onia": 3920,
      "ua": 3921,
      "ograph": 3922,
      "dem": 3923,
      "neg": 3924,
      "clearly": 3925,
      "ival": 3926,
      "Education": 3927,
      "temporary": 3928,
      "Associ": 3929,
      "definition": 3930,
      "abs": 3931,
      "yourself": 3932,
      "Cult": 3933,
      "Po": 3934,
      "eal": 3935,
      "model": 3936,
      "die": 3937,
      "fun": 3938,
      "Furthermore": 3939,
      "ison": 3940,
      "duce": 3941,
      "arrest": 3942,
      "appear": 3943,
      "sell": 3944,
      "requires": 3945,
      "language": 3946,
      "ions": 3947,
      "Goals": 3948,
      "applicable": 3949,
      "Joint": 3950,
      "compensation": 3951,
      "persp": 3952,
      "rence": 3953,
      "effic": 3954,
      "77": 3955,
      "Nuclear": 3956,
      "products": 3957,
      "ees": 3958,
      "conferences": 3959,
      "Ambass": 3960,
      "Weap": 3961,
      "sovereign": 3962,
      "traditional": 3963,
      "Gre": 3964,
      "reasons": 3965,
      "sixty": 3966,
      "OR": 3967,
      "subsid": 3968,
      "32": 3969,
      "Ky": 3970,
      "majority": 3971,
      "Headquarters": 3972,
      "CD": 3973,
      "danger": 3974,
      "Territ": 3975,
      "Territory": 3976,
      "decl": 3977,
      "IP": 3978,
      "across": 3979,
      "paras": 3980,
      "lerance": 3981,
      "applied": 3982,
      "aver": 3983,
      "duty": 3984,
      "occupied": 3985,
      "log": 3986,
      "bound": 3987,
      "attem": 3988,
      "doc": 3989,
      "legit": 3990,
      "chemical": 3991,
      "schools": 3992,
      "likely": 3993,
      "receive": 3994,
      "ately": 3995,
      "Nether": 3996,
      "ninth": 3997,
      "Take": 3998,
      "Room": 3999,
      "Burund": 4000,
      "Elimination": 4001,
      "constit": 4002,
      "ull": 4003,
      "violation": 4004,
      "Moreover": 4005,
      "Ben": 4006,
      "submission": 4007,
      "Session": 4008,
      "Netherlands": 4009,
      "sanctions": 4010,
      "reflected": 4011,
      "torture": 4012,
      "estern": 4013,
      "anks": 4014,
      "Phil": 4015,
      "fel": 4016,
      "Reaffir": 4017,
      "pred": 4018,
      "Argent": 4019,
      "eighth": 4020,
      "company": 4021,
      "occupation": 4022,
      "Bang": 4023,
      "Indonesia": 4024,
      "Ser": 4025,
      "pet": 4026,
      "democratic": 4027,
      "complex": 4028,
      "efficient": 4029,
      "Ques": 4030,
      "gave": 4031,
      "task": 4032,
      "stakeholders": 4033,
      "Recom": 4034,
      "Terror": 4035,
      "rew": 4036,
      "forum": 4037,
      "factors": 4038,
      "lying": 4039,
      "manag": 4040,
      "deployment": 4041,
      "housing": 4042,
      "democracy": 4043,
      "Est": 4044,
      "Les": 4045,
      "moment": 4046,
      "uth": 4047,
      "aria": 4048,
      "physical": 4049,
      "istical": 4050,
      "irth": 4051,
      "Palestine": 4052,
      "ogn": 4053,
      "tim": 4054,
      "welcomes": 4055,
      "Community": 4056,
      "Swed": 4057,
      "Table": 4058,
      "gov": 4059,
      "disaster": 4060,
      "suppl": 4061,
      "Although": 4062,
      "consultation": 4063,
      "ipp": 4064,
      "enced": 4065,
      "periodic": 4066,
      "giving": 4067,
      "detention": 4068,
      "publ": 4069,
      "Recogn": 4070,
      "Members": 4071,
      "approaches": 4072,
      "Spain": 4073,
      "Turkey": 4074,
      "detailed": 4075,
      "List": 4076,
      "hood": 4077,
      "iers": 4078,
      "ury": 4079,
      "sharing": 4080,
      "Ambassador": 4081,
      "coura": 4082,
      "extreme": 4083,
      "town": 4084,
      "Persons": 4085,
      "yeah": 4086,
      "suggested": 4087,
      "Cl": 4088,
      "Supplement": 4089,
      "($": 4090,
      "candid": 4091,
      "Space": 4092,
      "clar": 4093,
      "personal": 4094,
      "Hi": 4095,
      "whom": 4096,
      "sched": 4097,
      "elected": 4098,
      "charge": 4099,
      "bed": 4100,
      "judges": 4101,
      "Coordination": 4102,
      "Rwanda": 4103,
      "intended": 4104,
      "Legal": 4105,
      "Uh": 4106,
      "inf": 4107,
      "ends": 4108,
      "Weapons": 4109,
      "ats": 4110,
      "Work": 4111,
      "habilit": 4112,
      "ustry": 4113,
      "wife": 4114,
      "ticip": 4115,
      "2010": 4116,
      "formal": 4117,
      "ancy": 4118,
      "Budget": 4119,
      "diplom": 4120,
      "vital": 4121,
      "Chamber": 4122,
      "growing": 4123,
      "Drug": 4124,
      "rist": 4125,
      "ously": 4126,
      "irty": 4127,
      "exploitation": 4128,
      "pil": 4129,
      "isn": 4130,
      "corpor": 4131,
      "Promo": 4132,
      "discussed": 4133,
      "negative": 4134,
      "41": 4135,
      "ring": 4136,
      "substantial": 4137,
      "Syrian": 4138,
      "70": 4139,
      "Administration": 4140,
      "52": 4141,
      "Serb": 4142,
      "concept": 4143,
      "Nam": 4144,
      "offe": 4145,
      "Islands": 4146,
      "highlight": 4147,
      "judge": 4148,
      "iop": 4149,
      "iland": 4150,
      "agency": 4151,
      "Polic": 4152,
      "electronic": 4153,
      "birth": 4154,
      "demonstr": 4155,
      "ague": 4156,
      "markets": 4157,
      "Operations": 4158,
      "Wait": 4159,
      "entr": 4160,
      "expect": 4161,
      "independence": 4162,
      "designed": 4163,
      "tas": 4164,
      "rad": 4165,
      "efficiency": 4166,
      "ercial": 4167,
      "Financing": 4168,
      "42": 4169,
      "types": 4170,
      "Authority": 4171,
      "radi": 4172,
      "adap": 4173,
      "Int": 4174,
      "Decides": 4175,
      "beginning": 4176,
      "80": 4177,
      "commercial": 4178,
      "AP": 4179,
      "heart": 4180,
      "System": 4181,
      "partnerships": 4182,
      "corruption": 4183,
      "neigh": 4184,
      "Burundi": 4185,
      "itorial": 4186,
      "procurement": 4187,
      "ICT": 4188,
      "cooperate": 4189,
      "ening": 4190,
      "endors": 4191,
      "courts": 4192,
      "mobilization": 4193,
      "Zeal": 4194,
      "gment": 4195,
      "remed": 4196,
      "ousand": 4197,
      "Bosn": 4198,
      "penal": 4199,
      "entry": 4200,
      "Offic": 4201,
      "capacities": 4202,
      "Fifth": 4203,
      "Zealand": 4204,
      "creat": 4205,
      "external": 4206,
      "favour": 4207,
      "resulting": 4208,
      "scientific": 4209,
      "collective": 4210,
      "subregional": 4211,
      "donors": 4212,
      "stressed": 4213,
      "female": 4214,
      "gone": 4215,
      "raise": 4216,
      "audit": 4217,
      "truth": 4218,
      "constitution": 4219,
      "Recommend": 4220,
      "Swit": 4221,
      "Note": 4222,
      "completed": 4223,
      "renew": 4224,
      "fort": 4225,
      "confidence": 4226,
      "Bu": 4227,
      "enabl": 4228,
      "super": 4229,
      "ureau": 4230,
      "iding": 4231,
      "comment": 4232,
      "ties": 4233,
      "ING": 4234,
      "lood": 4235,
      "erve": 4236,
      "Over": 4237,
      "fur": 4238,
      "Like": 4239,
      "anned": 4240,
      "ords": 4241,
      "mainstream": 4242,
      "represented": 4243,
      "payment": 4244,
      "closely": 4245,
      "Ethiop": 4246,
      "Port": 4247,
      "source": 4248,
      "ding": 4249,
      "ried": 4250,
      "desp": 4251,
      "holding": 4252,
      "harmon": 4253,
      "hands": 4254,
      "baby": 4255,
      "racial": 4256,
      "sea": 4257,
      "delay": 4258,
      "Colomb": 4259,
      "Cro": 4260,
      "leep": 4261,
      "focused": 4262,
      "ST": 4263,
      "skill": 4264,
      "atever": 4265,
      "zerland": 4266,
      "Switzerland": 4267,
      "Pow": 4268,
      "everyone": 4269,
      "Uk": 4270,
      "although": 4271,
      "ded": 4272,
      "educational": 4273,
      "mandates": 4274,
      "phone": 4275,
      "offer": 4276,
      "UNFPA": 4277,
      "nice": 4278,
      "timely": 4279,
      "Hello": 4280,
      "hind": 4281,
      "approv": 4282,
      "freedoms": 4283,
      "Somalia": 4284,
      "parents": 4285,
      "wanna": 4286,
      "saying": 4287,
      "Maur": 4288,
      "La": 4289,
      "conclusions": 4290,
      "attacks": 4291,
      "oil": 4292,
      "watch": 4293,
      "investigation": 4294,
      "knew": 4295,
      "spons": 4296,
      "movement": 4297,
      "NGOs": 4298,
      "fall": 4299,
      "ric": 4300,
      "iful": 4301,
      "HC": 4302,
      "Move": 4303,
      "Federal": 4304,
      "honour": 4305,
      "positions": 4306,
      "phase": 4307,
      "rehabilit": 4308,
      "ense": 4309,
      "divers": 4310,
      "solid": 4311,
      "sou": 4312,
      "prise": 4313,
      "UNID": 4314,
      "lib": 4315,
      "recovery": 4316,
      "COP": 4317,
      "ero": 4318,
      "bar": 4319,
      "secution": 4320,
      "donor": 4321,
      "budgetary": 4322,
      "measure": 4323,
      "possibility": 4324,
      "Engl": 4325,
      "culture": 4326,
      "Rev": 4327,
      "43": 4328,
      "caused": 4329,
      "North": 4330,
      "floor": 4331,
      "English": 4332,
      "Stand": 4333,
      "started": 4334,
      "draf": 4335,
      "involving": 4336,
      "Fifty": 4337,
      "cruc": 4338,
      "remained": 4339,
      "reflect": 4340,
      "Ur": 4341,
      "Cons": 4342,
      "raising": 4343,
      "involvement": 4344,
      "Argentina": 4345,
      "Optional": 4346,
      "Two": 4347,
      "ps": 4348,
      "uff": 4349,
      "accep": 4350,
      "damage": 4351,
      "Qu": 4352,
      "yl": 4353,
      "stan": 4354,
      "Terrorism": 4355,
      "commod": 4356,
      "discrimin": 4357,
      "Bosnia": 4358,
      "bud": 4359,
      "jan": 4360,
      "assu": 4361,
      "weak": 4362,
      "recall": 4363,
      "membership": 4364,
      "dealing": 4365,
      "prepare": 4366,
      "rete": 4367,
      "oph": 4368,
      "wasn": 4369,
      "encourages": 4370,
      "Peacekeeping": 4371,
      "Sir": 4372,
      "Gr": 4373,
      "companies": 4374,
      "Asian": 4375,
      "leading": 4376,
      "guarantee": 4377,
      "alternative": 4378,
      "bank": 4379,
      "Christ": 4380,
      "contributing": 4381,
      "Rules": 4382,
      "version": 4383,
      "territories": 4384,
      "combating": 4385,
      "Norway": 4386,
      "transparency": 4387,
      "Cam": 4388,
      "concrete": 4389,
      "Dr": 4390,
      "accountability": 4391,
      "Je": 4392,
      "youth": 4393,
      "Financ": 4394,
      "Introduc": 4395,
      "election": 4396,
      "actively": 4397,
      "roy": 4398,
      "difficulties": 4399,
      "recruit": 4400,
      "advice": 4401,
      "Mac": 4402,
      "pan": 4403,
      "tes": 4404,
      "interpret": 4405,
      "Chile": 4406,
      "Financial": 4407,
      "Ken": 4408,
      "gas": 4409,
      "rich": 4410,
      "door": 4411,
      "publication": 4412,
      "lock": 4413,
      "percent": 4414,
      "Moroc": 4415,
      "Guide": 4416,
      "Resolution": 4417,
      "Territories": 4418,
      "alle": 4419,
      "finance": 4420,
      "friends": 4421,
      "Sorry": 4422,
      "vance": 4423,
      "anish": 4424,
      "raine": 4425,
      "gotta": 4426,
      "Labour": 4427,
      "SB": 4428,
      "statistics": 4429,
      "safegu": 4430,
      "city": 4431,
      "1993": 4432,
      "construction": 4433,
      "followed": 4434,
      "Docu": 4435,
      "criteria": 4436,
      "Gaz": 4437,
      "setting": 4438,
      "hom": 4439,
      "Alg": 4440,
      "crucial": 4441,
      "CP": 4442,
      "ny": 4443,
      "arbitr": 4444,
      "Aud": 4445,
      "From": 4446,
      "improvement": 4447,
      "Nigeria": 4448,
      "Sweden": 4449,
      "max": 4450,
      "conventions": 4451,
      "ping": 4452,
      "moder": 4453,
      "enhancing": 4454,
      "intention": 4455,
      "attach": 4456,
      "Bol": 4457,
      "appointed": 4458,
      "Western": 4459,
      "organ": 4460,
      "studies": 4461,
      "happy": 4462,
      "minutes": 4463,
      "relief": 4464,
      "500": 4465,
      "puts": 4466,
      "Jud": 4467,
      "prus": 4468,
      "harm": 4469,
      "Cyprus": 4470,
      "ifically": 4471,
      "Will": 4472,
      "unity": 4473,
      "urges": 4474,
      "internationally": 4475,
      "type": 4476,
      "Northern": 4477,
      "agricultural": 4478,
      "Assistance": 4479,
      "Fra": 4480,
      "Chairperson": 4481,
      "Liberia": 4482,
      "refugee": 4483,
      "Herze": 4484,
      "Georg": 4485,
      "ectoral": 4486,
      "Pop": 4487,
      "limit": 4488,
      "Az": 4489,
      "Lu": 4490,
      "professional": 4491,
      "govina": 4492,
      "Ibid": 4493,
      "blood": 4494,
      "Herzegovina": 4495,
      "base": 4496,
      "behind": 4497,
      "audi": 4498,
      "Colombia": 4499,
      "rapid": 4500,
      "Ukraine": 4501,
      "EM": 4502,
      "1991": 4503,
      "craft": 4504,
      "eight": 4505,
      "Parliament": 4506,
      "announ": 4507,
      "depart": 4508,
      "causes": 4509,
      "Vice": 4510,
      "inside": 4511,
      "contact": 4512,
      "generally": 4513,
      "approval": 4514,
      "Ug": 4515,
      "ategy": 4516,
      "earth": 4517,
      "Police": 4518,
      "teenth": 4519,
      "Ste": 4520,
      "anyone": 4521,
      "Strategy": 4522,
      "secutor": 4523,
      "Open": 4524,
      "advoc": 4525,
      "innov": 4526,
      "rig": 4527,
      "belong": 4528,
      "industry": 4529,
      "alleged": 4530,
      "dev": 4531,
      "nation": 4532,
      "Records": 4533,
      "intell": 4534,
      "Association": 4535,
      "Item": 4536,
      "defined": 4537,
      "Resp": 4538,
      "average": 4539,
      "UNIDO": 4540,
      "Roman": 4541,
      "mach": 4542,
      "lower": 4543,
      "thinking": 4544,
      "stac": 4545,
      "omet": 4546,
      "units": 4547,
      "industrial": 4548,
      "expertise": 4549,
      "90": 4550,
      "Sam": 4551,
      "Technical": 4552,
      "John": 4553,
      "lie": 4554,
      "ony": 4555,
      "usu": 4556,
      "esh": 4557,
      "allowed": 4558,
      "University": 4559,
      "hor": 4560,
      "tre": 4561,
      "ivity": 4562,
      "immediately": 4563,
      "Ethiopia": 4564,
      "disabilities": 4565,
      "marri": 4566,
      "itude": 4567,
      "complement": 4568,
      "recognize": 4569,
      "Trust": 4570,
      "Cultural": 4571,
      "Ah": 4572,
      "rein": 4573,
      "Introduction": 4574,
      "intervention": 4575,
      "Mad": 4576,
      "pain": 4577,
      "iles": 4578,
      "promise": 4579,
      "indeed": 4580,
      "pled": 4581,
      "Austr": 4582,
      "Many": 4583,
      "PS": 4584,
      "va": 4585,
      "accompl": 4586,
      "planned": 4587,
      "1992": 4588,
      "observations": 4589,
      "hic": 4590,
      "launched": 4591,
      "drop": 4592,
      "despite": 4593,
      "cou": 4594,
      "mur": 4595,
      "written": 4596,
      "constitute": 4597,
      "withdraw": 4598,
      "maybe": 4599,
      "istered": 4600,
      "geograph": 4601,
      "dependent": 4602,
      "istration": 4603,
      "valu": 4604,
      "sense": 4605,
      "Med": 4606,
      "tools": 4607,
      "Policy": 4608,
      "worth": 4609,
      "separate": 4610,
      "skills": 4611,
      "Tha": 4612,
      "ifying": 4613,
      "enhanced": 4614,
      "Belg": 4615,
      "absence": 4616,
      "chapter": 4617,
      "WH": 4618,
      "Noting": 4619,
      "hun": 4620,
      "wouldn": 4621,
      "gro": 4622,
      "series": 4623,
      "authorized": 4624,
      "determined": 4625,
      "Darfur": 4626,
      "hus": 4627,
      "Fourth": 4628,
      "haven": 4629,
      "interested": 4630,
      "proportion": 4631,
      "assessments": 4632,
      "theless": 4633,
      "Ref": 4634,
      "petr": 4635,
      "strengthened": 4636,
      "Philipp": 4637,
      "summary": 4638,
      "insp": 4639,
      "engaged": 4640,
      "Bas": 4641,
      "Bureau": 4642,
      "jour": 4643,
      "coordinated": 4644,
      "described": 4645,
      "appointment": 4646,
      "Croat": 4647,
      "Che": 4648,
      "targets": 4649,
      "rehabilitation": 4650,
      "ufact": 4651,
      "Har": 4652,
      "lined": 4653,
      "declaration": 4654,
      "sight": 4655,
      "Indeed": 4656,
      "obstac": 4657,
      "globalization": 4658,
      "bably": 4659,
      "punishment": 4660,
      "Den": 4661,
      "cuse": 4662,
      "ened": 4663,
      "extended": 4664,
      "solutions": 4665,
      "Sing": 4666,
      "arity": 4667,
      "Tun": 4668,
      "hy": 4669,
      "insurance": 4670,
      "deliber": 4671,
      "clean": 4672,
      "OM": 4673,
      "argu": 4674,
      "lier": 4675,
      "relative": 4676,
      "Research": 4677,
      "THE": 4678,
      "Saudi": 4679,
      "ci": 4680,
      "68": 4681,
      "Calls": 4682,
      "Day": 4683,
      "Jer": 4684,
      "gre": 4685,
      "perpetr": 4686,
      "history": 4687,
      "Boliv": 4688,
      "swe": 4689,
      "Morocco": 4690,
      "psy": 4691,
      "usal": 4692,
      "extend": 4693,
      "spirit": 4694,
      "mag": 4695,
      "umb": 4696,
      "hosp": 4697,
      "Mic": 4698,
      "Thanks": 4699,
      "threats": 4700,
      "Refuge": 4701,
      "ulg": 4702,
      "wants": 4703,
      "Paragraph": 4704,
      "languages": 4705,
      "LDC": 4706,
      "atemal": 4707,
      "Guatemal": 4708,
      "Letter": 4709,
      "expenditure": 4710,
      "neighb": 4711,
      "Tell": 4712,
      "myself": 4713,
      "recognition": 4714,
      "prises": 4715,
      "perspective": 4716,
      "secure": 4717,
      "husband": 4718,
      "Ke": 4719,
      "fear": 4720,
      "pretty": 4721,
      "repe": 4722,
      "incident": 4723,
      "minimum": 4724,
      "yer": 4725,
      "vehic": 4726,
      "willing": 4727,
      "Cost": 4728,
      "Princi": 4729,
      "defence": 4730,
      "Framework": 4731,
      "Deput": 4732,
      "sugges": 4733,
      "Britain": 4734,
      "check": 4735,
      "representation": 4736,
      "island": 4737,
      "compar": 4738,
      "lic": 4739,
      "organs": 4740,
      "Even": 4741,
      "rid": 4742,
      "resum": 4743,
      "beaut": 4744,
      "Prof": 4745,
      "drugs": 4746,
      "NP": 4747,
      "unless": 4748,
      "cash": 4749,
      "documentation": 4750,
      "speaking": 4751,
      "becom": 4752,
      "shared": 4753,
      "Stop": 4754,
      "existence": 4755,
      "emerging": 4756,
      "Rac": 4757,
      "undertake": 4758,
      "produced": 4759,
      "solv": 4760,
      "competition": 4761,
      "guess": 4762,
      "boys": 4763,
      "determine": 4764,
      "emphasized": 4765,
      "quick": 4766,
      "Inte": 4767,
      "Malays": 4768,
      "tieth": 4769,
      "operating": 4770,
      "ables": 4771,
      "influ": 4772,
      "anim": 4773,
      "emission": 4774,
      "knows": 4775,
      "weeks": 4776,
      "worked": 4777,
      "subsequent": 4778,
      "solvency": 4779,
      "except": 4780,
      "grounds": 4781,
      "hit": 4782,
      "Jam": 4783,
      "ume": 4784,
      "fare": 4785,
      "rise": 4786,
      "reli": 4787,
      "president": 4788,
      "ratification": 4789,
      "Algeria": 4790,
      "Uganda": 4791,
      "ift": 4792,
      "looks": 4793,
      "says": 4794,
      "specifically": 4795,
      "sl": 4796,
      "forty": 4797,
      "imposed": 4798,
      "worry": 4799,
      "Peru": 4800,
      "**": 4801,
      "Adoption": 4802,
      "compared": 4803,
      "Ver": 4804,
      "aj": 4805,
      "arm": 4806,
      "regul": 4807,
      "reservations": 4808,
      "ED": 4809,
      "discuss": 4810,
      "Ivo": 4811,
      "mm": 4812,
      "affairs": 4813,
      "namely": 4814,
      "Fam": 4815,
      "UC": 4816,
      "aircraft": 4817,
      "placement": 4818,
      "territorial": 4819,
      "highest": 4820,
      "Jord": 4821,
      "partial": 4822,
      "ifications": 4823,
      "inese": 4824,
      "easy": 4825,
      "reforms": 4826,
      "mutual": 4827,
      "ximately": 4828,
      "eliminate": 4829,
      "princ": 4830,
      "cohe": 4831,
      "sleep": 4832,
      "igation": 4833,
      "Consider": 4834,
      "Prime": 4835,
      "collection": 4836,
      "Deputy": 4837,
      "Des": 4838,
      "dad": 4839,
      "recruitment": 4840,
      "Gender": 4841,
      "SP": 4842,
      "cert": 4843,
      "Gaza": 4844,
      "mad": 4845,
      "tract": 4846,
      "Ivoire": 4847,
      "stuff": 4848,
      "iring": 4849,
      "elabor": 4850,
      "faction": 4851,
      "Viol": 4852,
      "Haiti": 4853,
      "itat": 4854,
      "answer": 4855,
      "Internet": 4856,
      "drawn": 4857,
      "urged": 4858,
      "medium": 4859,
      "Pa": 4860,
      "Pl": 4861,
      "War": 4862,
      "vac": 4863,
      "wers": 4864,
      "intern": 4865,
      "Mom": 4866,
      "pi": 4867,
      "thousand": 4868,
      "Austria": 4869,
      "eat": 4870,
      "notic": 4871,
      "earlier": 4872,
      "Mrs": 4873,
      "religion": 4874,
      "launch": 4875,
      "Eas": 4876,
      "CON": 4877,
      "senior": 4878,
      "Invest": 4879,
      "changed": 4880,
      "Philippines": 4881,
      "Sim": 4882,
      "memor": 4883,
      "reconciliation": 4884,
      "workshops": 4885,
      "bul": 4886,
      "load": 4887,
      "reviewed": 4888,
      "ahead": 4889,
      "ôte": 4890,
      "shown": 4891,
      "risks": 4892,
      "norms": 4893,
      "tonight": 4894,
      "Yugoslavia": 4895,
      "Give": 4896,
      "invent": 4897,
      "Belgium": 4898,
      "Côte": 4899,
      "Year": 4900,
      "anmar": 4901,
      "locked": 4902,
      "closed": 4903,
      "doub": 4904,
      "reintegration": 4905,
      "integrity": 4906,
      "Officer": 4907,
      "fast": 4908,
      "sions": 4909,
      "Myanmar": 4910,
      "Guatemala": 4911,
      "69": 4912,
      "increasingly": 4913,
      "ease": 4914,
      "vill": 4915,
      "enders": 4916,
      "offences": 4917,
      "Never": 4918,
      "morrow": 4919,
      "Chap": 4920,
      "contracts": 4921,
      "____": 4922,
      "Hab": 4923,
      "Jordan": 4924,
      "Cz": 4925,
      "umer": 4926,
      "students": 4927,
      "contributed": 4928,
      "Tunis": 4929,
      "ford": 4930,
      "imension": 4931,
      "WA": 4932,
      "Humanitarian": 4933,
      "condem": 4934,
      "mid": 4935,
      "ugh": 4936,
      "aint": 4937,
      "Kenya": 4938,
      "tomorrow": 4939,
      "played": 4940,
      "attend": 4941,
      "accounts": 4942,
      "remaining": 4943,
      "Prepar": 4944,
      "reconstruction": 4945,
      "Experts": 4946,
      "transmit": 4947,
      "participating": 4948,
      "Croatia": 4949,
      "rely": 4950,
      "icted": 4951,
      "migrants": 4952,
      "aijan": 4953,
      "erbaijan": 4954,
      "Azerbaijan": 4955,
      "Czech": 4956,
      "detain": 4957,
      "Their": 4958,
      "Most": 4959,
      "faith": 4960,
      "accepted": 4961,
      "//": 4962,
      "Ear": 4963,
      "Miss": 4964,
      "gross": 4965,
      "fields": 4966,
      "htt": 4967,
      "flex": 4968,
      "Ministers": 4969,
      "Turk": 4970,
      "HCHR": 4971,
      "Malaysia": 4972,
      "owing": 4973,
      "organizational": 4974,
      "victim": 4975,
      "goes": 4976,
      "mines": 4977,
      "participated": 4978,
      "Iraqi": 4979,
      "reducing": 4980,
      "news": 4981,
      "Partnership": 4982,
      "http": 4983,
      "degrad": 4984,
      "nergy": 4985,
      "adapt": 4986,
      "OF": 4987,
      "otherwise": 4988,
      "path": 4989,
      "reduced": 4990,
      "Training": 4991,
      "creating": 4992,
      "OHCHR": 4993,
      "registration": 4994,
      "soldi": 4995,
      "Notes": 4996,
      "preced": 4997,
      "Subcommittee": 4998,
      "racism": 4999,
      "Vol": 5000,
      "advis": 5001,
      "munic": 5002,
      "Finally": 5003,
      "elimination": 5004,
      "://": 5005,
      "eyes": 5006,
      "endorsed": 5007,
      "Ano": 5008,
      "values": 5009,
      "nes": 5010,
      "occas": 5011,
      "recorded": 5012,
      "accus": 5013,
      "manufact": 5014,
      "search": 5015,
      "options": 5016,
      "actual": 5017,
      "consent": 5018,
      "IG": 5019,
      "diplomatic": 5020,
      "science": 5021,
      "places": 5022,
      "destroy": 5023,
      "oring": 5024,
      "mainly": 5025,
      "Another": 5026,
      "huh": 5027,
      "price": 5028,
      "inclusion": 5029,
      "datab": 5030,
      "stock": 5031,
      "enez": 5032,
      "Food": 5033,
      "mits": 5034,
      "story": 5035,
      "iders": 5036,
      "Georgia": 5037,
      "Thailand": 5038,
      "fix": 5039,
      "asters": 5040,
      "conform": 5041,
      "command": 5042,
      "itions": 5043,
      "mobil": 5044,
      "anz": 5045,
      "Chinese": 5046,
      "surv": 5047,
      "Hol": 5048,
      "tasks": 5049,
      "300": 5050,
      "arus": 5051,
      "ley": 5052,
      "heav": 5053,
      "exce": 5054,
      "content": 5055,
      "consum": 5056,
      "heads": 5057,
      "marriage": 5058,
      "VI": 5059,
      "endum": 5060,
      "Provision": 5061,
      "Venez": 5062,
      "advisory": 5063,
      "structures": 5064,
      "ettle": 5065,
      "Angol": 5066,
      "estimates": 5067,
      "failure": 5068,
      "Venezuel": 5069,
      "Camb": 5070,
      "ga": 5071,
      "Questions": 5072,
      "modern": 5073,
      "din": 5074,
      "sw": 5075,
      "protocol": 5076,
      "outcomes": 5077,
      "resulted": 5078,
      "Banglad": 5079,
      "expression": 5080,
      "Encoura": 5081,
      "Bangladesh": 5082,
      "Signed": 5083,
      "fed": 5084,
      "category": 5085,
      "XX": 5086,
      "fuel": 5087,
      "orient": 5088,
      "Finland": 5089,
      "Sur": 5090,
      "rable": 5091,
      "Internal": 5092,
      "losses": 5093,
      "CT": 5094,
      "rea": 5095,
      "intens": 5096,
      "realization": 5097,
      "engage": 5098,
      "emphasis": 5099,
      "IAEA": 5100,
      "Document": 5101,
      "Erit": 5102,
      "Its": 5103,
      "imply": 5104,
      "applications": 5105,
      "haz": 5106,
      "Nothing": 5107,
      "grate": 5108,
      "marine": 5109,
      "sovereignty": 5110,
      "tried": 5111,
      "uled": 5112,
      "outstanding": 5113,
      "indicate": 5114,
      "nine": 5115,
      "Habitat": 5116,
      "supports": 5117,
      "ION": 5118,
      "severe": 5119,
      "waste": 5120,
      "construct": 5121,
      "Consu": 5122,
      "Status": 5123,
      "enjoyment": 5124,
      "ET": 5125,
      "unit": 5126,
      "chance": 5127,
      "component": 5128,
      "ophob": 5129,
      "chair": 5130,
      "centre": 5131,
      "century": 5132,
      "etary": 5133,
      "Prosecutor": 5134,
      "listen": 5135,
      "Belarus": 5136,
      "race": 5137,
      "oud": 5138,
      "sche": 5139,
      "strongly": 5140,
      "flows": 5141,
      "san": 5142,
      "confir": 5143,
      "Developing": 5144,
      "LDCs": 5145,
      "Costa": 5146,
      "quite": 5147,
      "works": 5148,
      "Corr": 5149,
      "cipl": 5150,
      "meaning": 5151,
      "functioning": 5152,
      "ections": 5153,
      "supplement": 5154,
      "learned": 5155,
      "competent": 5156,
      "probably": 5157,
      "regn": 5158,
      "Spanish": 5159,
      "Sea": 5160,
      "analy": 5161,
      "approximately": 5162,
      "eradication": 5163,
      "San": 5164,
      "Sure": 5165,
      "daugh": 5166,
      "Indigenous": 5167,
      "ouch": 5168,
      "Initi": 5169,
      "ax": 5170,
      "pack": 5171,
      "enses": 5172,
      "populations": 5173,
      "preventing": 5174,
      "Technology": 5175,
      "mainstreaming": 5176,
      "Fac": 5177,
      "lose": 5178,
      "Nep": 5179,
      "ark": 5180,
      "controll": 5181,
      "Chapter": 5182,
      "Dad": 5183,
      "SA": 5184,
      "exact": 5185,
      "ney": 5186,
      "requirement": 5187,
      "evalu": 5188,
      "granted": 5189,
      "Refugees": 5190,
      "Red": 5191,
      "wealth": 5192,
      "observers": 5193,
      "Power": 5194,
      "haps": 5195,
      "ican": 5196,
      "affect": 5197,
      "element": 5198,
      "Thus": 5199,
      "matic": 5200,
      "expenditures": 5201,
      "listed": 5202,
      "seems": 5203,
      "headquarters": 5204,
      "Listen": 5205,
      "encouraging": 5206,
      "satisfaction": 5207,
      "grateful": 5208,
      "equitable": 5209,
      "findings": 5210,
      "prices": 5211,
      "direction": 5212,
      "Net": 5213,
      "mail": 5214,
      "married": 5215,
      "felt": 5216,
      "count": 5217,
      "ambia": 5218,
      "speakers": 5219,
      "trends": 5220,
      "Out": 5221,
      "mist": 5222,
      "attain": 5223,
      "decide": 5224,
      "responding": 5225,
      "legitimate": 5226,
      "65": 5227,
      "slow": 5228,
      "couldn": 5229,
      "somet": 5230,
      "insolvency": 5231,
      "sought": 5232,
      "supposed": 5233,
      "airo": 5234,
      "reservation": 5235,
      "dream": 5236,
      "thirty": 5237,
      "inding": 5238,
      "board": 5239,
      "ugal": 5240,
      "wonder": 5241,
      "Venezuela": 5242,
      "Poland": 5243,
      "exec": 5244,
      "beautiful": 5245,
      "added": 5246,
      "deliver": 5247,
      "Welcomes": 5248,
      "internally": 5249,
      "akh": 5250,
      "distinc": 5251,
      "Romania": 5252,
      "Denmark": 5253,
      "Hung": 5254,
      "considering": 5255,
      "Excell": 5256,
      "wishes": 5257,
      "tele": 5258,
      "Decade": 5259,
      "contains": 5260,
      "sustained": 5261,
      "drink": 5262,
      "ME": 5263,
      "bon": 5264,
      "Forms": 5265,
      "facing": 5266,
      "Control": 5267,
      "Ecu": 5268,
      "Rule": 5269,
      "Comp": 5270,
      "thanks": 5271,
      "original": 5272,
      "published": 5273,
      "comply": 5274,
      "Promotion": 5275,
      "Ecuador": 5276,
      "entered": 5277,
      "join": 5278,
      "reasonable": 5279,
      "arising": 5280,
      "pute": 5281,
      "Serbia": 5282,
      "Nepal": 5283,
      "send": 5284,
      "idency": 5285,
      "iminary": 5286,
      "socio": 5287,
      "razy": 5288,
      "advantage": 5289,
      "DG": 5290,
      "Hoc": 5291,
      "cha": 5292,
      "bringing": 5293,
      "stood": 5294,
      "Cambod": 5295,
      "cing": 5296,
      "raid": 5297,
      "saving": 5298,
      "networks": 5299,
      "Su": 5300,
      "spread": 5301,
      "records": 5302,
      "Say": 5303,
      "kers": 5304,
      "outer": 5305,
      "grave": 5306,
      "iciary": 5307,
      "candidates": 5308,
      "ray": 5309,
      "marks": 5310,
      "faced": 5311,
      "histor": 5312,
      "oh": 5313,
      "tour": 5314,
      "minute": 5315,
      "considerable": 5316,
      "burden": 5317,
      "ases": 5318,
      "nations": 5319,
      "enophob": 5320,
      "eries": 5321,
      "aging": 5322,
      "whatever": 5323,
      "undred": 5324,
      "believes": 5325,
      "Land": 5326,
      "governments": 5327,
      "OP": 5328,
      "YOU": 5329,
      "agriculture": 5330,
      "resolve": 5331,
      "pp": 5332,
      "ilt": 5333,
      "incent": 5334,
      "Armen": 5335,
      "iff": 5336,
      "Commit": 5337,
      "highly": 5338,
      "Agr": 5339,
      "pregn": 5340,
      "ara": 5341,
      "entity": 5342,
      "Only": 5343,
      "household": 5344,
      "kids": 5345,
      "66": 5346,
      "thematic": 5347,
      "ordinary": 5348,
      "tin": 5349,
      "minorities": 5350,
      "Mus": 5351,
      "respectively": 5352,
      "Ber": 5353,
      "release": 5354,
      "norm": 5355,
      "categories": 5356,
      "SR": 5357,
      "solute": 5358,
      "transactions": 5359,
      "banks": 5360,
      "Arabia": 5361,
      "damn": 5362,
      "engagement": 5363,
      "Drugs": 5364,
      "WG": 5365,
      "formulation": 5366,
      "highlighted": 5367,
      "linked": 5368,
      "failed": 5369,
      "Recognizing": 5370,
      "offered": 5371,
      "Portugal": 5372,
      "eties": 5373,
      "location": 5374,
      "transparent": 5375,
      "Gh": 5376,
      "seeking": 5377,
      "responses": 5378,
      "availability": 5379,
      "normal": 5380,
      "Greece": 5381,
      "radio": 5382,
      "Ou": 5383,
      "luck": 5384,
      "Staff": 5385,
      "survey": 5386,
      "Small": 5387,
      "aled": 5388,
      "became": 5389,
      "assessed": 5390,
      "Population": 5391,
      "Last": 5392,
      "acknowled": 5393,
      "amended": 5394,
      "Nic": 5395,
      "urs": 5396,
      "nationality": 5397,
      "foot": 5398,
      "Monitor": 5399,
      "Principles": 5400,
      "oration": 5401,
      "atell": 5402,
      "Scientific": 5403,
      "Angola": 5404,
      "constructive": 5405,
      "transl": 5406,
      "Express": 5407,
      "subsidiary": 5408,
      "died": 5409,
      "offence": 5410,
      "completion": 5411,
      "numer": 5412,
      "deter": 5413,
      "strict": 5414,
      "carrying": 5415,
      "AO": 5416,
      "trou": 5417,
      "shot": 5418,
      "CCC": 5419,
      "aven": 5420,
      "oth": 5421,
      "Leste": 5422,
      "sm": 5423,
      "……": 5424,
      "Ant": 5425,
      "pict": 5426,
      "itors": 5427,
      "empower": 5428,
      "constitutional": 5429,
      "Rica": 5430,
      "liability": 5431,
      "significantly": 5432,
      "briefing": 5433,
      "commissions": 5434,
      "Urges": 5435,
      "lies": 5436,
      "alities": 5437,
      "considers": 5438,
      "servation": 5439,
      "sites": 5440,
      "depos": 5441,
      "cean": 5442,
      "vail": 5443,
      "belief": 5444,
      "lessons": 5445,
      "Migr": 5446,
      "unte": 5447,
      "ibly": 5448,
      "accounting": 5449,
      "Desp": 5450,
      "god": 5451,
      "choice": 5452,
      "opening": 5453,
      "incorporated": 5454,
      "Eritrea": 5455,
      "ken": 5456,
      "smo": 5457,
      "thereby": 5458,
      "Fuck": 5459,
      "congrat": 5460,
      "expan": 5461,
      "calling": 5462,
      "dro": 5463,
      "bomb": 5464,
      "ino": 5465,
      "acce": 5466,
      "ches": 5467,
      "dissemination": 5468,
      "NPT": 5469,
      "numbers": 5470,
      "purch": 5471,
      "ratified": 5472,
      "interpretation": 5473,
      "iri": 5474,
      "funded": 5475,
      "frequ": 5476,
      "Integr": 5477,
      "prel": 5478,
      "undering": 5479,
      "names": 5480,
      "components": 5481,
      "Sel": 5482,
      "dimension": 5483,
      "payments": 5484,
      "meant": 5485,
      "Congress": 5486,
      "voted": 5487,
      "maintaining": 5488,
      "Taking": 5489,
      "ende": 5490,
      "message": 5491,
      "Despite": 5492,
      "expansion": 5493,
      "sco": 5494,
      "manif": 5495,
      "lled": 5496,
      "moving": 5497,
      "disput": 5498,
      "Def": 5499,
      "ILO": 5500,
      "conformity": 5501,
      "immun": 5502,
      "interim": 5503,
      "facilitating": 5504,
      "los": 5505,
      "Reaffirming": 5506,
      "Energy": 5507,
      "produce": 5508,
      "born": 5509,
      "64": 5510,
      "mus": 5511,
      "targeted": 5512,
      "Following": 5513,
      "obstacles": 5514,
      "Tod": 5515,
      "UR": 5516,
      "amounts": 5517,
      "suffering": 5518,
      "figure": 5519,
      "regulation": 5520,
      "embar": 5521,
      "Movement": 5522,
      "Eastern": 5523,
      "sometimes": 5524,
      "Sri": 5525,
      "ball": 5526,
      "hundred": 5527,
      "ike": 5528,
      "Ministerial": 5529,
      "Monitoring": 5530,
      "crazy": 5531,
      "tock": 5532,
      "ades": 5533,
      "convened": 5534,
      "EL": 5535,
      "sole": 5536,
      "presentation": 5537,
      "expenses": 5538,
      "ylum": 5539,
      "dign": 5540,
      "fect": 5541,
      "dog": 5542,
      "save": 5543,
      "Lank": 5544,
      "Sah": 5545,
      "feed": 5546,
      "believed": 5547,
      "tit": 5548,
      "igence": 5549,
      "executive": 5550,
      "Insp": 5551,
      "inced": 5552,
      "valid": 5553,
      "theme": 5554,
      "ws": 5555,
      "icate": 5556,
      "dangerous": 5557,
      "Addition": 5558,
      "spects": 5559,
      "ownership": 5560,
      "game": 5561,
      "Up": 5562,
      "Paris": 5563,
      "details": 5564,
      "lor": 5565,
      "vak": 5566,
      "topic": 5567,
      "ov": 5568,
      "size": 5569,
      "reve": 5570,
      "containing": 5571,
      "Tanz": 5572,
      "persist": 5573,
      "introduction": 5574,
      "concluding": 5575,
      "drafting": 5576,
      "preliminary": 5577,
      "Use": 5578,
      "iver": 5579,
      "enabling": 5580,
      "diversity": 5581,
      "geographical": 5582,
      "Singap": 5583,
      "registered": 5584,
      "daughter": 5585,
      "STA": 5586,
      "compu": 5587,
      "pleased": 5588,
      "disasters": 5589,
      "transit": 5590,
      "finding": 5591,
      "panel": 5592,
      "usalem": 5593,
      "IOS": 5594,
      "acking": 5595,
      "Jerusalem": 5596,
      "enophobia": 5597,
      "Singapore": 5598,
      "experiences": 5599,
      "copy": 5600,
      "ises": 5601,
      "amendment": 5602,
      "onial": 5603,
      "explan": 5604,
      "secured": 5605,
      "fighting": 5606,
      "Put": 5607,
      "WTO": 5608,
      "permit": 5609,
      "Therefore": 5610,
      "hour": 5611,
      "beha": 5612,
      "Tunisia": 5613,
      "bat": 5614,
      "attrib": 5615,
      "governing": 5616,
      "employed": 5617,
      "Cambodia": 5618,
      "99": 5619,
      "ESCO": 5620,
      "accused": 5621,
      "retain": 5622,
      "Initiative": 5623,
      "Decision": 5624,
      "afraid": 5625,
      "Several": 5626,
      "Ghana": 5627,
      "track": 5628,
      "aily": 5629,
      "worldwide": 5630,
      "Budgetary": 5631,
      "troops": 5632,
      "unilateral": 5633,
      "amp": 5634,
      "preparing": 5635,
      "Family": 5636,
      "Lanka": 5637,
      "subprogramme": 5638,
      "UNAM": 5639,
      "learn": 5640,
      "Excuse": 5641,
      "ennial": 5642,
      "amendments": 5643,
      "Agricult": 5644,
      "75": 5645,
      "aims": 5646,
      "dependence": 5647,
      "ertain": 5648,
      "leaving": 5649,
      "courses": 5650,
      "Main": 5651,
      "NE": 5652,
      "conting": 5653,
      "Lebanese": 5654,
      "station": 5655,
      "emissions": 5656,
      "Excellency": 5657,
      "himself": 5658,
      "bear": 5659,
      "assign": 5660,
      "identification": 5661,
      "examine": 5662,
      "hoped": 5663,
      "acceler": 5664,
      "Him": 5665,
      "rev": 5666,
      "reject": 5667,
      "seas": 5668,
      "preparatory": 5669,
      "farm": 5670,
      "DI": 5671,
      "Appe": 5672,
      "latter": 5673,
      "98": 5674,
      "UNIF": 5675,
      "extensive": 5676,
      "restrictions": 5677,
      "numerous": 5678,
      "serving": 5679,
      "iii": 5680,
      "Dam": 5681,
      "reven": 5682,
      "partner": 5683,
      "lasting": 5684,
      "waiting": 5685,
      "Domin": 5686,
      "unable": 5687,
      "phen": 5688,
      "Alban": 5689,
      "investigations": 5690,
      "Sene": 5691,
      "iday": 5692,
      "identity": 5693,
      "soldiers": 5694,
      "Senegal": 5695,
      "polit": 5696,
      "buy": 5697,
      "Viet": 5698,
      "acceptable": 5699,
      "hurt": 5700,
      "iversity": 5701,
      "principal": 5702,
      "Preparatory": 5703,
      "Having": 5704,
      "dum": 5705,
      "ivered": 5706,
      "dispute": 5707,
      "Tanzania": 5708,
      "secondary": 5709,
      "Does": 5710,
      "pursue": 5711,
      "legally": 5712,
      "observed": 5713,
      "Kaz": 5714,
      "envis": 5715,
      "identifying": 5716,
      "Sloven": 5717,
      "fortun": 5718,
      "execution": 5719,
      "cast": 5720,
      "prosecution": 5721,
      "1373": 5722,
      "correc": 5723,
      "changing": 5724,
      "Consult": 5725,
      "je": 5726,
      "powers": 5727,
      "marked": 5728,
      "delivered": 5729,
      "ertification": 5730,
      "Kyoto": 5731,
      "tolerance": 5732,
      "UNESCO": 5733,
      "award": 5734,
      "surve": 5735,
      "factor": 5736,
      "began": 5737,
      "Leg": 5738,
      "Liby": 5739,
      "Sa": 5740,
      "binding": 5741,
      "div": 5742,
      "raints": 5743,
      "Bulg": 5744,
      "IK": 5745,
      "walk": 5746,
      "Palestinians": 5747,
      "Hungary": 5748,
      "regret": 5749,
      "Model": 5750,
      "Obser": 5751,
      "margin": 5752,
      "manifest": 5753,
      "Project": 5754,
      "learning": 5755,
      "initiated": 5756,
      "lling": 5757,
      "protected": 5758,
      "78": 5759,
      "OIOS": 5760,
      "cat": 5761,
      "none": 5762,
      "rey": 5763,
      "tical": 5764,
      "signature": 5765,
      "circulated": 5766,
      "enterprises": 5767,
      "latest": 5768,
      "Saint": 5769,
      "fulfill": 5770,
      "shows": 5771,
      "teams": 5772,
      "Slovak": 5773,
      "psych": 5774,
      "barr": 5775,
      "ploy": 5776,
      "ression": 5777,
      "pressure": 5778,
      "looked": 5779,
      "cycle": 5780,
      "maximum": 5781,
      "Fas": 5782,
      "older": 5783,
      "letters": 5784,
      "attemp": 5785,
      "reet": 5786,
      "issa": 5787,
      "tot": 5788,
      "arco": 5789,
      "Jama": 5790,
      "asylum": 5791,
      "exceed": 5792,
      "ectual": 5793,
      "Streng": 5794,
      "visits": 5795,
      "confident": 5796,
      "pattern": 5797,
      "Maced": 5798,
      "notice": 5799,
      "OL": 5800,
      "oles": 5801,
      "Rob": 5802,
      "Each": 5803,
      "IR": 5804,
      "remind": 5805,
      "Supreme": 5806,
      "sponsors": 5807,
      "Common": 5808,
      "minority": 5809,
      "doubt": 5810,
      "))": 5811,
      "Uru": 5812,
      "quant": 5813,
      "protecting": 5814,
      "settlements": 5815,
      "behavi": 5816,
      "Ba": 5817,
      "Mauriti": 5818,
      "iated": 5819,
      "poll": 5820,
      "Particip": 5821,
      "impunity": 5822,
      "statistical": 5823,
      "Statute": 5824,
      "consumption": 5825,
      "Mauritius": 5826,
      "distr": 5827,
      "allocation": 5828,
      "dig": 5829,
      "amond": 5830,
      "Jes": 5831,
      "atar": 5832,
      "train": 5833,
      "Urugu": 5834,
      "Cla": 5835,
      "Saf": 5836,
      "lay": 5837,
      "nd": 5838,
      "vide": 5839,
      "Regulations": 5840,
      "certainly": 5841,
      "recalled": 5842,
      "Today": 5843,
      "Uruguay": 5844,
      "Sit": 5845,
      "instead": 5846,
      "stra": 5847,
      "oversight": 5848,
      "differences": 5849,
      "Universal": 5850,
      "400": 5851,
      "itime": 5852,
      "decent": 5853,
      "sentence": 5854,
      "widely": 5855,
      "Strateg": 5856,
      "assigned": 5857,
      "processing": 5858,
      "instance": 5859,
      "AU": 5860,
      "Would": 5861,
      "cli": 5862,
      "wal": 5863,
      "resumed": 5864,
      "Sen": 5865,
      "electoral": 5866,
      "running": 5867,
      "Sou": 5868,
      "hate": 5869,
      "usted": 5870,
      "attended": 5871,
      "committees": 5872,
      "shel": 5873,
      "Salv": 5874,
      "sensitive": 5875,
      "Slovenia": 5876,
      "sil": 5877,
      "Hold": 5878,
      "ula": 5879,
      "Stress": 5880,
      "admiss": 5881,
      "Counter": 5882,
      "departments": 5883,
      "neighbour": 5884,
      "Bi": 5885,
      "Tom": 5886,
      "systematic": 5887,
      "writing": 5888,
      "arcotic": 5889,
      "hoc": 5890,
      "Invites": 5891,
      "Earth": 5892,
      "AB": 5893,
      "located": 5894,
      "ships": 5895,
      "warning": 5896,
      "previously": 5897,
      "AND": 5898,
      "exped": 5899,
      "isition": 5900,
      "British": 5901,
      "Task": 5902,
      "plication": 5903,
      "Bro": 5904,
      "cease": 5905,
      "invitation": 5906,
      "controls": 5907,
      "primarily": 5908,
      "ITA": 5909,
      "grand": 5910,
      "moun": 5911,
      "continent": 5912,
      "oma": 5913,
      "viation": 5914,
      "urrent": 5915,
      "specified": 5916,
      "dignity": 5917,
      "injur": 5918,
      "reproductive": 5919,
      "etc": 5920,
      "parliament": 5921,
      "Lith": 5922,
      "gree": 5923,
      "touch": 5924,
      "imped": 5925,
      "subsequently": 5926,
      "Bet": 5927,
      "quid": 5928,
      "website": 5929,
      "Bulgaria": 5930,
      "util": 5931,
      "afford": 5932,
      "helping": 5933,
      "German": 5934,
      "Armenia": 5935,
      "pending": 5936,
      "eco": 5937,
      "acced": 5938,
      "curren": 5939,
      "Pur": 5940,
      "societies": 5941,
      "migrant": 5942,
      "Macedonia": 5943,
      "Takes": 5944,
      "gap": 5945,
      "updated": 5946,
      "ideas": 5947,
      "accident": 5948,
      "citizen": 5949,
      "Lithu": 5950,
      "provinc": 5951,
      "assisting": 5952,
      "occurred": 5953,
      "constraints": 5954,
      "database": 5955,
      "sof": 5956,
      "excess": 5957,
      "maintained": 5958,
      "AD": 5959,
      "ker": 5960,
      "manage": 5961,
      "ocide": 5962,
      "terrorists": 5963,
      "seriously": 5964,
      "reaffirmed": 5965,
      "absolute": 5966,
      "examination": 5967,
      "Beij": 5968,
      "Russia": 5969,
      "discriminatory": 5970,
      "Encourages": 5971,
      "Self": 5972,
      "Jamaica": 5973,
      "deliberations": 5974,
      "Beijing": 5975,
      "gives": 5976,
      "udes": 5977,
      "Occup": 5978,
      "Accordingly": 5979,
      "duties": 5980,
      "?\"": 5981,
      "affecting": 5982,
      "exactly": 5983,
      "tur": 5984,
      "Ed": 5985,
      "Field": 5986,
      "map": 5987,
      "voc": 5988,
      "emen": 5989,
      "mortal": 5990,
      "allocated": 5991,
      "Kazakh": 5992,
      "Salvador": 5993,
      "simply": 5994,
      "stor": 5995,
      "trition": 5996,
      "diseas": 5997,
      "posal": 5998,
      "difference": 5999,
      "discipl": 6000,
      "safeguards": 6001,
      "regulatory": 6002,
      "Mol": 6003,
      "forget": 6004,
      "verification": 6005,
      "papers": 6006,
      "degree": 6007,
      "ugg": 6008,
      "daily": 6009,
      "evil": 6010,
      "hot": 6011,
      "squ": 6012,
      "reality": 6013,
      "assum": 6014,
      "adverse": 6015,
      "invite": 6016,
      "Exp": 6017,
      "diseases": 6018,
      "closure": 6019,
      "Camero": 6020,
      "WHO": 6021,
      "claimed": 6022,
      "Cameroon": 6023,
      "rape": 6024,
      "uration": 6025,
      "Soci": 6026,
      "sanitation": 6027,
      "VII": 6028,
      "kept": 6029,
      "Issu": 6030,
      "receiving": 6031,
      "Ban": 6032,
      "Comprehensive": 6033,
      "employees": 6034,
      "disputes": 6035,
      "CH": 6036,
      "Nairo": 6037,
      "uni": 6038,
      "sphere": 6039,
      "achievements": 6040,
      "Resources": 6041,
      "Peacebuilding": 6042,
      "ONUC": 6043,
      "coverage": 6044,
      "designated": 6045,
      "DAW": 6046,
      "reiterated": 6047,
      "solidarity": 6048,
      "Kazakhstan": 6049,
      "Nairobi": 6050,
      "bered": 6051,
      "administer": 6052,
      "mot": 6053,
      "Meas": 6054,
      "attempt": 6055,
      "cities": 6056,
      "stable": 6057,
      "rob": 6058,
      "inclusive": 6059,
      "Transition": 6060,
      "Burk": 6061,
      "Bolivia": 6062,
      "97": 6063,
      "Rome": 6064,
      "breach": 6065,
      "ivities": 6066,
      "strength": 6067,
      "sick": 6068,
      "undertaking": 6069,
      "compat": 6070,
      "speed": 6071,
      "scheduled": 6072,
      "Proced": 6073,
      "intolerance": 6074,
      "88": 6075,
      "black": 6076,
      "aggreg": 6077,
      "cks": 6078,
      "fell": 6079,
      "corporate": 6080,
      "confirmed": 6081,
      "esty": 6082,
      "noting": 6083,
      "Again": 6084,
      "Chad": 6085,
      "Given": 6086,
      "Qatar": 6087,
      "arag": 6088,
      "sun": 6089,
      "Forces": 6090,
      "extension": 6091,
      "frameworks": 6092,
      "Network": 6093,
      "Faso": 6094,
      "Burkina": 6095,
      "Pres": 6096,
      "dele": 6097,
      "unch": 6098,
      "FAO": 6099,
      "sister": 6100,
      "perfect": 6101,
      "grade": 6102,
      "coordinate": 6103,
      "officer": 6104,
      "CEDAW": 6105,
      "remedies": 6106,
      "sale": 6107,
      "onization": 6108,
      "accur": 6109,
      "improvements": 6110,
      "patient": 6111,
      "Respons": 6112,
      "labor": 6113,
      "Stud": 6114,
      "built": 6115,
      "plicit": 6116,
      "joined": 6117,
      "jobs": 6118,
      "Sixth": 6119,
      "declared": 6120,
      "drive": 6121,
      "Emphas": 6122,
      "liberal": 6123,
      "announced": 6124,
      "endeav": 6125,
      "satell": 6126,
      "thes": 6127,
      "formed": 6128,
      "humanity": 6129,
      "recognizes": 6130,
      "exports": 6131,
      "Lithuania": 6132,
      "acade": 6133,
      "sequently": 6134,
      "stein": 6135,
      "observer": 6136,
      "investments": 6137,
      "Bissa": 6138,
      "SO": 6139,
      "ka": 6140,
      "acceptance": 6141,
      "accomplish": 6142,
      "hospital": 6143,
      "Bissau": 6144,
      "neither": 6145,
      "prevail": 6146,
      "focal": 6147,
      "anymore": 6148,
      "Was": 6149,
      "iling": 6150,
      "bearing": 6151,
      "supplies": 6152,
      "Nicarag": 6153,
      "nationals": 6154,
      "helped": 6155,
      "missing": 6156,
      "withdrawal": 6157,
      "phenomen": 6158,
      "alive": 6159,
      "sels": 6160,
      "orders": 6161,
      "inade": 6162,
      "Coordinator": 6163,
      "Observer": 6164,
      "ket": 6165,
      "revision": 6166,
      "fault": 6167,
      "witnesses": 6168,
      "valuable": 6169,
      "Ice": 6170,
      "ee": 6171,
      "err": 6172,
      "ourg": 6173,
      "incur": 6174,
      "Traffic": 6175,
      "turned": 6176,
      "couple": 6177,
      "Tal": 6178,
      "bek": 6179,
      "decade": 6180,
      "brid": 6181,
      "ulating": 6182,
      "diamond": 6183,
      "expanded": 6184,
      "adaptation": 6185,
      "\".": 6186,
      "bes": 6187,
      "regularly": 6188,
      "technological": 6189,
      "charges": 6190,
      "allegations": 6191,
      "coast": 6192,
      "Process": 6193,
      "obtained": 6194,
      "plant": 6195,
      "finally": 6196,
      "voting": 6197,
      "examples": 6198,
      "attached": 6199,
      "occasion": 6200,
      "bill": 6201,
      "tack": 6202,
      "essor": 6203,
      "contrary": 6204,
      "selected": 6205,
      "background": 6206,
      "consultative": 6207,
      "passed": 6208,
      "Safety": 6209,
      "Loc": 6210,
      "Reduc": 6211,
      "euro": 6212,
      "Three": 6213,
      "photo": 6214,
      "examined": 6215,
      "objection": 6216,
      "Yugoslav": 6217,
      "predict": 6218,
      "percentage": 6219,
      "Settle": 6220,
      "calc": 6221,
      "600": 6222,
      "stip": 6223,
      "unique": 6224,
      "auto": 6225,
      "cold": 6226,
      "modalities": 6227,
      "links": 6228,
      "covering": 6229,
      "Employ": 6230,
      "fishing": 6231,
      "Jack": 6232,
      "era": 6233,
      "Mong": 6234,
      "resh": 6235,
      "dealt": 6236,
      "Assistant": 6237,
      "extremely": 6238,
      "laundering": 6239,
      "regards": 6240,
      "judiciary": 6241,
      "competence": 6242,
      "ots": 6243,
      "bye": 6244,
      "impacts": 6245,
      "coordinating": 6246,
      "iet": 6247,
      "reaching": 6248,
      "trouble": 6249,
      "Overs": 6250,
      "unemployment": 6251,
      "agu": 6252,
      "colle": 6253,
      "burg": 6254,
      "figures": 6255,
      "innovative": 6256,
      "upid": 6257,
      "vulnerability": 6258,
      "CONF": 6259,
      "Oversight": 6260,
      "sustainability": 6261,
      "returned": 6262,
      "overcome": 6263,
      "mining": 6264,
      "ilitary": 6265,
      "suffered": 6266,
      "consolidated": 6267,
      "thousands": 6268,
      "Jesus": 6269,
      "spent": 6270,
      "Advis": 6271,
      "jointly": 6272,
      "Op": 6273,
      "Summary": 6274,
      "acquisition": 6275,
      "wall": 6276,
      "intro": 6277,
      "perpetrators": 6278,
      "influence": 6279,
      "division": 6280,
      "quir": 6281,
      "lawful": 6282,
      "picture": 6283,
      "bra": 6284,
      "repl": 6285,
      "asset": 6286,
      "liquid": 6287,
      "engine": 6288,
      "Activities": 6289,
      "prisoners": 6290,
      "onso": 6291,
      "inj": 6292,
      "atures": 6293,
      "relevance": 6294,
      "Mat": 6295,
      "ibe": 6296,
      "charged": 6297,
      "inventory": 6298,
      "Nicaragua": 6299,
      "ware": 6300,
      "iscal": 6301,
      "disease": 6302,
      "Which": 6303,
      "nutrition": 6304,
      "merc": 6305,
      "reviews": 6306,
      "code": 6307,
      "Peoples": 6308,
      "Friday": 6309,
      "wood": 6310,
      "usually": 6311,
      "urge": 6312,
      "ump": 6313,
      "publications": 6314,
      "greatest": 6315,
      "playing": 6316,
      "advanced": 6317,
      "pilot": 6318,
      "icing": 6319,
      "shr": 6320,
      "ipt": 6321,
      "guard": 6322,
      "combined": 6323,
      "ESC": 6324,
      "controlled": 6325,
      "Mongol": 6326,
      "drew": 6327,
      "decrease": 6328,
      "Both": 6329,
      "appears": 6330,
      "Outer": 6331,
      "sement": 6332,
      "prostitution": 6333,
      "valuation": 6334,
      "becoming": 6335,
      "Slovakia": 6336,
      "mortality": 6337,
      "Del": 6338,
      "MONUC": 6339,
      "ls": 6340,
      "segment": 6341,
      "marginal": 6342,
      "72": 6343,
      "outlined": 6344,
      "abled": 6345,
      "directed": 6346,
      "Benin": 6347,
      "ita": 6348,
      "depriv": 6349,
      "Concer": 6350,
      "homes": 6351,
      "Strategic": 6352,
      "master": 6353,
      "og": 6354,
      "virt": 6355,
      "Committees": 6356,
      "Libyan": 6357,
      "Luc": 6358,
      "MIN": 6359,
      "NO": 6360,
      "largest": 6361,
      "prompt": 6362,
      "tene": 6363,
      "substances": 6364,
      "Similar": 6365,
      "asion": 6366,
      "imag": 6367,
      "focusing": 6368,
      "chemicals": 6369,
      "introduce": 6370,
      "800": 6371,
      "Mult": 6372,
      "capabilities": 6373,
      "Statistics": 6374,
      "guarantees": 6375,
      "doctor": 6376,
      "penalty": 6377,
      "sort": 6378,
      "ata": 6379,
      "vert": 6380,
      "herit": 6381,
      "appeared": 6382,
      "Informal": 6383,
      "Lux": 6384,
      "rem": 6385,
      "concentr": 6386,
      "represents": 6387,
      "Zambia": 6388,
      "hang": 6389,
      "stations": 6390,
      "olonization": 6391,
      "Reports": 6392,
      "transmitted": 6393,
      "telling": 6394,
      "preventive": 6395,
      "bitch": 6396,
      "pension": 6397,
      "Profession": 6398,
      "uine": 6399,
      "sus": 6400,
      "ju": 6401,
      "orge": 6402,
      "andum": 6403,
      "demobilization": 6404,
      "minim": 6405,
      "limits": 6406,
      "cod": 6407,
      "Bah": 6408,
      "ns": 6409,
      "biological": 6410,
      "seminars": 6411,
      "intellectual": 6412,
      "middle": 6413,
      "seat": 6414,
      "Intergovernmental": 6415,
      "realize": 6416,
      "explos": 6417,
      "largely": 6418,
      "municipal": 6419,
      "Mond": 6420,
      "deployed": 6421,
      "borders": 6422,
      "repeated": 6423,
      "xenophobia": 6424,
      "prejud": 6425,
      "trained": 6426,
      "reflects": 6427,
      "Racial": 6428,
      "Mu": 6429,
      "Contr": 6430,
      "yours": 6431,
      "COM": 6432,
      "broader": 6433,
      "murder": 6434,
      "Found": 6435,
      "Plat": 6436,
      "Yemen": 6437,
      "elig": 6438,
      "Malta": 6439,
      "punish": 6440,
      "computer": 6441,
      "vehicles": 6442,
      "Zim": 6443,
      "catch": 6444,
      "nomin": 6445,
      "anticip": 6446,
      "dear": 6447,
      "trading": 6448,
      "Got": 6449,
      "Expert": 6450,
      "Additional": 6451,
      "Iceland": 6452,
      "Dj": 6453,
      "users": 6454,
      "Through": 6455,
      "aggression": 6456,
      "“(": 6457,
      "itch": 6458,
      "prisonment": 6459,
      "Panama": 6460,
      "Air": 6461,
      "Dav": 6462,
      "fit": 6463,
      "replace": 6464,
      "enem": 6465,
      "Measures": 6466,
      "Luxemb": 6467,
      "FCCC": 6468,
      "cool": 6469,
      "genuine": 6470,
      "ministerial": 6471,
      "correct": 6472,
      "creditors": 6473,
      "Issues": 6474,
      "Sol": 6475,
      "peacebuilding": 6476,
      "Acting": 6477,
      "opened": 6478,
      "1980": 6479,
      "transferred": 6480,
      "Person": 6481,
      "GEF": 6482,
      "instruc": 6483,
      "imper": 6484,
      "voice": 6485,
      "complainant": 6486,
      "oting": 6487,
      "inary": 6488,
      "ena": 6489,
      "Once": 6490,
      "conclude": 6491,
      "seminar": 6492,
      "UNODC": 6493,
      "insufficient": 6494,
      "Chemical": 6495,
      "exception": 6496,
      "Monday": 6497,
      "army": 6498,
      "sett": 6499,
      "deem": 6500,
      "medic": 6501,
      "texts": 6502,
      "nearly": 6503,
      "demonstrated": 6504,
      "Mongolia": 6505,
      "Back": 6506,
      "van": 6507,
      "everybody": 6508,
      "starting": 6509,
      "Luxembourg": 6510,
      "Clo": 6511,
      "TR": 6512,
      "Mali": 6513,
      "envisaged": 6514,
      "Torture": 6515,
      "warr": 6516,
      "box": 6517,
      "imprisonment": 6518,
      "unals": 6519,
      "acted": 6520,
      "customs": 6521,
      "empowerment": 6522,
      "rose": 6523,
      "1967": 6524,
      "carrier": 6525,
      "Latvia": 6526,
      "incidents": 6527,
      "Zimbab": 6528,
      "department": 6529,
      "devoted": 6530,
      "sections": 6531,
      "closer": 6532,
      "welfare": 6533,
      "killing": 6534,
      "petition": 6535,
      "Zimbabwe": 6536,
      "scr": 6537,
      "stab": 6538,
      "formation": 6539,
      "increases": 6540,
      "owned": 6541,
      "substance": 6542,
      "Keep": 6543,
      "music": 6544,
      "Moldo": 6545,
      "south": 6546,
      "managed": 6547,
      "pleas": 6548,
      "consc": 6549,
      "served": 6550,
      "ourable": 6551,
      "Shit": 6552,
      "Legisl": 6553,
      "TS": 6554,
      "blow": 6555,
      "fiscal": 6556,
      "onom": 6557,
      "Institution": 6558,
      "Concl": 6559,
      "write": 6560,
      "ashing": 6561,
      "embargo": 6562,
      "heaven": 6563,
      "noon": 6564,
      "pertain": 6565,
      "obvious": 6566,
      "destroyed": 6567,
      "Occupied": 6568,
      "pill": 6569,
      "mandated": 6570,
      "Violence": 6571,
      "Agriculture": 6572,
      "da": 6573,
      "uds": 6574,
      "Change": 6575,
      "bot": 6576,
      "occupying": 6577,
      "Montene": 6578,
      "patr": 6579,
      "dynam": 6580,
      "journal": 6581,
      "push": 6582,
      "preparations": 6583,
      "appreciate": 6584,
      "demands": 6585,
      "Transitional": 6586,
      "96": 6587,
      "Eff": 6588,
      "MDG": 6589,
      "card": 6590,
      "facts": 6591,
      "simple": 6592,
      "books": 6593,
      "CM": 6594,
      "bag": 6595,
      "Island": 6596,
      "generation": 6597,
      "convinced": 6598,
      "heavy": 6599,
      "Strengthening": 6600,
      "”;": 6601,
      "2011": 6602,
      "Frank": 6603,
      "showed": 6604,
      "completely": 6605,
      "advocacy": 6606,
      "fat": 6607,
      "decades": 6608,
      "Arms": 6609,
      "north": 6610,
      "presidency": 6611,
      "somebody": 6612,
      "equival": 6613,
      "careful": 6614,
      "structural": 6615,
      "Representatives": 6616,
      "Moz": 6617,
      "tend": 6618,
      "topics": 6619,
      "distributed": 6620,
      "selling": 6621,
      "savings": 6622,
      "inadequate": 6623,
      "pick": 6624,
      "uster": 6625,
      "Deleg": 6626,
      "Proliferation": 6627,
      "balanced": 6628,
      "liter": 6629,
      "depth": 6630,
      "constitutes": 6631,
      "Professional": 6632,
      "Gab": 6633,
      "ration": 6634,
      "unction": 6635,
      "Recommendation": 6636,
      "administering": 6637,
      "74": 6638,
      "Uz": 6639,
      "wat": 6640,
      "decides": 6641,
      "adopting": 6642,
      "League": 6643,
      "iversary": 6644,
      "defend": 6645,
      "deterior": 6646,
      "FOR": 6647,
      "Lon": 6648,
      "ahiri": 6649,
      "Assess": 6650,
      "ost": 6651,
      "impartial": 6652,
      "wished": 6653,
      "complaints": 6654,
      "campaigns": 6655,
      "Provisional": 6656,
      "Moldova": 6657,
      "95": 6658,
      "fers": 6659,
      "sides": 6660,
      "extradition": 6661,
      "addy": 6662,
      "Adop": 6663,
      "Welcoming": 6664,
      "advancement": 6665,
      "Pen": 6666,
      "pic": 6667,
      "compris": 6668,
      "irates": 6669,
      "decline": 6670,
      "selection": 6671,
      "roles": 6672,
      "Namib": 6673,
      "Pun": 6674,
      "Water": 6675,
      "sha": 6676,
      "makers": 6677,
      "prefer": 6678,
      "Conventions": 6679,
      "Jamahiri": 6680,
      "coherence": 6681,
      "Jamahiriya": 6682,
      "prohibited": 6683,
      "Montenegro": 6684,
      "71": 6685,
      "Stock": 6686,
      "yo": 6687,
      "stupid": 6688,
      "therein": 6689,
      "invites": 6690,
      "treated": 6691,
      "asking": 6692,
      "proof": 6693,
      "Armed": 6694,
      "proceeds": 6695,
      "Sales": 6696,
      "RE": 6697,
      "za": 6698,
      "prosecut": 6699,
      "105": 6700,
      "integral": 6701,
      "expresses": 6702,
      "emerg": 6703,
      "methodology": 6704,
      "Help": 6705,
      "quickly": 6706,
      "Reaffirms": 6707,
      "fixed": 6708,
      "male": 6709,
      "sper": 6710,
      "wid": 6711,
      "iption": 6712,
      "fortunately": 6713,
      "mix": 6714,
      "Really": 6715,
      "venth": 6716,
      "apping": 6717,
      "Doha": 6718,
      "idespread": 6719,
      "impossible": 6720,
      "UNMIK": 6721,
      "explanation": 6722,
      "GDP": 6723,
      "subparagraph": 6724,
      "talks": 6725,
      "associations": 6726,
      "enterprise": 6727,
      "federal": 6728,
      "ht": 6729,
      "accession": 6730,
      "experienced": 6731,
      "Team": 6732,
      "managers": 6733,
      "southern": 6734,
      "700": 6735,
      "Military": 6736,
      "resto": 6737,
      "Estonia": 6738,
      "Society": 6739,
      "Vict": 6740,
      "Very": 6741,
      "rd": 6742,
      "wider": 6743,
      "counsel": 6744,
      "declar": 6745,
      "invasion": 6746,
      "integrate": 6747,
      "Southern": 6748,
      "Uzbek": 6749,
      "retur": 6750,
      "periods": 6751,
      "favor": 6752,
      "arrested": 6753,
      "SBSTA": 6754,
      "Det": 6755,
      "lin": 6756,
      "remote": 6757,
      "boundary": 6758,
      "motion": 6759,
      "claimant": 6760,
      "funny": 6761,
      "RA": 6762,
      "ored": 6763,
      "resolved": 6764,
      "Mozamb": 6765,
      "Ill": 6766,
      "fol": 6767,
      "plat": 6768,
      "relatively": 6769,
      "olescent": 6770,
      "Before": 6771,
      "association": 6772,
      "believers": 6773,
      "Bye": 6774,
      "fre": 6775,
      "endor": 6776,
      "understood": 6777,
      "lihood": 6778,
      "Climate": 6779,
      "Pap": 6780,
      "beat": 6781,
      "perhaps": 6782,
      "programming": 6783,
      "anniversary": 6784,
      "appeals": 6785,
      "innocent": 6786,
      "Consideration": 6787,
      "uras": 6788,
      "Practic": 6789,
      "Turkish": 6790,
      "degradation": 6791,
      "Cross": 6792,
      "RAL": 6793,
      "widespread": 6794,
      "umbered": 6795,
      "Relations": 6796,
      "Adviser": 6797,
      "ults": 6798,
      "ape": 6799,
      "visited": 6800,
      "Developed": 6801,
      "requesting": 6802,
      "Organized": 6803,
      "sixtieth": 6804,
      "hearing": 6805,
      "debtor": 6806,
      "onsored": 6807,
      "dex": 6808,
      "operative": 6809,
      "considerations": 6810,
      "Finance": 6811,
      "Shut": 6812,
      "Ham": 6813,
      "equally": 6814,
      "tenth": 6815,
      "camps": 6816,
      "exclusive": 6817,
      "satisf": 6818,
      "explained": 6819,
      "76": 6820,
      "tri": 6821,
      "Inc": 6822,
      "iel": 6823,
      "sponsored": 6824,
      "commence": 6825,
      "ishing": 6826,
      "quarter": 6827,
      "habit": 6828,
      "demonstrate": 6829,
      "tourism": 6830,
      "title": 6831,
      "confirm": 6832,
      "grading": 6833,
      "adjustment": 6834,
      "SBI": 6835,
      "Mc": 6836,
      "Wo": 6837,
      "liber": 6838,
      "rs": 6839,
      "tenstein": 6840,
      "creditor": 6841,
      "disappear": 6842,
      "UNR": 6843,
      "fraud": 6844,
      "Establish": 6845,
      "Platform": 6846,
      "London": 6847,
      "disability": 6848,
      "possess": 6849,
      "camp": 6850,
      "straight": 6851,
      "isc": 6852,
      "forcing": 6853,
      "arding": 6854,
      "feeling": 6855,
      "Planning": 6856,
      "functional": 6857,
      "htm": 6858,
      "Mozambique": 6859,
      "variety": 6860,
      "UNCIT": 6861,
      "complaint": 6862,
      "performed": 6863,
      "Guidelines": 6864,
      "UNCITRAL": 6865,
      "Pover": 6866,
      "SC": 6867,
      "echtenstein": 6868,
      "organize": 6869,
      "successfully": 6870,
      "Poverty": 6871,
      "dark": 6872,
      "rational": 6873,
      "icated": 6874,
      "residence": 6875,
      "financed": 6876,
      "Liechtenstein": 6877,
      "Contents": 6878,
      "fisheries": 6879,
      "teachers": 6880,
      "piece": 6881,
      "Dominican": 6882,
      "aguay": 6883,
      "Bahrain": 6884,
      "Foundation": 6885,
      "hair": 6886,
      "laid": 6887,
      "sym": 6888,
      "capable": 6889,
      "212": 6890,
      "gather": 6891,
      "Paraguay": 6892,
      "attle": 6893,
      "page": 6894,
      "choose": 6895,
      "budgets": 6896,
      "Nevertheless": 6897,
      "Namibia": 6898,
      "lder": 6899,
      "Origin": 6900,
      "biennial": 6901,
      "properly": 6902,
      "presidential": 6903,
      "Expresses": 6904,
      "Hond": 6905,
      "wage": 6906,
      "Equ": 6907,
      "utilization": 6908,
      "worse": 6909,
      "Prov": 6910,
      "Prohib": 6911,
      "Advance": 6912,
      "staffing": 6913,
      "suffer": 6914,
      "fulfilment": 6915,
      "House": 6916,
      "aqu": 6917,
      "ilation": 6918,
      "white": 6919,
      "operate": 6920,
      "headed": 6921,
      "moral": 6922,
      "1989": 6923,
      "gaps": 6924,
      "terday": 6925,
      "update": 6926,
      "summit": 6927,
      "93": 6928,
      "Um": 6929,
      "ox": 6930,
      "imbur": 6931,
      "disposal": 6932,
      "asser": 6933,
      "assisted": 6934,
      "succeed": 6935,
      "Heads": 6936,
      "arbitrary": 6937,
      "hunger": 6938,
      "oriented": 6939,
      "Reduction": 6940,
      "Watch": 6941,
      "ias": 6942,
      "seeks": 6943,
      "released": 6944,
      "Employment": 6945,
      "mac": 6946,
      "exha": 6947,
      "requiring": 6948,
      "150": 6949,
      "Least": 6950,
      "powerful": 6951,
      "constant": 6952,
      "Settlements": 6953,
      "Nice": 6954,
      "PH": 6955,
      "ourselves": 6956,
      "strugg": 6957,
      "foster": 6958,
      "munition": 6959,
      "Contin": 6960,
      "qualified": 6961,
      "dinner": 6962,
      "Defence": 6963,
      "Spe": 6964,
      "moved": 6965,
      "gry": 6966,
      "progressive": 6967,
      "finds": 6968,
      "Indian": 6969,
      "85": 6970,
      "conservation": 6971,
      "indicates": 6972,
      "conventional": 6973,
      "Uzbekistan": 6974,
      "WP": 6975,
      "plus": 6976,
      "larger": 6977,
      "rests": 6978,
      "violent": 6979,
      "lady": 6980,
      "mountain": 6981,
      "hi": 6982,
      "mas": 6983,
      "agas": 6984,
      "UNITA": 6985,
      "representing": 6986,
      "micro": 6987,
      "reaffirm": 6988,
      "CL": 6989,
      "rog": 6990,
      "abol": 6991,
      "transnational": 6992,
      "recognizing": 6993,
      "summar": 6994,
      "Should": 6995,
      "Sch": 6996,
      "truly": 6997,
      "transfers": 6998,
      "questionna": 6999,
      "Science": 7000,
      "lebr": 7001,
      "celebr": 7002,
      "hael": 7003,
      "izations": 7004,
      "encing": 7005,
      "Protocols": 7006,
      "NA": 7007,
      "equity": 7008,
      "votes": 7009,
      "linkages": 7010,
      "exclusion": 7011,
      "Everything": 7012,
      "machin": 7013,
      "Trafficking": 7014,
      "aus": 7015,
      "oral": 7016,
      "isation": 7017,
      "offers": 7018,
      "seeing": 7019,
      "signing": 7020,
      "Arabic": 7021,
      "PAD": 7022,
      "idding": 7023,
      "Emirates": 7024,
      "Auditors": 7025,
      "interventions": 7026,
      "phenomenon": 7027,
      "excell": 7028,
      "village": 7029,
      "hazard": 7030,
      "satellite": 7031,
      "Case": 7032,
      "FP": 7033,
      "irect": 7034,
      "lists": 7035,
      "rep": 7036,
      "erved": 7037,
      "hey": 7038,
      "shut": 7039,
      "exclud": 7040,
      "Albania": 7041,
      "Equality": 7042,
      "Yet": 7043,
      "stages": 7044,
      "bench": 7045,
      "hat": 7046,
      "Guy": 7047,
      "sectoral": 7048,
      "yers": 7049,
      "reply": 7050,
      "accompan": 7051,
      "premis": 7052,
      "2015": 7053,
      "crises": 7054,
      "(“": 7055,
      "Could": 7056,
      "Emer": 7057,
      "Free": 7058,
      "rary": 7059,
      "feas": 7060,
      "convening": 7061,
      "Roma": 7062,
      "render": 7063,
      "Stay": 7064,
      "interpre": 7065,
      "belonging": 7066,
      "accompanied": 7067,
      "insu": 7068,
      "reading": 7069,
      "deeply": 7070,
      "Wow": 7071,
      "escap": 7072,
      "surely": 7073,
      "accessible": 7074,
      "Transnational": 7075,
      "Niger": 7076,
      "flexibility": 7077,
      "Pursu": 7078,
      "ets": 7079,
      "Serious": 7080,
      "manufacture": 7081,
      "IGH": 7082,
      "currency": 7083,
      "fle": 7084,
      "nity": 7085,
      "salary": 7086,
      "explicit": 7087,
      "awi": 7088,
      "determining": 7089,
      "negotiation": 7090,
      "friendly": 7091,
      "adequately": 7092,
      "rupt": 7093,
      "reliable": 7094,
      "79": 7095,
      "Call": 7096,
      "PC": 7097,
      "Washing": 7098,
      "street": 7099,
      "evol": 7100,
      "violated": 7101,
      "volume": 7102,
      "competitive": 7103,
      "double": 7104,
      "schedule": 7105,
      "Based": 7106,
      "rese": 7107,
      "shar": 7108,
      "formulated": 7109,
      "precise": 7110,
      "Honduras": 7111,
      "Pat": 7112,
      "holder": 7113,
      "consolidation": 7114,
      "Wed": 7115,
      "reimbur": 7116,
      "ministries": 7117,
      "movements": 7118,
      "investigate": 7119,
      "Transport": 7120,
      "Washington": 7121,
      "Tw": 7122,
      "Time": 7123,
      "eye": 7124,
      "icious": 7125,
      "chief": 7126,
      "signs": 7127,
      "commodity": 7128,
      "Gren": 7129,
      "begun": 7130,
      "opposition": 7131,
      "Thurs": 7132,
      "guided": 7133,
      "angible": 7134,
      "allowing": 7135,
      "Integrated": 7136,
      "Lad": 7137,
      "Os": 7138,
      "Sha": 7139,
      "explore": 7140,
      "windo": 7141,
      "forums": 7142,
      "Sign": 7143,
      "zones": 7144,
      "stim": 7145,
      "urch": 7146,
      "possession": 7147,
      "Interim": 7148,
      "Former": 7149,
      "gling": 7150,
      "shoot": 7151,
      "UNRWA": 7152,
      "prosper": 7153,
      "perce": 7154,
      "Environmental": 7155,
      "sweet": 7156,
      "Fire": 7157,
      "109": 7158,
      "putting": 7159,
      "denied": 7160,
      "acknowledged": 7161,
      "accomplishments": 7162,
      "prejudice": 7163,
      "pertaining": 7164,
      "Ato": 7165,
      "School": 7166,
      "mir": 7167,
      "itative": 7168,
      "composition": 7169,
      "emin": 7170,
      "promised": 7171,
      "conducting": 7172,
      "applies": 7173,
      "prohibition": 7174,
      "multiple": 7175,
      "rigendum": 7176,
      "Bill": 7177,
      "City": 7178,
      "OEC": 7179,
      "ounds": 7180,
      "desire": 7181,
      "curric": 7182,
      "memorandum": 7183,
      "David": 7184,
      "Rad": 7185,
      "ba": 7186,
      "iban": 7187,
      "bran": 7188,
      "1988": 7189,
      "distinction": 7190,
      "Durban": 7191,
      "VIII": 7192,
      "gar": 7193,
      "unk": 7194,
      "retire": 7195,
      "Operation": 7196,
      "UNOPS": 7197,
      "behaviour": 7198,
      "Against": 7199,
      "Djib": 7200,
      "Advancement": 7201,
      "ECO": 7202,
      "Hon": 7203,
      "unto": 7204,
      "Independent": 7205,
      "assume": 7206,
      "WAS": 7207,
      "covers": 7208,
      "indirect": 7209,
      "Recommendations": 7210,
      "Michael": 7211,
      "Taj": 7212,
      "dent": 7213,
      "iage": 7214,
      "ils": 7215,
      "Produc": 7216,
      "drinking": 7217,
      "stronger": 7218,
      "dress": 7219,
      "outputs": 7220,
      "equivalent": 7221,
      "Thursday": 7222,
      "89": 7223,
      "FDI": 7224,
      "Kar": 7225,
      "Vie": 7226,
      "mi": 7227,
      "outi": 7228,
      "scared": 7229,
      "Monter": 7230,
      "Sixty": 7231,
      "leng": 7232,
      "acity": 7233,
      "necessity": 7234,
      "gentle": 7235,
      "channel": 7236,
      "Among": 7237,
      "Taliban": 7238,
      "burn": 7239,
      "oa": 7240,
      "icul": 7241,
      "forgot": 7242,
      "composed": 7243,
      "250": 7244,
      "happens": 7245,
      "Build": 7246,
      "Pursuant": 7247,
      "cance": 7248,
      "wing": 7249,
      "Reiter": 7250,
      "voy": 7251,
      "arent": 7252,
      "Mont": 7253,
      "Treatment": 7254,
      "Barbad": 7255,
      "rejected": 7256,
      "Assessment": 7257,
      "Monterrey": 7258,
      "Make": 7259,
      "print": 7260,
      "odiversity": 7261,
      "objects": 7262,
      "annes": 7263,
      "Togo": 7264,
      "subjected": 7265,
      "stresses": 7266,
      "video": 7267,
      "Hur": 7268,
      "posing": 7269,
      "auth": 7270,
      "graphic": 7271,
      "usual": 7272,
      "premises": 7273,
      "83": 7274,
      "Bus": 7275,
      "DR": 7276,
      "EE": 7277,
      "cession": 7278,
      "aught": 7279,
      "lining": 7280,
      "spending": 7281,
      "definite": 7282,
      ",\"": 7283,
      "hut": 7284,
      "honey": 7285,
      "seized": 7286,
      "Statement": 7287,
      "emphasize": 7288,
      "IMF": 7289,
      "unteers": 7290,
      "quiry": 7291,
      "Barbados": 7292,
      "till": 7293,
      "ón": 7294,
      "ingu": 7295,
      "sessional": 7296,
      "beings": 7297,
      "Cal": 7298,
      "dates": 7299,
      "hin": 7300,
      "oned": 7301,
      "adolescent": 7302,
      "ibid": 7303,
      "interaction": 7304,
      "format": 7305,
      "airspace": 7306,
      "pregnant": 7307,
      "compatible": 7308,
      "Tajik": 7309,
      "conj": 7310,
      "grav": 7311,
      "laugh": 7312,
      "thereto": 7313,
      "awa": 7314,
      "procedural": 7315,
      "handle": 7316,
      "legitim": 7317,
      "historical": 7318,
      "barriers": 7319,
      "factory": 7320,
      "greatly": 7321,
      "accountable": 7322,
      "emphasizes": 7323,
      "iji": 7324,
      "OECD": 7325,
      "bond": 7326,
      "sch": 7327,
      "repatr": 7328,
      "idad": 7329,
      "ody": 7330,
      "cribed": 7331,
      "missed": 7332,
      "productivity": 7333,
      "Procedure": 7334,
      "Wednes": 7335,
      "gold": 7336,
      "weight": 7337,
      "fru": 7338,
      "reviewing": 7339,
      "install": 7340,
      "transportation": 7341,
      "customary": 7342,
      "Djibouti": 7343,
      "81": 7344,
      "Dan": 7345,
      "Tob": 7346,
      "ales": 7347,
      "propose": 7348,
      "scre": 7349,
      "apparent": 7350,
      "necessarily": 7351,
      "enger": 7352,
      "Johannes": 7353,
      "Similarly": 7354,
      "Mess": 7355,
      "optim": 7356,
      "thereof": 7357,
      "reased": 7358,
      "detained": 7359,
      "divid": 7360,
      "thy": 7361,
      "itiveness": 7362,
      "aco": 7363,
      "lob": 7364,
      "illustr": 7365,
      "NEPAD": 7366,
      "Five": 7367,
      "cited": 7368,
      "reo": 7369,
      "chain": 7370,
      "speaker": 7371,
      "reiterates": 7372,
      "cutting": 7373,
      "instructions": 7374,
      "Penal": 7375,
      "Nat": 7376,
      "wana": 7377,
      "Procurement": 7378,
      "anyway": 7379,
      "promoted": 7380,
      "corresponding": 7381,
      "Resource": 7382,
      "electric": 7383,
      "Kyr": 7384,
      "Atomic": 7385,
      "Wednesday": 7386,
      "fresh": 7387,
      "wind": 7388,
      "agents": 7389,
      "modif": 7390,
      "renewed": 7391,
      "vehicle": 7392,
      "confidential": 7393,
      "pollution": 7394,
      "Kyrgy": 7395,
      "Bl": 7396,
      "Jim": 7397,
      "loved": 7398,
      "refers": 7399,
      "ICC": 7400,
      "entials": 7401,
      "earing": 7402,
      "Madagas": 7403,
      "coherent": 7404,
      "incurred": 7405,
      "Kyrgyz": 7406,
      "Madagascar": 7407,
      "87": 7408,
      "ODA": 7409,
      "uk": 7410,
      "usto": 7411,
      "grants": 7412,
      "harass": 7413,
      "judgement": 7414,
      "arbitration": 7415,
      "enemy": 7416,
      "84": 7417,
      "iques": 7418,
      "pool": 7419,
      "spend": 7420,
      "relate": 7421,
      "recip": 7422,
      "continuation": 7423,
      "Ali": 7424,
      "Ca": 7425,
      "].": 7426,
      "rets": 7427,
      "Educational": 7428,
      "forthcoming": 7429,
      "block": 7430,
      "atically": 7431,
      "uls": 7432,
      "fool": 7433,
      "thereon": 7434,
      "CRP": 7435,
      "suggestions": 7436,
      "Johannesburg": 7437,
      "tribunal": 7438,
      "glad": 7439,
      "deaths": 7440,
      "certific": 7441,
      "machinery": 7442,
      "throw": 7443,
      "indis": 7444,
      "exemp": 7445,
      "aves": 7446,
      "allows": 7447,
      "incorporate": 7448,
      "Cape": 7449,
      "intensify": 7450,
      "deposit": 7451,
      "liberalization": 7452,
      "declarations": 7453,
      "thro": 7454,
      "isol": 7455,
      "ented": 7456,
      "resist": 7457,
      "warm": 7458,
      "About": 7459,
      "offee": 7460,
      "struggle": 7461,
      "ileg": 7462,
      "regimes": 7463,
      "disabled": 7464,
      "epide": 7465,
      "Within": 7466,
      "confisc": 7467,
      "Communic": 7468,
      "cooperative": 7469,
      "massive": 7470,
      "reinforce": 7471,
      "Original": 7472,
      "nur": 7473,
      "teed": 7474,
      "monthly": 7475,
      "pursued": 7476,
      "rapidly": 7477,
      "farmers": 7478,
      "excessive": 7479,
      "Tajikistan": 7480,
      "ips": 7481,
      "simpl": 7482,
      "reaffirms": 7483,
      "scheme": 7484,
      "UNIFEM": 7485,
      "Tues": 7486,
      "ceans": 7487,
      "Arbit": 7488,
      "Holy": 7489,
      "psychological": 7490,
      "motiv": 7491,
      "injured": 7492,
      "Illicit": 7493,
      "Fiji": 7494,
      "roeconomic": 7495,
      "oked": 7496,
      "hero": 7497,
      "Question": 7498,
      "Stresses": 7499,
      "aur": 7500,
      "beg": 7501,
      "transaction": 7502,
      "USD": 7503,
      "Maurit": 7504,
      "Judge": 7505,
      "vocational": 7506,
      "hum": 7507,
      "inputs": 7508,
      "balances": 7509,
      "facility": 7510,
      "Priv": 7511,
      "collect": 7512,
      "Without": 7513,
      "Annual": 7514,
      "adjustments": 7515,
      "Documentation": 7516,
      "neighbouring": 7517,
      "mil": 7518,
      "orm": 7519,
      "ario": 7520,
      "Eng": 7521,
      "Cop": 7522,
      "Ray": 7523,
      "huge": 7524,
      "ocean": 7525,
      "oured": 7526,
      "entre": 7527,
      "ifies": 7528,
      "prene": 7529,
      "reiterate": 7530,
      "Communications": 7531,
      "Know": 7532,
      "duration": 7533,
      "lights": 7534,
      "orest": 7535,
      "Confl": 7536,
      "encumbered": 7537,
      "requis": 7538,
      "Prevent": 7539,
      "HRC": 7540,
      "94": 7541,
      "Ten": 7542,
      "aling": 7543,
      "alition": 7544,
      "ulsion": 7545,
      "notification": 7546,
      "Bots": 7547,
      "continuous": 7548,
      "connected": 7549,
      "George": 7550,
      "constituted": 7551,
      "Appeals": 7552,
      "Tuesday": 7553,
      "Mechan": 7554,
      "Election": 7555,
      "announce": 7556,
      "Paul": 7557,
      "package": 7558,
      "coastal": 7559,
      "900": 7560,
      "Custo": 7561,
      "discre": 7562,
      "respected": 7563,
      "Articles": 7564,
      "interesting": 7565,
      "CRC": 7566,
      "guaranteed": 7567,
      "teaching": 7568,
      "district": 7569,
      "LE": 7570,
      "rock": 7571,
      "seats": 7572,
      "uggling": 7573,
      "carbon": 7574,
      "favourable": 7575,
      "remedy": 7576,
      "injury": 7577,
      "Botswana": 7578,
      "\"?": 7579,
      "CER": 7580,
      "Kim": 7581,
      "Sat": 7582,
      "root": 7583,
      "Aligned": 7584,
      "ustries": 7585,
      "repatriation": 7586,
      "Ele": 7587,
      "ja": 7588,
      "prospects": 7589,
      "cry": 7590,
      "ancies": 7591,
      "Industrial": 7592,
      "eastern": 7593,
      "Standing": 7594,
      "inspection": 7595,
      "becomes": 7596,
      "conjunction": 7597,
      "bing": 7598,
      "bast": 7599,
      "Web": 7600,
      "guil": 7601,
      "servicing": 7602,
      "lawyers": 7603,
      "speech": 7604,
      "competitiveness": 7605,
      "professionals": 7606,
      "authors": 7607,
      "astic": 7608,
      "feet": 7609,
      "Progress": 7610,
      "maritime": 7611,
      "northern": 7612,
      "introducing": 7613,
      "happening": 7614,
      "recipient": 7615,
      "quo": 7616,
      "thorough": 7617,
      "assessing": 7618,
      "wake": 7619,
      "intelligence": 7620,
      "Damn": 7621,
      "Fish": 7622,
      "syn": 7623,
      "Book": 7624,
      "carefully": 7625,
      "arrangement": 7626,
      "ENT": 7627,
      "MAN": 7628,
      "crow": 7629,
      "crop": 7630,
      "tables": 7631,
      "loans": 7632,
      "execut": 7633,
      "discharge": 7634,
      "Decree": 7635,
      "marry": 7636,
      "mandatory": 7637,
      "genocide": 7638,
      "Corruption": 7639,
      "revealed": 7640,
      "zing": 7641,
      "enshr": 7642,
      "arise": 7643,
      "ille": 7644,
      "lawyer": 7645,
      "Statements": 7646,
      "allowance": 7647,
      "Malawi": 7648,
      "forests": 7649,
      "Lao": 7650,
      "purchase": 7651,
      "Hong": 7652,
      "None": 7653,
      "rees": 7654,
      "het": 7655,
      "exists": 7656,
      "anybody": 7657,
      "millions": 7658,
      "realized": 7659,
      "autonom": 7660,
      "Inspection": 7661,
      "Equal": 7662,
      "restruct": 7663,
      "ectors": 7664,
      "proud": 7665,
      "cruel": 7666,
      "newly": 7667,
      "tware": 7668,
      "receipt": 7669,
      "projected": 7670,
      "freely": 7671,
      "fellow": 7672,
      "Dra": 7673,
      "Val": 7674,
      "wards": 7675,
      "wered": 7676,
      "depends": 7677,
      "calm": 7678,
      "willingness": 7679,
      "protocols": 7680,
      "Conclusion": 7681,
      "sam": 7682,
      "organizing": 7683,
      "commended": 7684,
      "chosen": 7685,
      "drawing": 7686,
      "harmonization": 7687,
      "82": 7688,
      "rout": 7689,
      "Trin": 7690,
      "career": 7691,
      "academic": 7692,
      "bis": 7693,
      "lived": 7694,
      "entail": 7695,
      "sud": 7696,
      "mbol": 7697,
      "flag": 7698,
      "Spec": 7699,
      "receiv": 7700,
      "responded": 7701,
      "Constitutional": 7702,
      "congratulate": 7703,
      "decentral": 7704,
      "RC": 7705,
      "alter": 7706,
      "compe": 7707,
      "presents": 7708,
      "flight": 7709,
      "mart": 7710,
      "Consultative": 7711,
      "permitted": 7712,
      "overview": 7713,
      "Country": 7714,
      "tribution": 7715,
      "livelihood": 7716,
      "custody": 7717,
      "testing": 7718,
      "golese": 7719,
      "manager": 7720,
      "totally": 7721,
      "pleasure": 7722,
      "Adopted": 7723,
      "CI": 7724,
      "inated": 7725,
      "reserve": 7726,
      "bell": 7727,
      "compass": 7728,
      "Army": 7729,
      "Mer": 7730,
      "kiss": 7731,
      "pens": 7732,
      "itals": 7733,
      "adhe": 7734,
      "unanim": 7735,
      "negl": 7736,
      "firms": 7737,
      "arrived": 7738,
      "ASE": 7739,
      "schemes": 7740,
      "union": 7741,
      "aband": 7742,
      "abroad": 7743,
      "boat": 7744,
      "Peter": 7745,
      "biodiversity": 7746,
      "stocks": 7747,
      "instances": 7748,
      "combatants": 7749,
      "generations": 7750,
      "entrusted": 7751,
      "Basel": 7752,
      "transmitting": 7753,
      "Narcotic": 7754,
      "ani": 7755,
      "ods": 7756,
      "disaggreg": 7757,
      "landlocked": 7758,
      "1990s": 7759,
      ",”": 7760,
      "alys": 7761,
      "quiet": 7762,
      "user": 7763,
      "underlying": 7764,
      "ancer": 7765,
      "frame": 7766,
      "bio": 7767,
      "define": 7768,
      "stereo": 7769,
      "contractual": 7770,
      "expanding": 7771,
      "gratitude": 7772,
      "Series": 7773,
      "flexible": 7774,
      "households": 7775,
      "Anti": 7776,
      "IX": 7777,
      "Kong": 7778,
      "dating": 7779,
      "suit": 7780,
      "igate": 7781,
      "abin": 7782,
      "ectives": 7783,
      "Remember": 7784,
      "annually": 7785,
      "mostly": 7786,
      "reflecting": 7787,
      "eradicate": 7788,
      "evaluate": 7789,
      "questionnaire": 7790,
      "Building": 7791,
      "963": 7792,
      "Mary": 7793,
      "mouth": 7794,
      "sme": 7795,
      "utr": 7796,
      "ush": 7797,
      "vast": 7798,
      "facilitation": 7799,
      "yesterday": 7800,
      "managing": 7801,
      "Local": 7802,
      "Mauritania": 7803,
      "120": 7804,
      "apart": 7805,
      "monetary": 7806,
      "dedicated": 7807,
      "IU": 7808,
      "pull": 7809,
      "umber": 7810,
      "replaced": 7811,
      "stone": 7812,
      "mitigation": 7813,
      "vise": 7814,
      "plane": 7815,
      "Monetary": 7816,
      "Strip": 7817,
      "extrabudgetary": 7818,
      "ceasefire": 7819,
      "MDGs": 7820,
      "liberty": 7821,
      "Gree": 7822,
      "Source": 7823,
      "ky": 7824,
      "sac": 7825,
      "twent": 7826,
      "amounted": 7827,
      "Twenty": 7828,
      "entreprene": 7829,
      "orally": 7830,
      "itious": 7831,
      "possibly": 7832,
      "separation": 7833,
      "ceptions": 7834,
      "maxim": 7835,
      "Migration": 7836,
      "Legislative": 7837,
      "91": 7838,
      "inhuman": 7839,
      "input": 7840,
      "verbal": 7841,
      "viable": 7842,
      "defenders": 7843,
      "mobilize": 7844,
      "contingent": 7845,
      "excellent": 7846,
      "sudden": 7847,
      "FC": 7848,
      "tom": 7849,
      "worst": 7850,
      "derived": 7851,
      "interview": 7852,
      "trials": 7853,
      "Montreal": 7854,
      "index": 7855,
      "regardless": 7856,
      "Monaco": 7857,
      "graphy": 7858,
      "diamonds": 7859,
      "dance": 7860,
      "cepts": 7861,
      "applying": 7862,
      "borrow": 7863,
      "inflation": 7864,
      "eligible": 7865,
      "anticipated": 7866,
      "guilty": 7867,
      "Current": 7868,
      "Mother": 7869,
      "sor": 7870,
      "tangible": 7871,
      "corrigendum": 7872,
      "popular": 7873,
      "rising": 7874,
      "conducive": 7875,
      "aspect": 7876,
      "negotiating": 7877,
      "relationships": 7878,
      "Grand": 7879,
      "storage": 7880,
      "Prohibition": 7881,
      "kin": 7882,
      "revers": 7883,
      "conce": 7884,
      "convey": 7885,
      "porters": 7886,
      "shoc": 7887,
      "notably": 7888,
      ")).": 7889,
      "attr": 7890,
      "merely": 7891,
      "submissions": 7892,
      "regarded": 7893,
      "Organizations": 7894,
      "Enh": 7895,
      "Disaster": 7896,
      "ratify": 7897,
      "Something": 7898,
      "accordingly": 7899,
      "software": 7900,
      "Emergency": 7901,
      "iable": 7902,
      "rot": 7903,
      "igno": 7904,
      "mutually": 7905,
      "Workshop": 7906,
      "television": 7907,
      "predictable": 7908,
      "Alex": 7909,
      "Has": 7910,
      "las": 7911,
      "manual": 7912,
      "desi": 7913,
      "terrible": 7914,
      "Organ": 7915,
      "hopes": 7916,
      "allel": 7917,
      "Business": 7918,
      "Bon": 7919,
      "len": 7920,
      "nar": 7921,
      "revital": 7922,
      "tric": 7923,
      "wear": 7924,
      "subjects": 7925,
      "uncertain": 7926,
      "Final": 7927,
      "Captain": 7928,
      "normally": 7929,
      "Biological": 7930,
      "Hague": 7931,
      "song": 7932,
      "uling": 7933,
      "register": 7934,
      "admissibility": 7935,
      "brain": 7936,
      "abduc": 7937,
      "Consen": 7938,
      "displacement": 7939,
      "foundation": 7940,
      "copies": 7941,
      "ulsory": 7942,
      "twentieth": 7943,
      "coffee": 7944,
      "programs": 7945,
      "themes": 7946,
      "justified": 7947,
      "evening": 7948,
      "Suppression": 7949,
      "commentary": 7950,
      "Consensus": 7951,
      "spr": 7952,
      "inser": 7953,
      "instit": 7954,
      "Youth": 7955,
      "Whatever": 7956,
      "concerted": 7957,
      "consequence": 7958,
      "attempts": 7959,
      "ammunition": 7960,
      "outreach": 7961,
      "shouldn": 7962,
      "gains": 7963,
      "Lastly": 7964,
      "warrant": 7965,
      "AF": 7966,
      "file": 7967,
      "sad": 7968,
      "undermine": 7969,
      "anging": 7970,
      "generate": 7971,
      "surveys": 7972,
      "Contracting": 7973,
      "\",": 7974,
      "Ram": 7975,
      "kidding": 7976,
      "rebel": 7977,
      "remove": 7978,
      "atmo": 7979,
      "contacts": 7980,
      "subregion": 7981,
      "twice": 7982,
      "cluster": 7983,
      "afternoon": 7984,
      "cultures": 7985,
      "credibility": 7986,
      "rapporteur": 7987,
      "acquired": 7988,
      "conviction": 7989,
      "juven": 7990,
      "PHP": 7991,
      "Trinidad": 7992,
      "Bob": 7993,
      "Sw": 7994,
      "Shar": 7995,
      "pices": 7996,
      "vig": 7997,
      "eck": 7998,
      "malaria": 7999,
      "generated": 8000,
      "seemed": 8001,
      "auspices": 8002,
      "harassment": 8003,
      "Ocean": 8004,
      "fly": 8005,
      "ti": 8006,
      "boss": 8007,
      "techniques": 8008,
      "banking": 8009,
      "paying": 8010,
      "Investment": 8011,
      "imperative": 8012,
      "'.": 8013,
      "Bhut": 8014,
      "Dialogue": 8015,
      "GC": 8016,
      "falling": 8017,
      "dispar": 8018,
      "filed": 8019,
      "________": 8020,
      "accurate": 8021,
      "fal": 8022,
      "fing": 8023,
      "phr": 8024,
      "driven": 8025,
      "legitimacy": 8026,
      "Distr": 8027,
      "Lim": 8028,
      "complic": 8029,
      "sake": 8030,
      "consultants": 8031,
      "waiti": 8032,
      "maternal": 8033,
      "Appro": 8034,
      "mothers": 8035,
      "OSCE": 8036,
      "Capacity": 8037,
      "removal": 8038,
      "soul": 8039,
      "Jean": 8040,
      "Turkmen": 8041,
      "86": 8042,
      "Bearing": 8043,
      "Erad": 8044,
      "heading": 8045,
      "distingu": 8046,
      "Kuwaiti": 8047,
      "limitations": 8048,
      "Closed": 8049,
      "NAT": 8050,
      "gs": 8051,
      "pal": 8052,
      "til": 8053,
      "encompass": 8054,
      "immigration": 8055,
      "formulate": 8056,
      "preamb": 8057,
      "easily": 8058,
      "Japanese": 8059,
      "expectations": 8060,
      "Samoa": 8061,
      "Big": 8062,
      "kee": 8063,
      "Democr": 8064,
      "desertification": 8065,
      "scar": 8066,
      "species": 8067,
      "facilitated": 8068,
      "elsewhere": 8069,
      "Related": 8070,
      "elaboration": 8071,
      "detainees": 8072,
      "square": 8073,
      "ilo": 8074,
      "shift": 8075,
      "preserve": 8076,
      "Nobody": 8077,
      "forever": 8078,
      "termination": 8079,
      "Regarding": 8080,
      "restricted": 8081,
      "sky": 8082,
      "supervision": 8083,
      "lucky": 8084,
      "divor": 8085,
      "Guyana": 8086,
      "enshrined": 8087,
      "SS": 8088,
      "erto": 8089,
      "confront": 8090,
      "chr": 8091,
      "ecture": 8092,
      "fron": 8093,
      "accred": 8094,
      "locations": 8095,
      "producing": 8096,
      "Rio": 8097,
      "icide": 8098,
      "Congolese": 8099,
      "ministers": 8100,
      "issuance": 8101,
      "anny": 8102,
      "delays": 8103,
      "causing": 8104,
      "instal": 8105,
      "analytical": 8106,
      "Muslim": 8107,
      "comprising": 8108,
      "Van": 8109,
      "reductions": 8110,
      "sales": 8111,
      "assumed": 8112,
      "incentives": 8113,
      "client": 8114,
      "Tobago": 8115,
      "92": 8116,
      "Fine": 8117,
      "Kh": 8118,
      "elder": 8119,
      "iam": 8120,
      "atization": 8121,
      "accommod": 8122,
      "Command": 8123,
      "closing": 8124,
      "description": 8125,
      "Post": 8126,
      "patterns": 8127,
      "Consequently": 8128,
      "1949": 8129,
      "approve": 8130,
      "broke": 8131,
      "broken": 8132,
      "summits": 8133,
      "iciaries": 8134,
      "houses": 8135,
      "disseminate": 8136,
      "Sahara": 8137,
      "Delegations": 8138,
      "Care": 8139,
      "RES": 8140,
      "endar": 8141,
      "disadvant": 8142,
      "match": 8143,
      "scen": 8144,
      "surround": 8145,
      "entions": 8146,
      "aspir": 8147,
      "characteristics": 8148,
      "duplication": 8149,
      "Violations": 8150,
      "dimensions": 8151,
      "heritage": 8152,
      "erce": 8153,
      "iled": 8154,
      "ram": 8155,
      "soph": 8156,
      "council": 8157,
      "Leave": 8158,
      "Roy": 8159,
      "transitional": 8160,
      "Greek": 8161,
      "Bhutan": 8162,
      "SME": 8163,
      "TV": 8164,
      "hes": 8165,
      "ko": 8166,
      "asing": 8167,
      "prud": 8168,
      "pract": 8169,
      "Welcome": 8170,
      "Verde": 8171,
      "01": 8172,
      "UT": 8173,
      "bird": 8174,
      "....": 8175,
      "industries": 8176,
      "eliminating": 8177,
      "Relief": 8178,
      "GH": 8179,
      "WFP": 8180,
      "Contribution": 8181,
      "preval": 8182,
      "shelter": 8183,
      "udsman": 8184,
      "Gabon": 8185,
      "Omb": 8186,
      "Sar": 8187,
      "online": 8188,
      "iny": 8189,
      "abst": 8190,
      "outset": 8191,
      "insist": 8192,
      "Grant": 8193,
      "digital": 8194,
      "provincial": 8195,
      "deemed": 8196,
      "waters": 8197,
      "restructuring": 8198,
      "Lou": 8199,
      "nav": 8200,
      "scient": 8201,
      "observance": 8202,
      "liaison": 8203,
      "targeting": 8204,
      "Syria": 8205,
      "Responsible": 8206,
      "Certain": 8207,
      "falls": 8208,
      "slight": 8209,
      "Combat": 8210,
      "servants": 8211,
      "cury": 8212,
      "driving": 8213,
      "Freedom": 8214,
      "py": 8215,
      "alleng": 8216,
      "quest": 8217,
      "saved": 8218,
      "ultimately": 8219,
      "enhouse": 8220,
      "river": 8221,
      "Colonial": 8222,
      "substantially": 8223,
      "mistake": 8224,
      "frequently": 8225,
      "ESCAP": 8226,
      "Us": 8227,
      "gies": 8228,
      "illance": 8229,
      "Unfortunately": 8230,
      "lau": 8231,
      "earning": 8232,
      "alternatives": 8233,
      "Everyone": 8234,
      "perspectives": 8235,
      "safeguard": 8236,
      "Situation": 8237,
      "Father": 8238,
      "df": 8239,
      "gel": 8240,
      "tox": 8241,
      "suitable": 8242,
      "recalls": 8243,
      "enhancement": 8244,
      "harmful": 8245,
      "Baham": 8246,
      "Kyrgyzstan": 8247,
      "fired": 8248,
      "tight": 8249,
      "wound": 8250,
      "”)": 8251,
      "remarks": 8252,
      "regulated": 8253,
      "symbol": 8254,
      "restoration": 8255,
      "cultiv": 8256,
      "showing": 8257,
      "profit": 8258,
      "Cuban": 8259,
      "consolidate": 8260,
      "gained": 8261,
      "Bolivarian": 8262,
      "Hurry": 8263,
      "assure": 8264,
      "apportion": 8265,
      "endix": 8266,
      "Independence": 8267,
      "evident": 8268,
      "faces": 8269,
      "healthy": 8270,
      "toward": 8271,
      "honest": 8272,
      "briefings": 8273,
      "disaggregated": 8274,
      "enorm": 8275,
      "stairs": 8276,
      "amaz": 8277,
      "compulsory": 8278,
      "Directorate": 8279,
      "convene": 8280,
      "revenue": 8281,
      "iy": 8282,
      "iar": 8283,
      "attract": 8284,
      "worship": 8285,
      "finish": 8286,
      "somewhere": 8287,
      "Account": 8288,
      "Perhaps": 8289,
      "deny": 8290,
      "ught": 8291,
      "referen": 8292,
      "nobody": 8293,
      "prin": 8294,
      "kelau": 8295,
      "Tokelau": 8296,
      "investors": 8297,
      "summer": 8298,
      "evaluations": 8299,
      "Cypri": 8300,
      "arbitral": 8301,
      "meaningful": 8302,
      "…………": 8303,
      "manifestations": 8304,
      "assumption": 8305,
      "Turkmenistan": 8306,
      ")/": 8307,
      "hide": 8308,
      "kno": 8309,
      "ride": 8310,
      "reward": 8311,
      "ulates": 8312,
      "uct": 8313,
      "accum": 8314,
      "angers": 8315,
      "observation": 8316,
      "named": 8317,
      "sensit": 8318,
      "supplementary": 8319,
      "explosive": 8320,
      "Bahamas": 8321,
      "Cause": 8322,
      "iant": 8323,
      "tun": 8324,
      "encoun": 8325,
      "andan": 8326,
      "concepts": 8327,
      "withstanding": 8328,
      "utmost": 8329,
      "buildings": 8330,
      "correspond": 8331,
      "removed": 8332,
      "macroeconomic": 8333,
      "DE": 8334,
      "Light": 8335,
      "Sex": 8336,
      "pra": 8337,
      "stant": 8338,
      "acknowledge": 8339,
      "trig": 8340,
      "rendered": 8341,
      "fees": 8342,
      "commerce": 8343,
      "whenever": 8344,
      "Registr": 8345,
      "Reporting": 8346,
      "distur": 8347,
      "neutr": 8348,
      "moon": 8349,
      "blue": 8350,
      "matically": 8351,
      "hotel": 8352,
      "advances": 8353,
      "endeavour": 8354,
      "Master": 8355,
      "icians": 8356,
      "mankind": 8357,
      "intensive": 8358,
      "scene": 8359,
      "participatory": 8360,
      "refrain": 8361,
      "Prior": 8362,
      "describe": 8363,
      "firmly": 8364,
      "renewable": 8365,
      "villages": 8366,
      "politics": 8367,
      "Institutions": 8368,
      "Punishment": 8369,
      "Conflict": 8370,
      "1st": 8371,
      "Mm": 8372,
      "caught": 8373,
      "iqu": 8374,
      "pin": 8375,
      "challeng": 8376,
      "nees": 8377,
      "Isn": 8378,
      "nesses": 8379,
      "kidn": 8380,
      "Facility": 8381,
      "Saharan": 8382,
      "ASEAN": 8383,
      "alysis": 8384,
      "false": 8385,
      "bath": 8386,
      "gam": 8387,
      "vin": 8388,
      "parallel": 8389,
      "strike": 8390,
      "offering": 8391,
      "inequality": 8392,
      "basel": 8393,
      "expulsion": 8394,
      "OV": 8395,
      "Ps": 8396,
      "pdf": 8397,
      "vest": 8398,
      "thr": 8399,
      "ordered": 8400,
      "relates": 8401,
      "facto": 8402,
      "brings": 8403,
      "holds": 8404,
      "comparative": 8405,
      "strictly": 8406,
      "assignment": 8407,
      "window": 8408,
      "Tru": 8409,
      "Princ": 8410,
      "beneficiaries": 8411,
      "Whoa": 8412,
      "granting": 8413,
      "complementary": 8414,
      "degrading": 8415,
      "chaired": 8416,
      "Commonwealth": 8417,
      "CMP": 8418,
      "restore": 8419,
      "twel": 8420,
      "alam": 8421,
      "stick": 8422,
      "Governmental": 8423,
      "clothes": 8424,
      "involves": 8425,
      "Regulation": 8426,
      "associate": 8427,
      "Senior": 8428,
      "DO": 8429,
      "lu": 8430,
      "zz": 8431,
      "thou": 8432,
      "isive": 8433,
      "irt": 8434,
      "utable": 8435,
      "estimate": 8436,
      "corner": 8437,
      "initiate": 8438,
      "Statistical": 8439,
      "urgently": 8440,
      "accelerate": 8441,
      "hazardous": 8442,
      "fruit": 8443,
      "Abu": 8444,
      "Daddy": 8445,
      "fth": 8446,
      "uous": 8447,
      "itudes": 8448,
      "defer": 8449,
      "tension": 8450,
      "frag": 8451,
      "kinds": 8452,
      "credible": 8453,
      "Maj": 8454,
      "Belize": 8455,
      "clarification": 8456,
      "Facilit": 8457,
      "Mechanism": 8458,
      "Cit": 8459,
      "Oman": 8460,
      "interactive": 8461,
      "Think": 8462,
      "colonial": 8463,
      "collected": 8464,
      "mobility": 8465,
      "Correc": 8466,
      "clarify": 8467,
      "Basic": 8468,
      "phrase": 8469,
      "Press": 8470,
      "Recon": 8471,
      "ek": 8472,
      "inhe": 8473,
      "impose": 8474,
      "compromise": 8475,
      "els": 8476,
      "atories": 8477,
      "stopped": 8478,
      "parent": 8479,
      "distinct": 8480,
      "length": 8481,
      "definitely": 8482,
      "Evaluation": 8483,
      "ira": 8484,
      "enforced": 8485,
      "Access": 8486,
      "consul": 8487,
      "caution": 8488,
      "05": 8489,
      "entering": 8490,
      "ecom": 8491,
      "incidence": 8492,
      "underlined": 8493,
      "surpris": 8494,
      "performing": 8495,
      "allegedly": 8496,
      "Upon": 8497,
      "literacy": 8498,
      "GE": 8499,
      "Liber": 8500,
      "offset": 8501,
      "sitting": 8502,
      "Trial": 8503,
      "ranch": 8504,
      "discriminate": 8505,
      "fulfilled": 8506,
      "Participation": 8507,
      "eg": 8508,
      "urgency": 8509,
      "delegates": 8510,
      "placing": 8511,
      "film": 8512,
      "hostilities": 8513,
      "roads": 8514,
      "Lesoth": 8515,
      "innovation": 8516,
      "chairman": 8517,
      "kok": 8518,
      "abuses": 8519,
      "Accoun": 8520,
      "planet": 8521,
      "indicator": 8522,
      "1987": 8523,
      "1973": 8524,
      "Recognizes": 8525,
      "candidate": 8526,
      "greenhouse": 8527,
      "vacancy": 8528,
      "parliamentary": 8529,
      "deprived": 8530,
      "UNITAR": 8531,
      "Lesotho": 8532,
      "MO": 8533,
      "seg": 8534,
      "prop": 8535,
      "uting": 8536,
      "consumer": 8537,
      "threatened": 8538,
      "Corpor": 8539,
      "custom": 8540,
      "2nd": 8541,
      "Tu": 8542,
      "iment": 8543,
      "iot": 8544,
      "Powers": 8545,
      "watching": 8546,
      "translation": 8547,
      "replies": 8548,
      "heavens": 8549,
      "PO": 8550,
      "weird": 8551,
      "Prosecution": 8552,
      "providers": 8553,
      "Order": 8554,
      "surances": 8555,
      "limitation": 8556,
      "affirm": 8557,
      "ALL": 8558,
      "CTC": 8559,
      "persistent": 8560,
      "Black": 8561,
      "Ident": 8562,
      "Ty": 8563,
      "cue": 8564,
      "dry": 8565,
      "repar": 8566,
      "worried": 8567,
      "coerc": 8568,
      "spa": 8569,
      "mediation": 8570,
      "whereby": 8571,
      "Puerto": 8572,
      "wrongful": 8573,
      "Secondly": 8574,
      "momentum": 8575,
      "surveillance": 8576,
      "requisite": 8577,
      "Ef": 8578,
      "andem": 8579,
      "province": 8580,
      "tray": 8581,
      "Canad": 8582,
      "pursuit": 8583,
      "Log": 8584,
      "1982": 8585,
      "Major": 8586,
      "exceptional": 8587,
      "prosperity": 8588,
      "Bra": 8589,
      "Clear": 8590,
      "Dom": 8591,
      "eds": 8592,
      "meters": 8593,
      "zero": 8594,
      "teacher": 8595,
      "machine": 8596,
      "attributable": 8597,
      "Customs": 8598,
      "Registrar": 8599,
      "Huh": 8600,
      "jection": 8601,
      "impl": 8602,
      "lots": 8603,
      "businesses": 8604,
      "guideline": 8605,
      "negotiated": 8606,
      "eventually": 8607,
      "subsidies": 8608,
      "swear": 8609,
      "ileges": 8610,
      "Gol": 8611,
      "Ir": 8612,
      "aka": 8613,
      "contracting": 8614,
      "filled": 8615,
      "medicine": 8616,
      "enormous": 8617,
      "forts": 8618,
      "soever": 8619,
      "blind": 8620,
      "Alliance": 8621,
      "residents": 8622,
      "readiness": 8623,
      "carriage": 8624,
      "hundreds": 8625,
      "tackle": 8626,
      "commencement": 8627,
      "Er": 8628,
      "nance": 8629,
      "finished": 8630,
      "systematically": 8631,
      "Lead": 8632,
      "End": 8633,
      "tribute": 8634,
      "significance": 8635,
      "methodologies": 8636,
      "Communication": 8637,
      "devices": 8638,
      "survival": 8639,
      "citizenship": 8640,
      "Reiterates": 8641,
      ")]": 8642,
      "LA": 8643,
      "yield": 8644,
      "thered": 8645,
      "ili": 8646,
      "stands": 8647,
      "existed": 8648,
      "Elec": 8649,
      "Joe": 8650,
      "1986": 8651,
      "Abd": 8652,
      "alienable": 8653,
      "enabled": 8654,
      "commodities": 8655,
      "James": 8656,
      "severely": 8657,
      "uniform": 8658,
      "dynamic": 8659,
      "Age": 8660,
      "Lakes": 8661,
      "SIL": 8662,
      "assurances": 8663,
      "weren": 8664,
      "attitudes": 8665,
      "Presidents": 8666,
      "Franc": 8667,
      "solve": 8668,
      "models": 8669,
      "Bangkok": 8670,
      "grown": 8671,
      "clients": 8672,
      "retirement": 8673,
      "110": 8674,
      "bless": 8675,
      "addresses": 8676,
      "Address": 8677,
      "holm": 8678,
      "Someone": 8679,
      "corporations": 8680,
      "penalties": 8681,
      "Cred": 8682,
      "TD": 8683,
      "appropriation": 8684,
      "submitting": 8685,
      "unei": 8686,
      "Jane": 8687,
      "glass": 8688,
      "devast": 8689,
      "encountered": 8690,
      "Hen": 8691,
      "Ju": 8692,
      "Sco": 8693,
      "kil": 8694,
      "wastes": 8695,
      "registry": 8696,
      "assa": 8697,
      "Andor": 8698,
      "capability": 8699,
      "budgeting": 8700,
      "Center": 8701,
      "plays": 8702,
      "Manual": 8703,
      "gradu": 8704,
      "appointments": 8705,
      "Green": 8706,
      "suppliers": 8707,
      "drafted": 8708,
      "Voluntary": 8709,
      "narrow": 8710,
      "Pension": 8711,
      "pul": 8712,
      "zen": 8713,
      "counselling": 8714,
      "intends": 8715,
      "religions": 8716,
      "UNMIS": 8717,
      "obtaining": 8718,
      "aquif": 8719,
      "DF": 8720,
      "HE": 8721,
      "Hand": 8722,
      "Had": 8723,
      "thir": 8724,
      "admin": 8725,
      "spare": 8726,
      "owed": 8727,
      "External": 8728,
      "club": 8729,
      "specially": 8730,
      "pursuing": 8731,
      "alien": 8732,
      "hammad": 8733,
      "salaries": 8734,
      "durable": 8735,
      "orientation": 8736,
      "escape": 8737,
      "lets": 8738,
      "agent": 8739,
      "features": 8740,
      "strange": 8741,
      "140": 8742,
      "hosted": 8743,
      "restrict": 8744,
      "Survey": 8745,
      "Data": 8746,
      "escal": 8747,
      "Level": 8748,
      "accounted": 8749,
      "postp": 8750,
      "Brunei": 8751,
      "acquire": 8752,
      "absolutely": 8753,
      "Ombudsman": 8754,
      "Fig": 8755,
      "Lit": 8756,
      "gic": 8757,
      "inhabit": 8758,
      "orph": 8759,
      "forgive": 8760,
      "unions": 8761,
      "etic": 8762,
      "Envoy": 8763,
      "realistic": 8764,
      "Charlie": 8765,
      "Everybody": 8766,
      "courage": 8767,
      "birthday": 8768,
      "disciplinary": 8769,
      "electricity": 8770,
      "indispens": 8771,
      "Life": 8772,
      "Mine": 8773,
      "dives": 8774,
      "east": 8775,
      "sin": 8776,
      "erving": 8777,
      "soil": 8778,
      "Analysis": 8779,
      "intim": 8780,
      "plants": 8781,
      "possibilities": 8782,
      "reportedly": 8783,
      "consistently": 8784,
      "university": 8785,
      "Professor": 8786,
      "provinces": 8787,
      "Lucia": 8788,
      "abinet": 8789,
      "Efforts": 8790,
      "Jul": 8791,
      "Jose": 8792,
      "Tai": 8793,
      "conver": 8794,
      "Interior": 8795,
      "diverse": 8796,
      "munitions": 8797,
      "borne": 8798,
      "gentlemen": 8799,
      "schol": 8800,
      "epidemic": 8801,
      "CAR": 8802,
      "Home": 8803,
      "Test": 8804,
      "Committed": 8805,
      "nee": 8806,
      "interference": 8807,
      "disclosure": 8808,
      "lah": 8809,
      "consists": 8810,
      "intend": 8811,
      "transmission": 8812,
      "pressing": 8813,
      "lantic": 8814,
      "satisfactory": 8815,
      "entirely": 8816,
      "suggestion": 8817,
      "Matters": 8818,
      "Stockholm": 8819,
      "verbale": 8820,
      "Amend": 8821,
      "Aware": 8822,
      "Jour": 8823,
      "mem": 8824,
      "liabilities": 8825,
      "handling": 8826,
      "taxes": 8827,
      "Audit": 8828,
      "vary": 8829,
      "trip": 8830,
      "Proper": 8831,
      "airport": 8832,
      "evolution": 8833,
      "refused": 8834,
      "Marino": 8835,
      "ussalam": 8836,
      "extraordinary": 8837,
      "bullet": 8838,
      "manufacturing": 8839,
      "analyse": 8840,
      "Andorra": 8841,
      "indispensable": 8842,
      "Ev": 8843,
      "RIGH": 8844,
      "iments": 8845,
      "ano": 8846,
      "illy": 8847,
      "impress": 8848,
      "thinks": 8849,
      "recover": 8850,
      "Somali": 8851,
      "Brus": 8852,
      "Darussalam": 8853,
      "bridge": 8854,
      "emergencies": 8855,
      "Hal": 8856,
      "bol": 8857,
      "remun": 8858,
      "deple": 8859,
      "130": 8860,
      "welcoming": 8861,
      "focuses": 8862,
      "instability": 8863,
      "Racism": 8864,
      "excluded": 8865,
      "Try": 8866,
      "smart": 8867,
      "tired": 8868,
      "oning": 8869,
      "enrol": 8870,
      "poorest": 8871,
      "illa": 8872,
      "taught": 8873,
      "presentations": 8874,
      "employers": 8875,
      "sentenced": 8876,
      "mobile": 8877,
      "archit": 8878,
      "delayed": 8879,
      "heavily": 8880,
      "admissible": 8881,
      "Emphasizes": 8882,
      "prevailing": 8883,
      "Multilateral": 8884,
      "smell": 8885,
      "!\"": 8886,
      "DS": 8887,
      "seiz": 8888,
      "Unity": 8889,
      "decolonization": 8890,
      "anywhere": 8891,
      "180": 8892,
      "Papua": 8893,
      "Sm": 8894,
      "var": 8895,
      "UNAIDS": 8896,
      "leads": 8897,
      "busy": 8898,
      "INF": 8899,
      "Maldives": 8900,
      "Max": 8901,
      "consistency": 8902,
      "seekers": 8903,
      "occasions": 8904,
      "Between": 8905,
      "Brussels": 8906,
      "*,": 8907,
      "cancer": 8908,
      "iro": 8909,
      "ius": 8910,
      "vice": 8911,
      "arts": 8912,
      "whereas": 8913,
      "enny": 8914,
      "integrating": 8915,
      "Prev": 8916,
      "hearts": 8917,
      "deeds": 8918,
      "horr": 8919,
      "pregnancy": 8920,
      "utilized": 8921,
      "imagine": 8922,
      "divided": 8923,
      "accommodation": 8924,
      "Corrections": 8925,
      ")(": 8926,
      ".'": 8927,
      "Aspects": 8928,
      "GR": 8929,
      "Long": 8930,
      "Rich": 8931,
      "tree": 8932,
      "expo": 8933,
      "deserve": 8934,
      "1985": 8935,
      "telecom": 8936,
      "115": 8937,
      "CB": 8938,
      "Gra": 8939,
      "Turn": 8940,
      "auc": 8941,
      "pace": 8942,
      "tons": 8943,
      "testim": 8944,
      "wis": 8945,
      "decisive": 8946,
      "Christmas": 8947,
      "platform": 8948,
      "ECOWAS": 8949,
      "elderly": 8950,
      "intimid": 8951,
      "112": 8952,
      "LAC": 8953,
      "के": 8954,
      "align": 8955,
      "unpreced": 8956,
      "excuse": 8957,
      "environmentally": 8958,
      "expressing": 8959,
      "foundations": 8960,
      "referring": 8961,
      "Tribunals": 8962,
      "consisting": 8963,
      "Forests": 8964,
      "UNIFIL": 8965,
      "inhabitants": 8966,
      "unprecedented": 8967,
      "furn": 8968,
      "miles": 8969,
      "sending": 8970,
      "raw": 8971,
      "outline": 8972,
      "redress": 8973,
      "tensions": 8974,
      "everywhere": 8975,
      "IDB": 8976,
      "store": 8977,
      "returns": 8978,
      "universities": 8979,
      "reserves": 8980,
      "ecosystems": 8981,
      "fate": 8982,
      "vable": 8983,
      "alian": 8984,
      "porno": 8985,
      "Incl": 8986,
      "Governor": 8987,
      "potentially": 8988,
      "sufficiently": 8989,
      "aneous": 8990,
      "atmosphere": 8991,
      "Canadian": 8992,
      "Journal": 8993,
      "bought": 8994,
      "pas": 8995,
      "resume": 8996,
      "abil": 8997,
      "stry": 8998,
      "inval": 8999,
      "essentially": 9000,
      "resolving": 9001,
      "Standards": 9002,
      "Antig": 9003,
      "amazing": 9004,
      "CAT": 9005,
      "ura": 9006,
      "enact": 9007,
      "image": 9008,
      "prosp": 9009,
      "loan": 9010,
      "undersco": 9011,
      "ultimate": 9012,
      "arious": 9013,
      "surface": 9014,
      "waz": 9015,
      "prohibit": 9016,
      "launching": 9017,
      "iculty": 9018,
      "instalment": 9019,
      "iqué": 9020,
      "Body": 9021,
      "Swaz": 9022,
      "battle": 9023,
      "kn": 9024,
      "sold": 9025,
      "stering": 9026,
      "desk": 9027,
      "contractors": 9028,
      "Super": 9029,
      "Concerning": 9030,
      "codes": 9031,
      "abstentions": 9032,
      "administered": 9033,
      "Antigua": 9034,
      "Aid": 9035,
      "spot": 9036,
      "wages": 9037,
      "hamed": 9038,
      "Proposed": 9039,
      "merits": 9040,
      "collap": 9041,
      "student": 9042,
      "claimants": 9043,
      "honor": 9044,
      "revolution": 9045,
      "exhaust": 9046,
      "Swaziland": 9047,
      "'?": 9048,
      "Ra": 9049,
      "Tar": 9050,
      "ona": 9051,
      "Unless": 9052,
      "syner": 9053,
      "establishes": 9054,
      "indication": 9055,
      "difficulty": 9056,
      "firearms": 9057,
      "Quar": 9058,
      "returning": 9059,
      "Citiz": 9060,
      "memory": 9061,
      "],": 9062,
      "insecurity": 9063,
      "oros": 9064,
      "suicide": 9065,
      "mographic": 9066,
      "Hell": 9067,
      "profile": 9068,
      "Road": 9069,
      "Somet": 9070,
      "initially": 9071,
      "pledges": 9072,
      "immunity": 9073,
      "Robert": 9074,
      "adolescents": 9075,
      "juvenile": 9076,
      "tough": 9077,
      "sures": 9078,
      "Art": 9079,
      "Christian": 9080,
      "advisers": 9081,
      "wonderful": 9082,
      "Views": 9083,
      "inherent": 9084,
      "drought": 9085,
      "vous": 9086,
      "rote": 9087,
      "contemporary": 9088,
      "adult": 9089,
      "coordinator": 9090,
      "Friend": 9091,
      "prevented": 9092,
      "ECA": 9093,
      "suspended": 9094,
      "magn": 9095,
      "historic": 9096,
      "promptly": 9097,
      "jail": 9098,
      "spl": 9099,
      "reverse": 9100,
      "Conduc": 9101,
      "...?": 9102,
      "authorization": 9103,
      "clearance": 9104,
      "combination": 9105,
      "1981": 9106,
      "rooms": 9107,
      "OUT": 9108,
      "argument": 9109,
      "correction": 9110,
      "Mater": 9111,
      "Semin": 9112,
      "lass": 9113,
      "ala": 9114,
      "exposed": 9115,
      "buyer": 9116,
      "indicating": 9117,
      "characterized": 9118,
      "hurry": 9119,
      "UNAMSIL": 9120,
      "deterioration": 9121,
      "desirable": 9122,
      "Base": 9123,
      "Gar": 9124,
      "Que": 9125,
      "lement": 9126,
      "output": 9127,
      "retention": 9128,
      "mercury": 9129,
      "viron": 9130,
      "benefited": 9131,
      "Peaceful": 9132,
      "easier": 9133,
      "slavery": 9134,
      "certification": 9135,
      "Volunteers": 9136,
      "repeatedly": 9137,
      "satisfied": 9138,
      "branch": 9139,
      "Branch": 9140,
      "Want": 9141,
      "dict": 9142,
      "narcotic": 9143,
      "commo": 9144,
      "truck": 9145,
      "Still": 9146,
      "istence": 9147,
      "Read": 9148,
      "engers": 9149,
      "Addendum": 9150,
      "worthy": 9151,
      "Logistics": 9152,
      "Du": 9153,
      "Hall": 9154,
      "Next": 9155,
      "Vir": 9156,
      "imports": 9157,
      "agh": 9158,
      "lla": 9159,
      "eless": 9160,
      "workload": 9161,
      "White": 9162,
      "wherever": 9163,
      "vessels": 9164,
      "maternity": 9165,
      "rane": 9166,
      "profound": 9167,
      "ensured": 9168,
      "Barbud": 9169,
      "hospitals": 9170,
      "condemned": 9171,
      "spring": 9172,
      "Sometimes": 9173,
      "Barbuda": 9174,
      "Men": 9175,
      "replacement": 9176,
      "Reform": 9177,
      "aires": 9178,
      "retained": 9179,
      "Arbitration": 9180,
      "disadvantaged": 9181,
      "GM": 9182,
      "Round": 9183,
      "dar": 9184,
      "tory": 9185,
      "wild": 9186,
      "wrote": 9187,
      "enrich": 9188,
      "omon": 9189,
      "notion": 9190,
      "wearing": 9191,
      "shad": 9192,
      "uding": 9193,
      "blame": 9194,
      "1540": 9195,
      "defining": 9196,
      "feels": 9197,
      "suspected": 9198,
      "Culture": 9199,
      "Officers": 9200,
      "green": 9201,
      "mobilizing": 9202,
      "adherence": 9203,
      "Bret": 9204,
      "Far": 9205,
      "Tor": 9206,
      "TER": 9207,
      "ki": 9208,
      "nom": 9209,
      "pure": 9210,
      "tet": 9211,
      "agues": 9212,
      "preserv": 9213,
      "scour": 9214,
      "buddy": 9215,
      "affordable": 9216,
      "referendum": 9217,
      "Vincent": 9218,
      "gé": 9219,
      "accommo": 9220,
      "Comment": 9221,
      "mercy": 9222,
      "seconds": 9223,
      "girlfriend": 9224,
      "enjoyed": 9225,
      "dropped": 9226,
      "aspirations": 9227,
      "Golan": 9228,
      "Ve": 9229,
      "mud": 9230,
      "oo": 9231,
      "oceans": 9232,
      "pup": 9233,
      "trop": 9234,
      "vit": 9235,
      "formulating": 9236,
      "Italian": 9237,
      "Maritime": 9238,
      "civilizations": 9239,
      "160": 9240,
      "prisons": 9241,
      "Coll": 9242,
      "distance": 9243,
      "wedding": 9244,
      "critic": 9245,
      "logistical": 9246,
      "doctr": 9247,
      "pledged": 9248,
      "fulfilling": 9249,
      "bottom": 9250,
      "Bal": 9251,
      "Love": 9252,
      "fan": 9253,
      "contam": 9254,
      "ums": 9255,
      "bris": 9256,
      "casual": 9257,
      "suspect": 9258,
      "Brother": 9259,
      "stipulated": 9260,
      "minimize": 9261,
      "shares": 9262,
      "NATO": 9263,
      "Bud": 9264,
      "Mind": 9265,
      "bloc": 9266,
      "pandem": 9267,
      "vacc": 9268,
      "west": 9269,
      "ounce": 9270,
      "ifiable": 9271,
      "opposed": 9272,
      "priorit": 9273,
      "annexes": 9274,
      "sentences": 9275,
      "ashion": 9276,
      "1978": 9277,
      "observe": 9278,
      "Parliamentary": 9279,
      "hungry": 9280,
      "',": 9281,
      "Bab": 9282,
      "Cru": 9283,
      "dual": 9284,
      "hen": 9285,
      "affects": 9286,
      "Decolonization": 9287,
      "108": 9288,
      "iname": 9289,
      "statute": 9290,
      "suggests": 9291,
      "Suriname": 9292,
      "executions": 9293,
      "Woods": 9294,
      "Number": 9295,
[...]
